987bfd62987bfd62987bfd62987bfd625fec03625fec03625fec03625fec0362 
9001957490019574900195749001957452467341524673415246734152467341
23fc7fa123fc7fa123fc7fa123fc7fa174966552749665527496655274966552
7f35c7817f35c7817f35c7817f35c781da16f03dda16f03dda16f03dda16f03d
7983ed127983ed127983ed127983ed129ae27fd79ae27fd79ae27fd79ae27fd7
671b5e7b671b5e7b671b5e7b671b5e7b36a7ad1836a7ad1836a7ad1836a7ad18
dfbaa857dfbaa857dfbaa857dfbaa8579a8e5e339a8e5e339a8e5e339a8e5e33
32e41f8732e41f8732e41f8732e41f87934d7008934d7008934d7008934d7008
182a21db182a21db182a21db182a21dbf9ca4ab9f9ca4ab9f9ca4ab9f9ca4ab9
d79b6581d79b6581d79b6581d79b65813cae8be33cae8be33cae8be33cae8be3
636b1d77636b1d77636b1d77636b1d77d7d6f2b5d7d6f2b5d7d6f2b5d7d6f2b5
ff0e6f03ff0e6f03ff0e6f03ff0e6f03659949cb659949cb659949cb659949cb
6728c0de6728c0de6728c0de6728c0de81791201817912018179120181791201
bd2906f4bd2906f4bd2906f4bd2906f4816edd55816edd55816edd55816edd55
5ee319f35ee319f35ee319f35ee319f399dc1ffd99dc1ffd99dc1ffd99dc1ffd
b3f35779b3f35779b3f35779b3f3577998959052989590529895905298959052
6dbb7e7e6dbb7e7e6dbb7e7e6dbb7e7e770a4153770a4153770a4153770a4153
5d9e19985d9e19985d9e19985d9e1998fb114db7fb114db7fb114db7fb114db7
7f4138e17f4138e17f4138e17f4138e10ec181cb0ec181cb0ec181cb0ec181cb
c029dedac029dedac029dedac029dedaf948882ff948882ff948882ff948882f
c4815fbdc4815fbdc4815fbdc4815fbd9581098e9581098e9581098e9581098e
f0b3eedbf0b3eedbf0b3eedbf0b3eedbe06d013ce06d013ce06d013ce06d013c
532494f0532494f0532494f0532494f037c2d8c537c2d8c537c2d8c537c2d8c5
4f4781984f4781984f4781984f4781983a7463a33a7463a33a7463a33a7463a3
a20017a2a20017a2a20017a2a20017a28c53352e8c53352e8c53352e8c53352e
0010a4520010a4520010a4520010a45242c622ac42c622ac42c622ac42c622ac
bc27e058bc27e058bc27e058bc27e05873687d3c73687d3c73687d3c73687d3c
dae22ec1dae22ec1dae22ec1dae22ec12960e47f2960e47f2960e47f2960e47f
37a89f5737a89f5737a89f5737a89f57d327ee90d327ee90d327ee90d327ee90
db3f630fdb3f630fdb3f630fdb3f630fdfbfb061dfbfb061dfbfb061dfbfb061
4836b6a64836b6a64836b6a64836b6a6a6f84a5da6f84a5da6f84a5da6f84a5d
9519938495199384951993849519938456ca87fc56ca87fc56ca87fc56ca87fc
9856b6ec9856b6ec9856b6ec9856b6ec0404b67e0404b67e0404b67e0404b67e
32b64e1f32b64e1f32b64e1f32b64e1f33d8158433d8158433d8158433d81584
344866e8344866e8344866e8344866e8db3d684edb3d684edb3d684edb3d684e
857bb94e857bb94e857bb94e857bb94ea42bca09a42bca09a42bca09a42bca09
7f5975c27f5975c27f5975c27f5975c2efa1872aefa1872aefa1872aefa1872a
17c0b2e017c0b2e017c0b2e017c0b2e02981815f2981815f2981815f2981815f
db6387a7db6387a7db6387a7db6387a710508b9010508b9010508b9010508b90
8991b7dc8991b7dc8991b7dc8991b7dc22d9184922d9184922d9184922d91849
7f1e5bd47f1e5bd47f1e5bd47f1e5bd4812b1add812b1add812b1add812b1add
9ffe2e999ffe2e999ffe2e999ffe2e997678a7897678a7897678a7897678a789
6504924c6504924c6504924c6504924c817f1831817f1831817f1831817f1831
6acb8d4f6acb8d4f6acb8d4f6acb8d4f031086f5031086f5031086f5031086f5
051d301e051d301e051d301e051d301e31815c0e31815c0e31815c0e31815c0e
64c8c13764c8c13764c8c13764c8c1372101cceb2101cceb2101cceb2101cceb
e581bf02e581bf02e581bf02e581bf0281490011814900118149001181490011
dc22093cdc22093cdc22093cdc22093c810310e7810310e7810310e7810310e7
3d625d623d625d623d625d623d625d6234bb2ac734bb2ac734bb2ac734bb2ac7
480f841c480f841c480f841c480f841c7c5f4d9e7c5f4d9e7c5f4d9e7c5f4d9e
50c8096e50c8096e50c8096e50c8096edb4ed49adb4ed49adb4ed49adb4ed49a
45b442fd45b442fd45b442fd45b442fddb866a22db866a22db866a22db866a22
64fb877b64fb877b64fb877b64fb877be256f0afe256f0afe256f0afe256f0af
103958fd103958fd103958fd103958fdfcde5b21fcde5b21fcde5b21fcde5b21
efe6ae7befe6ae7befe6ae7befe6ae7be55d6abbe55d6abbe55d6abbe55d6abb
cf778151cf778151cf778151cf778151016e7fca016e7fca016e7fca016e7fca
8188d3f48188d3f48188d3f48188d3f48abd93fc8abd93fc8abd93fc8abd93fc
c3826fc0c3826fc0c3826fc0c3826fc0154a9e7f154a9e7f154a9e7f154a9e7f
d2ece59fd2ece59fd2ece59fd2ece59f20a03a7420a03a7420a03a7420a03a74
b98b404eb98b404eb98b404eb98b404ecd15921dcd15921dcd15921dcd15921d
6d96c7c96d96c7c96d96c7c96d96c7c9fa2e8a02fa2e8a02fa2e8a02fa2e8a02
26f992e526f992e526f992e526f992e50090a22e0090a22e0090a22e0090a22e
a274f211a274f211a274f211a274f211fa20e881fa20e881fa20e881fa20e881
8e8528ff8e8528ff8e8528ff8e8528ffbcc364d8bcc364d8bcc364d8bcc364d8
54ad551854ad551854ad551854ad551818b1078a18b1078a18b1078a18b1078a
bdccd499bdccd499bdccd499bdccd499fa4ab98cfa4ab98cfa4ab98cfa4ab98c
0a81486b0a81486b0a81486b0a81486b920eee23920eee23920eee23920eee23
15cd709615cd709615cd709615cd7096816992f4816992f4816992f4816992f4
a8129853a8129853a8129853a812985333393b7533393b7533393b7533393b75
a9d71d83a9d71d83a9d71d83a9d71d83ffaf6079ffaf6079ffaf6079ffaf6079
c0811008c0811008c0811008c08110087fada4817fada4817fada4817fada481
0781501a0781501a0781501a0781501a7fa5d3617fa5d3617fa5d3617fa5d361
7419edb87419edb87419edb87419edb8783c7abb783c7abb783c7abb783c7abb
67c8279267c8279267c8279267c827922b3fa9c72b3fa9c72b3fa9c72b3fa9c7
13ed76b213ed76b213ed76b213ed76b22275baf42275baf42275baf42275baf4
0f7d7fce0f7d7fce0f7d7fce0f7d7fceda726a96da726a96da726a96da726a96
8aaf25fc8aaf25fc8aaf25fc8aaf25fcdf14e1b4df14e1b4df14e1b4df14e1b4
cbf9b92dcbf9b92dcbf9b92dcbf9b92d3bd4f58a3bd4f58a3bd4f58a3bd4f58a
27f9927327f9927327f9927327f992734bd4f6aa4bd4f6aa4bd4f6aa4bd4f6aa
0a97894a0a97894a0a97894a0a97894a6e8613c86e8613c86e8613c86e8613c8
a12c7430a12c7430a12c7430a12c743023a06a8923a06a8923a06a8923a06a89
8fea2a928fea2a928fea2a928fea2a92293e41fc293e41fc293e41fc293e41fc
4c7e38f74c7e38f74c7e38f74c7e38f751bc500d51bc500d51bc500d51bc500d
2a0a10d82a0a10d82a0a10d82a0a10d8ee9602adee9602adee9602adee9602ad
e7907ff9e7907ff9e7907ff9e7907ff913c640de13c640de13c640de13c640de
97962a4c97962a4c97962a4c97962a4cff11f420ff11f420ff11f420ff11f420
5ce3a0f35ce3a0f35ce3a0f35ce3a0f377413650774136507741365077413650
0c0c2a130c0c2a130c0c2a130c0c2a13a8856157a8856157a8856157a8856157
92eccb6c92eccb6c92eccb6c92eccb6c5cfa08e75cfa08e75cfa08e75cfa08e7
90a856e890a856e890a856e890a856e87329b9e47329b9e47329b9e47329b9e4
4c1f81d64c1f81d64c1f81d64c1f81d606f5bb8e06f5bb8e06f5bb8e06f5bb8e
ef888783ef888783ef888783ef8887839ff52af49ff52af49ff52af49ff52af4
a0023eeda0023eeda0023eeda0023eedab703857ab703857ab703857ab703857
41db754f41db754f41db754f41db754fad4bb1bdad4bb1bdad4bb1bdad4bb1bd
1b0bd00b1b0bd00b1b0bd00b1b0bd00b7caf33497caf33497caf33497caf3349
2253b9602253b9602253b9602253b96058ba28f158ba28f158ba28f158ba28f1
b5e7399eb5e7399eb5e7399eb5e7399ec2744d89c2744d89c2744d89c2744d89
7d2acdbf7d2acdbf7d2acdbf7d2acdbfcbb88370cbb88370cbb88370cbb88370
0ee00c020ee00c020ee00c020ee00c02b2ba5ba4b2ba5ba4b2ba5ba4b2ba5ba4
ae44a5f6ae44a5f6ae44a5f6ae44a5f65886f7485886f7485886f7485886f748
cb824cbbcb824cbbcb824cbbcb824cbb5b3dc8d95b3dc8d95b3dc8d95b3dc8d9
1ab07ff81ab07ff81ab07ff81ab07ff83d639a9f3d639a9f3d639a9f3d639a9f
6431231464312314643123146431231422d2d9dd22d2d9dd22d2d9dd22d2d9dd
9a1428439a1428439a1428439a14284323bcce7d23bcce7d23bcce7d23bcce7d
fd269f14fd269f14fd269f14fd269f1460903bff60903bff60903bff60903bff
05f50e8205f50e8205f50e8205f50e8265a1bee665a1bee665a1bee665a1bee6
3fcfa0303fcfa0303fcfa0303fcfa030f8db3865f8db3865f8db3865f8db3865
9559b02a9559b02a9559b02a9559b02ae1d1b17fe1d1b17fe1d1b17fe1d1b17f
49a32d8449a32d8449a32d8449a32d840181daad0181daad0181daad0181daad
ba23436eba23436eba23436eba23436e67d6902967d6902967d6902967d69029
22608b6922608b6922608b6922608b6997af81dc97af81dc97af81dc97af81dc
f6945389f6945389f6945389f6945389fe2ecd6ffe2ecd6ffe2ecd6ffe2ecd6f
bf38028ebf38028ebf38028ebf38028eb236c556b236c556b236c556b236c556
f134623ff134623ff134623ff134623f607d3870607d3870607d3870607d3870
c39cc7d4c39cc7d4c39cc7d4c39cc7d423c9426223c9426223c9426223c94262
387f4f37387f4f37387f4f37387f4f3725bf950625bf950625bf950625bf9506
7fe0a3897fe0a3897fe0a3897fe0a3896195a9b46195a9b46195a9b46195a9b4
5c856b445c856b445c856b445c856b4408d9320708d9320708d9320708d93207
225a5b2a225a5b2a225a5b2a225a5b2a265bc3fe265bc3fe265bc3fe265bc3fe
baff968dbaff968dbaff968dbaff968d79c20b3b79c20b3b79c20b3b79c20b3b
02abefe702abefe702abefe702abefe76709441e6709441e6709441e6709441e
e61b6be6e61b6be6e61b6be6e61b6be697f2ec9b97f2ec9b97f2ec9b97f2ec9b
8181537f8181537f8181537f8181537f2bb9381d2bb9381d2bb9381d2bb9381d
83a5c2d883a5c2d883a5c2d883a5c2d89b76b99a9b76b99a9b76b99a9b76b99a
86e6ff2386e6ff2386e6ff2386e6ff23f64d5b50f64d5b50f64d5b50f64d5b50
67c68a0067c68a0067c68a0067c68a00671979c1671979c1671979c1671979c1
228f56dc228f56dc228f56dc228f56dc5bcfe4965bcfe4965bcfe4965bcfe496
307feb1f307feb1f307feb1f307feb1fc54faf8bc54faf8bc54faf8bc54faf8b
e406cd64e406cd64e406cd64e406cd64cdf78d7fcdf78d7fcdf78d7fcdf78d7f
fb267a81fb267a81fb267a81fb267a812e5824a92e5824a92e5824a92e5824a9
0fc033140fc033140fc033140fc0331412d6772312d6772312d6772312d67723
f90d3c14f90d3c14f90d3c14f90d3c14ad77b2d4ad77b2d4ad77b2d4ad77b2d4
b2c5bcb8b2c5bcb8b2c5bcb8b2c5bcb859b4882459b4882459b4882459b48824
c2db7f44c2db7f44c2db7f44c2db7f44db38dd9bdb38dd9bdb38dd9bdb38dd9b
9d2871419d2871419d2871419d287141c2bd7e0ec2bd7e0ec2bd7e0ec2bd7e0e
2c4906232c4906232c4906232c4906236683a1326683a1326683a1326683a132
ade3e9eaade3e9eaade3e9eaade3e9ea817f5ad4817f5ad4817f5ad4817f5ad4
81198535811985358119853581198535ee566210ee566210ee566210ee566210
2e13738b2e13738b2e13738b2e13738b94dabc2094dabc2094dabc2094dabc20
163970d7163970d7163970d7163970d7e7686e73e7686e73e7686e73e7686e73
25606ad625606ad625606ad625606ad6bb22f894bb22f894bb22f894bb22f894
af2864d8af2864d8af2864d8af2864d827cb946027cb946027cb946027cb9460
518169e7518169e7518169e7518169e717725739177257391772573917725739
e753ba37e753ba37e753ba37e753ba37d85b58fdd85b58fdd85b58fdd85b58fd
8a42b49b8a42b49b8a42b49b8a42b49b722b3f23722b3f23722b3f23722b3f23
0d636c480d636c480d636c480d636c48af60b67faf60b67faf60b67faf60b67f
a05f3ba6a05f3ba6a05f3ba6a05f3ba6a58156aca58156aca58156aca58156ac
0d2ee8430d2ee8430d2ee8430d2ee843f93705c3f93705c3f93705c3f93705c3
e181af48e181af48e181af48e181af48287c5b97287c5b97287c5b97287c5b97
4a66b5b64a66b5b64a66b5b64a66b5b65764b6b35764b6b35764b6b35764b6b3
3b91657e3b91657e3b91657e3b91657ed59ee1c3d59ee1c3d59ee1c3d59ee1c3
d790fa83d790fa83d790fa83d790fa833bef01d93bef01d93bef01d93bef01d9
88a7e56b88a7e56b88a7e56b88a7e56b2897b8812897b8812897b8812897b881
ab62aa07ab62aa07ab62aa07ab62aa077fe0821f7fe0821f7fe0821f7fe0821f
c9917feec9917feec9917feec9917fee06995345069953450699534506995345
c07feacfc07feacfc07feacfc07feacf812c1b7c812c1b7c812c1b7c812c1b7c
db3ccf54db3ccf54db3ccf54db3ccf548fed8d198fed8d198fed8d198fed8d19
c1bb1abcc1bb1abcc1bb1abcc1bb1abc6e45cc0d6e45cc0d6e45cc0d6e45cc0d
e4dea8b7e4dea8b7e4dea8b7e4dea8b7837c857f837c857f837c857f837c857f
d5eb03c7d5eb03c7d5eb03c7d5eb03c744fee1c644fee1c644fee1c644fee1c6
4cf1f0964cf1f0964cf1f0964cf1f09622c34dfb22c34dfb22c34dfb22c34dfb
227f6f81227f6f81227f6f81227f6f81b5471cd8b5471cd8b5471cd8b5471cd8
8481437284814372848143728481437284236981842369818423698184236981
8ff1c27e8ff1c27e8ff1c27e8ff1c27e60956a0360956a0360956a0360956a03
ba3a0c39ba3a0c39ba3a0c39ba3a0c3918169adc18169adc18169adc18169adc
7c8e01837c8e01837c8e01837c8e018363b3bffb63b3bffb63b3bffb63b3bffb
81c4d23b81c4d23b81c4d23b81c4d23baa234466aa234466aa234466aa234466
51c8b07051c8b07051c8b07051c8b070067ed94b067ed94b067ed94b067ed94b
3d5bb3273d5bb3273d5bb3273d5bb3276c6c41816c6c41816c6c41816c6c4181
69fa32ff69fa32ff69fa32ff69fa32ff3cb0129e3cb0129e3cb0129e3cb0129e
55ac5dd055ac5dd055ac5dd055ac5dd08c3dc8ce8c3dc8ce8c3dc8ce8c3dc8ce
6fc9b6196fc9b6196fc9b6196fc9b6193b6bf57e3b6bf57e3b6bf57e3b6bf57e
75df5b1375df5b1375df5b1375df5b133a006bff3a006bff3a006bff3a006bff
36d2d26536d2d26536d2d26536d2d265739f7f26739f7f26739f7f26739f7f26
7f9d8ec27f9d8ec27f9d8ec27f9d8ec2390d8c87390d8c87390d8c87390d8c87
75c27f8975c27f8975c27f8975c27f89eaea0b25eaea0b25eaea0b25eaea0b25
9b287a2e9b287a2e9b287a2e9b287a2ec8537f15c8537f15c8537f15c8537f15
35db2ad735db2ad735db2ad735db2ad7c09f34d8c09f34d8c09f34d8c09f34d8
878ceb40878ceb40878ceb40878ceb40d2ff851fd2ff851fd2ff851fd2ff851f
708825a5708825a5708825a5708825a5177fd425177fd425177fd425177fd425
526a9789526a9789526a9789526a9789ea0c0a73ea0c0a73ea0c0a73ea0c0a73
8121728a8121728a8121728a8121728a5c72cbdd5c72cbdd5c72cbdd5c72cbdd
dd68a819dd68a819dd68a819dd68a81992e8591192e8591192e8591192e85911
722dc8ec722dc8ec722dc8ec722dc8ec7ed2f6577ed2f6577ed2f6577ed2f657
e3940c25e3940c25e3940c25e3940c2554bfff8b54bfff8b54bfff8b54bfff8b
4d5012634d5012634d5012634d5012630dcb37670dcb37670dcb37670dcb3767
a3a9cf4fa3a9cf4fa3a9cf4fa3a9cf4f21da60cd21da60cd21da60cd21da60cd
7abd81337abd81337abd81337abd81331574a63d1574a63d1574a63d1574a63d
c2910d95c2910d95c2910d95c2910d959cd910819cd910819cd910819cd91081
1717927d1717927d1717927d1717927d7feff5027feff5027feff5027feff502
51c2b88151c2b88151c2b88151c2b8815d06e1c75d06e1c75d06e1c75d06e1c7
7bc515867bc515867bc515867bc5158662a6179962a6179962a6179962a61799
7fab36a57fab36a57fab36a57fab36a5aa50f520aa50f520aa50f520aa50f520
005a8e6d005a8e6d005a8e6d005a8e6d6c4fccff6c4fccff6c4fccff6c4fccff
f1f3aee7f1f3aee7f1f3aee7f1f3aee75f21b0985f21b0985f21b0985f21b098
67c320cd67c320cd67c320cd67c320cd9fd7a72c9fd7a72c9fd7a72c9fd7a72c
a2b43330a2b43330a2b43330a2b43330eacaeeb6eacaeeb6eacaeeb6eacaeeb6
86cb4ff686cb4ff686cb4ff686cb4ff6eec36c44eec36c44eec36c44eec36c44
2ef7b5342ef7b5342ef7b5342ef7b534a4ae87b3a4ae87b3a4ae87b3a4ae87b3
f890337ff890337ff890337ff890337fab6cc7fdab6cc7fdab6cc7fdab6cc7fd
9b94c7ed9b94c7ed9b94c7ed9b94c7edb41039dfb41039dfb41039dfb41039df
444b4848444b4848444b4848444b484867a9379367a9379367a9379367a93793
219297042192970421929704219297047192142f7192142f7192142f7192142f
02433db202433db202433db202433db2a5a15b1da5a15b1da5a15b1da5a15b1d
3d688f893d688f893d688f893d688f8954d59a3e54d59a3e54d59a3e54d59a3e
f962dc8cf962dc8cf962dc8cf962dc8ccc347f0ecc347f0ecc347f0ecc347f0e
2a746ef02a746ef02a746ef02a746ef0d4436681d4436681d4436681d4436681
2d287faf2d287faf2d287faf2d287faffd00e622fd00e622fd00e622fd00e622
5c73c87f5c73c87f5c73c87f5c73c87f35391a7435391a7435391a7435391a74
7db666e77db666e77db666e77db666e7167fc0dd167fc0dd167fc0dd167fc0dd
05e4b7d605e4b7d605e4b7d605e4b7d6e974e722e974e722e974e722e974e722
68448ddb68448ddb68448ddb68448ddba6fb94b2a6fb94b2a6fb94b2a6fb94b2
38825dfb38825dfb38825dfb38825dfb8a493f668a493f668a493f668a493f66
10d4d62910d4d62910d4d62910d4d6299dc84f389dc84f389dc84f389dc84f38
8a02c8ba8a02c8ba8a02c8ba8a02c8ba0a7f77eb0a7f77eb0a7f77eb0a7f77eb
fa0d5e7ffa0d5e7ffa0d5e7ffa0d5e7f21daa20121daa20121daa20121daa201
7fa685d27fa685d27fa685d27fa685d2e0ead654e0ead654e0ead654e0ead654
863e18cd863e18cd863e18cd863e18cde39a62f0e39a62f0e39a62f0e39a62f0
f6cf20a5f6cf20a5f6cf20a5f6cf20a57067315e7067315e7067315e7067315e
df76863cdf76863cdf76863cdf76863ca84f8597a84f8597a84f8597a84f8597
fa23f94dfa23f94dfa23f94dfa23f94de6185f3fe6185f3fe6185f3fe6185f3f
84db19cc84db19cc84db19cc84db19cc17577cc417577cc417577cc417577cc4
0b72b2070b72b2070b72b2070b72b207cf038204cf038204cf038204cf038204
08306de008306de008306de008306de058336dd058336dd058336dd058336dd0
818a8dff818a8dff818a8dff818a8dffc7494a65c7494a65c7494a65c7494a65
7f554e677f554e677f554e677f554e6792346e7692346e7692346e7692346e76
f900e625f900e625f900e625f900e6257c41df1f7c41df1f7c41df1f7c41df1f
a40758fea40758fea40758fea40758fefdfb9772fdfb9772fdfb9772fdfb9772
beab557dbeab557dbeab557dbeab557dbffba99cbffba99cbffba99cbffba99c
006516880065168800651688006516884ad121284ad121284ad121284ad12128
93e5500e93e5500e93e5500e93e5500e57c7471057c7471057c7471057c74710
c29161d6c29161d6c29161d6c29161d68147b9828147b9828147b9828147b982
73cf745e73cf745e73cf745e73cf745ed1157ecad1157ecad1157ecad1157eca
dbb42588dbb42588dbb42588dbb42588967b6c5d967b6c5d967b6c5d967b6c5d
1ee251151ee251151ee251151ee25115a0ed5781a0ed5781a0ed5781a0ed5781
371ea086371ea086371ea086371ea0866da61e716da61e716da61e716da61e71
1c5bce711c5bce711c5bce711c5bce7144b5832a44b5832a44b5832a44b5832a
5c0f52e15c0f52e15c0f52e15c0f52e10b6b57580b6b57580b6b57580b6b5758
aa58d2e6aa58d2e6aa58d2e6aa58d2e693af66f493af66f493af66f493af66f4
5bf9c2e15bf9c2e15bf9c2e15bf9c2e16c128cfa6c128cfa6c128cfa6c128cfa
776807f9776807f9776807f9776807f9fea9734afea9734afea9734afea9734a
fe6eb898fe6eb898fe6eb898fe6eb898fccc5da8fccc5da8fccc5da8fccc5da8
5bdfabb75bdfabb75bdfabb75bdfabb746e9389746e9389746e9389746e93897
ace5e32face5e32face5e32face5e32f9413322a9413322a9413322a9413322a
7fc5f1a27fc5f1a27fc5f1a27fc5f1a22a5489792a5489792a5489792a548979
70cea9c170cea9c170cea9c170cea9c1865779b9865779b9865779b9865779b9
5be2c3145be2c3145be2c3145be2c314542be329542be329542be329542be329
3a8bb3b03a8bb3b03a8bb3b03a8bb3b0851c0aab851c0aab851c0aab851c0aab
021b442e021b442e021b442e021b442eb714e37eb714e37eb714e37eb714e37e
1c8fcb601c8fcb601c8fcb601c8fcb6011ae224611ae224611ae224611ae2246
1a972f381a972f381a972f381a972f38a63e6ce1a63e6ce1a63e6ce1a63e6ce1
8da76fbd8da76fbd8da76fbd8da76fbdd8f60800d8f60800d8f60800d8f60800
137935fe137935fe137935fe137935feca926bbcca926bbcca926bbcca926bbc
dbf8abacdbf8abacdbf8abacdbf8abac10d21b6d10d21b6d10d21b6d10d21b6d
d7ee81afd7ee81afd7ee81afd7ee81af087f3941087f3941087f3941087f3941
fbaca650fbaca650fbaca650fbaca650c8d7fb86c8d7fb86c8d7fb86c8d7fb86
51ede26151ede26151ede26151ede261f4e61361f4e61361f4e61361f4e61361
d5a75ae0d5a75ae0d5a75ae0d5a75ae07f8d15197f8d15197f8d15197f8d1519
94a5c82d94a5c82d94a5c82d94a5c82dbce30f47bce30f47bce30f47bce30f47
4b31bc4d4b31bc4d4b31bc4d4b31bc4d7d4ff5b27d4ff5b27d4ff5b27d4ff5b2
b3157fe7b3157fe7b3157fe7b3157fe7f63260e1f63260e1f63260e1f63260e1
6cd612ed6cd612ed6cd612ed6cd612ed67b41f7c67b41f7c67b41f7c67b41f7c
6305cdbe6305cdbe6305cdbe6305cdbe496dd8b5496dd8b5496dd8b5496dd8b5
fed84a87fed84a87fed84a87fed84a8781b70b2481b70b2481b70b2481b70b24
6f71f9856f71f9856f71f9856f71f9857fc92e4b7fc92e4b7fc92e4b7fc92e4b
53a9585853a9585853a9585853a9585881caef4c81caef4c81caef4c81caef4c
42661daa42661daa42661daa42661daa1f6c5f4f1f6c5f4f1f6c5f4f1f6c5f4f
bddfaa81bddfaa81bddfaa81bddfaa8172be442f72be442f72be442f72be442f
aa2da27caa2da27caa2da27caa2da27c64357f4164357f4164357f4164357f41
776ef90f776ef90f776ef90f776ef90f18ce292818ce292818ce292818ce2928
8f1a7e348f1a7e348f1a7e348f1a7e345fe36e9b5fe36e9b5fe36e9b5fe36e9b
737d8d64737d8d64737d8d64737d8d645fe2e9045fe2e9045fe2e9045fe2e904
922ce6d2922ce6d2922ce6d2922ce6d2cd121e48cd121e48cd121e48cd121e48
bb8fddfdbb8fddfdbb8fddfdbb8fddfd95b4864095b4864095b4864095b48640
77e2895b77e2895b77e2895b77e2895bf7fe8127f7fe8127f7fe8127f7fe8127
a27727cca27727cca27727cca27727ccf8c69cdef8c69cdef8c69cdef8c69cde
a1a30685a1a30685a1a30685a1a306859bcfd9059bcfd9059bcfd9059bcfd905
383061fd383061fd383061fd383061fd48375ddb48375ddb48375ddb48375ddb
811ee6f1811ee6f1811ee6f1811ee6f1b4ab72bbb4ab72bbb4ab72bbb4ab72bb
93e0b81593e0b81593e0b81593e0b815b942eed1b942eed1b942eed1b942eed1
44040818440408184404081844040818cde7c30ccde7c30ccde7c30ccde7c30c
bd2ecfafbd2ecfafbd2ecfafbd2ecfafa8c505aea8c505aea8c505aea8c505ae
7f019a0f7f019a0f7f019a0f7f019a0f187367b2187367b2187367b2187367b2
3c58ef873c58ef873c58ef873c58ef87f487777ff487777ff487777ff487777f
f9fb81eaf9fb81eaf9fb81eaf9fb81ea7fce0a817fce0a817fce0a817fce0a81
4ce7b0674ce7b0674ce7b0674ce7b0676f6a17276f6a17276f6a17276f6a1727
239cb469239cb469239cb469239cb46999f2036e99f2036e99f2036e99f2036e
534f7f5a534f7f5a534f7f5a534f7f5aac5371d3ac5371d3ac5371d3ac5371d3
1306f98c1306f98c1306f98c1306f98c3a27534f3a27534f3a27534f3a27534f
61228bc361228bc361228bc361228bc3567e85aa567e85aa567e85aa567e85aa
347c8781347c8781347c8781347c878181da76f481da76f481da76f481da76f4
6079dcc06079dcc06079dcc06079dcc007257c3707257c3707257c3707257c37
baf91b65baf91b65baf91b65baf91b657f3b8ba17f3b8ba17f3b8ba17f3b8ba1
ef91f990ef91f990ef91f990ef91f990367fbd1d367fbd1d367fbd1d367fbd1d
e0202b34e0202b34e0202b34e0202b34a075a14fa075a14fa075a14fa075a14f
425294ec425294ec425294ec425294ec942d3fe8942d3fe8942d3fe8942d3fe8
5e62e9815e62e9815e62e9815e62e98199ae7fdb99ae7fdb99ae7fdb99ae7fdb
86497f2f86497f2f86497f2f86497f2f009d5536009d5536009d5536009d5536
160b5a85160b5a85160b5a85160b5a857ecc21f07ecc21f07ecc21f07ecc21f0
8151b5858151b5858151b5858151b585f770d388f770d388f770d388f770d388
f321b56ef321b56ef321b56ef321b56e87d1ae7e87d1ae7e87d1ae7e87d1ae7e
4d12d73b4d12d73b4d12d73b4d12d73b010efef8010efef8010efef8010efef8
b12932b1b12932b1b12932b1b12932b197fd6c6397fd6c6397fd6c6397fd6c63
9839cc869839cc869839cc869839cc86e89a84b8e89a84b8e89a84b8e89a84b8
358db977358db977358db977358db9775d1fcac65d1fcac65d1fcac65d1fcac6
6f90c7706f90c7706f90c7706f90c7709e4a66669e4a66669e4a66669e4a6666
742f91f3742f91f3742f91f3742f91f3a89d7f99a89d7f99a89d7f99a89d7f99
afc768a2afc768a2afc768a2afc768a2c045c287c045c287c045c287c045c287
efcc2dceefcc2dceefcc2dceefcc2dcedb2c7ffcdb2c7ffcdb2c7ffcdb2c7ffc
917539e0917539e0917539e0917539e049c8564849c8564849c8564849c85648
13fb074113fb074113fb074113fb0741edced716edced716edced716edced716
d5e3968ed5e3968ed5e3968ed5e3968e8dfbba6e8dfbba6e8dfbba6e8dfbba6e
38778381387783813877838138778381dbc2721fdbc2721fdbc2721fdbc2721f
880f22c0880f22c0880f22c0880f22c0b86b6cdeb86b6cdeb86b6cdeb86b6cde
b24d8f7fb24d8f7fb24d8f7fb24d8f7fd3670a4fd3670a4fd3670a4fd3670a4f
2a8b36be2a8b36be2a8b36be2a8b36bea8a0ae54a8a0ae54a8a0ae54a8a0ae54
5ad634e95ad634e95ad634e95ad634e9de256e84de256e84de256e84de256e84
0ca4427f0ca4427f0ca4427f0ca4427f7aacddbb7aacddbb7aacddbb7aacddbb
49faa55e49faa55e49faa55e49faa55e65136ca865136ca865136ca865136ca8
163a106b163a106b163a106b163a106bafd68328afd68328afd68328afd68328
412cfe7f412cfe7f412cfe7f412cfe7ffccf413bfccf413bfccf413bfccf413b
37de6b0737de6b0737de6b0737de6b075e5ab9285e5ab9285e5ab9285e5ab928
dba5d18ddba5d18ddba5d18ddba5d18d35c7df3e35c7df3e35c7df3e35c7df3e
75a2446b75a2446b75a2446b75a2446b9c2d2f599c2d2f599c2d2f599c2d2f59
eb34f91ceb34f91ceb34f91ceb34f91c81d148f781d148f781d148f781d148f7
f7a5bd57f7a5bd57f7a5bd57f7a5bd5703da9a6803da9a6803da9a6803da9a68
3573237e3573237e3573237e3573237e06fb748f06fb748f06fb748f06fb748f
b1181cadb1181cadb1181cadb1181cad8b0aabac8b0aabac8b0aabac8b0aabac
bda0637abda0637abda0637abda0637a2e8161612e8161612e8161612e816161
aa913fdbaa913fdbaa913fdbaa913fdba0d91834a0d91834a0d91834a0d91834
9f363a5c9f363a5c9f363a5c9f363a5c7ff478f87ff478f87ff478f87ff478f8
e2f2d090e2f2d090e2f2d090e2f2d090b84bd47eb84bd47eb84bd47eb84bd47e
2e07760c2e07760c2e07760c2e07760c0f14beee0f14beee0f14beee0f14beee
e2b09603e2b09603e2b09603e2b09603dca4f4badca4f4badca4f4badca4f4ba
86ed285e86ed285e86ed285e86ed285eb6a82250b6a82250b6a82250b6a82250
d458537bd458537bd458537bd458537be1614cbfe1614cbfe1614cbfe1614cbf
94fc756c94fc756c94fc756c94fc756c346ad041346ad041346ad041346ad041
0c389b270c389b270c389b270c389b273c1f3f063c1f3f063c1f3f063c1f3f06
ff3a0476ff3a0476ff3a0476ff3a047628e58faf28e58faf28e58faf28e58faf
ef79b1e3ef79b1e3ef79b1e3ef79b1e383e956dd83e956dd83e956dd83e956dd
c9111294c9111294c9111294c91112948cf5c0c88cf5c0c88cf5c0c88cf5c0c8
e771a610e771a610e771a610e771a6108106813d8106813d8106813d8106813d
b641a884b641a884b641a884b641a884777c333c777c333c777c333c777c333c
1286315e1286315e1286315e1286315e455382d7455382d7455382d7455382d7
cc74027fcc74027fcc74027fcc74027f64fbc30264fbc30264fbc30264fbc302
9f89b37f9f89b37f9f89b37f9f89b37f01abfe1301abfe1301abfe1301abfe13
c8ebfeeac8ebfeeac8ebfeeac8ebfeea858b9b2f858b9b2f858b9b2f858b9b2f
b8b8502cb8b8502cb8b8502cb8b8502cb23a278ab23a278ab23a278ab23a278a
4a96d4104a96d4104a96d4104a96d410a5fb0e6ea5fb0e6ea5fb0e6ea5fb0e6e
35cc7a7f35cc7a7f35cc7a7f35cc7a7ff9d5d0acf9d5d0acf9d5d0acf9d5d0ac
407d3ca1407d3ca1407d3ca1407d3ca1cccb3112cccb3112cccb3112cccb3112
c69fd3f5c69fd3f5c69fd3f5c69fd3f56ecc21c06ecc21c06ecc21c06ecc21c0
c101563bc101563bc101563bc101563b86f73d5486f73d5486f73d5486f73d54
76746081767460817674608176746081e8ec2b74e8ec2b74e8ec2b74e8ec2b74
2ef13c902ef13c902ef13c902ef13c90945440ba945440ba945440ba945440ba
bf70d2f3bf70d2f3bf70d2f3bf70d2f39665e5819665e5819665e5819665e581
a251ab11a251ab11a251ab11a251ab11aa5dea0faa5dea0faa5dea0faa5dea0f
5bd663ae5bd663ae5bd663ae5bd663ae26dcd1a426dcd1a426dcd1a426dcd1a4
221a458a221a458a221a458a221a458a52255dd952255dd952255dd952255dd9
37ce5f8d37ce5f8d37ce5f8d37ce5f8d9c2b503d9c2b503d9c2b503d9c2b503d
1c3622761c3622761c3622761c362276bd38946ebd38946ebd38946ebd38946e
287ffb70287ffb70287ffb70287ffb7039db97ed39db97ed39db97ed39db97ed
7f7fe0097f7fe0097f7fe0097f7fe009234cd520234cd520234cd520234cd520
13aaa40113aaa40113aaa40113aaa40147c55c3647c55c3647c55c3647c55c36
977fbd99977fbd99977fbd99977fbd991f811dca1f811dca1f811dca1f811dca
31dbfdab31dbfdab31dbfdab31dbfdab052d9a0e052d9a0e052d9a0e052d9a0e
8d7c77218d7c77218d7c77218d7c7721d7944ed3d7944ed3d7944ed3d7944ed3
b76898acb76898acb76898acb76898ac3116df723116df723116df723116df72
64e57f3164e57f3164e57f3164e57f31645eb399645eb399645eb399645eb399
0cb78a610cb78a610cb78a610cb78a616c40957d6c40957d6c40957d6c40957d
21980dd121980dd121980dd121980dd108a9811508a9811508a9811508a98115
7873ca7e7873ca7e7873ca7e7873ca7eaa936178aa936178aa936178aa936178
1747beb81747beb81747beb81747beb81c231c011c231c011c231c011c231c01
e2b668fee2b668fee2b668fee2b668fe439cb49d439cb49d439cb49d439cb49d
b59829d3b59829d3b59829d3b59829d35323070f5323070f5323070f5323070f
1e8e717f1e8e717f1e8e717f1e8e717f352e361f352e361f352e361f352e361f
51d84b5851d84b5851d84b5851d84b586ef1aa7f6ef1aa7f6ef1aa7f6ef1aa7f
b78cf119b78cf119b78cf119b78cf119fa71f7effa71f7effa71f7effa71f7ef
d2217f1fd2217f1fd2217f1fd2217f1f086efc7b086efc7b086efc7b086efc7b
bfae8c7ebfae8c7ebfae8c7ebfae8c7eb3a5a80cb3a5a80cb3a5a80cb3a5a80c
f4766ea5f4766ea5f4766ea5f4766ea563b1661063b1661063b1661063b16610
546d7207546d7207546d7207546d7207022252f8022252f8022252f8022252f8
d7ffa7fdd7ffa7fdd7ffa7fdd7ffa7fd68a2991468a2991468a2991468a29914
9fef3c259fef3c259fef3c259fef3c25df86d5eadf86d5eadf86d5eadf86d5ea
ca81a8ceca81a8ceca81a8ceca81a8ce081e3316081e3316081e3316081e3316
89abb6b789abb6b789abb6b789abb6b725e6642e25e6642e25e6642e25e6642e
f3ef82fcf3ef82fcf3ef82fcf3ef82fc603c0b84603c0b84603c0b84603c0b84
b2c816e1b2c816e1b2c816e1b2c816e158dca94c58dca94c58dca94c58dca94c
47e13dfd47e13dfd47e13dfd47e13dfd6eb9e7f46eb9e7f46eb9e7f46eb9e7f4
1f04f8d81f04f8d81f04f8d81f04f8d85c8b713e5c8b713e5c8b713e5c8b713e
16d7ad7916d7ad7916d7ad7916d7ad794b2e44e44b2e44e44b2e44e44b2e44e4
463b660b463b660b463b660b463b660b13f6815d13f6815d13f6815d13f6815d
275dc0c2275dc0c2275dc0c2275dc0c21fc382001fc382001fc382001fc38200
d78b8e0ed78b8e0ed78b8e0ed78b8e0e9b3930819b3930819b3930819b393081
ea91fa90ea91fa90ea91fa90ea91fa908db6886f8db6886f8db6886f8db6886f
088163f7088163f7088163f7088163f70eb9e77c0eb9e77c0eb9e77c0eb9e77c
68d7f5d768d7f5d768d7f5d768d7f5d7e6c93957e6c93957e6c93957e6c93957
691a3bf8691a3bf8691a3bf8691a3bf8ec297181ec297181ec297181ec297181
81933d3681933d3681933d3681933d36a29633aca29633aca29633aca29633ac
dd930f44dd930f44dd930f44dd930f44bbdabf13bbdabf13bbdabf13bbdabf13
0bac99810bac99810bac99810bac9981e30d97e0e30d97e0e30d97e0e30d97e0
ed5ed6d8ed5ed6d8ed5ed6d8ed5ed6d8d8bdfca4d8bdfca4d8bdfca4d8bdfca4
47f97fce47f97fce47f97fce47f97fce29b796bc29b796bc29b796bc29b796bc
7bc830897bc830897bc830897bc8308970540fe170540fe170540fe170540fe1
dc5d3dbddc5d3dbddc5d3dbddc5d3dbdcc9789cecc9789cecc9789cecc9789ce
5483a7eb5483a7eb5483a7eb5483a7ebc7e4c3aac7e4c3aac7e4c3aac7e4c3aa
ba9a8c8cba9a8c8cba9a8c8cba9a8c8c1f119f3a1f119f3a1f119f3a1f119f3a
5925fe9a5925fe9a5925fe9a5925fe9a8f8cb9ba8f8cb9ba8f8cb9ba8f8cb9ba
d891847dd891847dd891847dd891847d81bfe6b681bfe6b681bfe6b681bfe6b6
7a2a38c47a2a38c47a2a38c47a2a38c4392fdde3392fdde3392fdde3392fdde3
fa9a4981fa9a4981fa9a4981fa9a49819b13db3e9b13db3e9b13db3e9b13db3e
f9a89481f9a89481f9a89481f9a89481e81133a3e81133a3e81133a3e81133a3
144a39e4144a39e4144a39e4144a39e47bfeb6537bfeb6537bfeb6537bfeb653
374cdc81374cdc81374cdc81374cdc81d6fd0181d6fd0181d6fd0181d6fd0181
74c7817374c7817374c7817374c781738952defb8952defb8952defb8952defb
21a0bd4321a0bd4321a0bd4321a0bd4398601646986016469860164698601646
35d70ff735d70ff735d70ff735d70ff73450dc6d3450dc6d3450dc6d3450dc6d
be1295b2be1295b2be1295b2be1295b27781af7f7781af7f7781af7f7781af7f
fad360adfad360adfad360adfad360ad9a282de09a282de09a282de09a282de0
a181b591a181b591a181b591a181b591ff374ea5ff374ea5ff374ea5ff374ea5
027f1623027f1623027f1623027f162341323a2e41323a2e41323a2e41323a2e
2e63a9e42e63a9e42e63a9e42e63a9e4e2f117afe2f117afe2f117afe2f117af
129c545c129c545c129c545c129c545c42034609420346094203460942034609
8f7ae83f8f7ae83f8f7ae83f8f7ae83fb50836c1b50836c1b50836c1b50836c1
3a197f183a197f183a197f183a197f18ba6c4206ba6c4206ba6c4206ba6c4206
c2639395c2639395c2639395c2639395e119e49ee119e49ee119e49ee119e49e
7f675fda7f675fda7f675fda7f675fda6b0fab0e6b0fab0e6b0fab0e6b0fab0e
23d9876523d9876523d9876523d98765bc79d4f3bc79d4f3bc79d4f3bc79d4f3
61e91bc661e91bc661e91bc661e91bc6e339dee6e339dee6e339dee6e339dee6
23bf714a23bf714a23bf714a23bf714aff12543fff12543fff12543fff12543f
d6926b93d6926b93d6926b93d6926b9381a87e8181a87e8181a87e8181a87e81
762e8192762e8192762e8192762e81927c4edbf87c4edbf87c4edbf87c4edbf8
1ac661471ac661471ac661471ac66147f4c66a7ff4c66a7ff4c66a7ff4c66a7f
222cb17f222cb17f222cb17f222cb17fa5502bcaa5502bcaa5502bcaa5502bca
0434c9230434c9230434c9230434c923782dbb2c782dbb2c782dbb2c782dbb2c
72d8847672d8847672d8847672d8847693bb8e4b93bb8e4b93bb8e4b93bb8e4b
f3aab38ff3aab38ff3aab38ff3aab38f8b81a9198b81a9198b81a9198b81a919
2f1edbd72f1edbd72f1edbd72f1edbd7a63f6765a63f6765a63f6765a63f6765
33f894ee33f894ee33f894ee33f894ee6fefa3f96fefa3f96fefa3f96fefa3f9
d5ca1bc6d5ca1bc6d5ca1bc6d5ca1bc696ee3b7f96ee3b7f96ee3b7f96ee3b7f
b1483fe4b1483fe4b1483fe4b1483fe4ea154b49ea154b49ea154b49ea154b49
59b9ee4759b9ee4759b9ee4759b9ee4707686f2407686f2407686f2407686f24
bcb6e448bcb6e448bcb6e448bcb6e44866533609665336096653360966533609
7762f5107762f5107762f5107762f5100228d0ca0228d0ca0228d0ca0228d0ca
47d82ffb47d82ffb47d82ffb47d82ffbfbc8c736fbc8c736fbc8c736fbc8c736
a9773e0da9773e0da9773e0da9773e0d9af931689af931689af931689af93168
503dd342503dd342503dd342503dd3420bacc9810bacc9810bacc9810bacc981
d050e59dd050e59dd050e59dd050e59d0300cf3e0300cf3e0300cf3e0300cf3e
111a2aec111a2aec111a2aec111a2aeca5a366dca5a366dca5a366dca5a366dc
07f09dba07f09dba07f09dba07f09dba71f34f2771f34f2771f34f2771f34f27
91c9949f91c9949f91c9949f91c9949f1139b0151139b0151139b0151139b015
7f81fb5b7f81fb5b7f81fb5b7f81fb5b50d0721550d0721550d0721550d07215
812a566d812a566d812a566d812a566d7fa321087fa321087fa321087fa32108
0bac51700bac51700bac51700bac5170f40b9117f40b9117f40b9117f40b9117
7759d17b7759d17b7759d17b7759d17ba9ee6889a9ee6889a9ee6889a9ee6889
402921dc402921dc402921dc402921dc336b8f94336b8f94336b8f94336b8f94
7ec2680c7ec2680c7ec2680c7ec2680ce3a79ff0e3a79ff0e3a79ff0e3a79ff0
2720117f2720117f2720117f2720117f8151ac8f8151ac8f8151ac8f8151ac8f
f5ed450ef5ed450ef5ed450ef5ed450ed1ee29efd1ee29efd1ee29efd1ee29ef
9e0f36bd9e0f36bd9e0f36bd9e0f36bd5a902eee5a902eee5a902eee5a902eee
cbdb4b3ecbdb4b3ecbdb4b3ecbdb4b3e27251e8127251e8127251e8127251e81
a130f452a130f452a130f452a130f452aed44682aed44682aed44682aed44682
9620a8229620a8229620a8229620a822418613c3418613c3418613c3418613c3
5bdca2a45bdca2a45bdca2a45bdca2a4bd81a662bd81a662bd81a662bd81a662
19fd048319fd048319fd048319fd048333d8438133d8438133d8438133d84381
81cafead81cafead81cafead81cafead3f5decf13f5decf13f5decf13f5decf1
a76020d3a76020d3a76020d3a76020d32afb57da2afb57da2afb57da2afb57da
bee76645bee76645bee76645bee766459e83f0649e83f0649e83f0649e83f064
429f0d4c429f0d4c429f0d4c429f0d4cde0fc669de0fc669de0fc669de0fc669
7ad184267ad184267ad184267ad1842659b1819a59b1819a59b1819a59b1819a
c7b3c94bc7b3c94bc7b3c94bc7b3c94bdb2efb7fdb2efb7fdb2efb7fdb2efb7f
a2e49677a2e49677a2e49677a2e49677d308fcded308fcded308fcded308fcde
d34b944ed34b944ed34b944ed34b944ec86ea9e3c86ea9e3c86ea9e3c86ea9e3
93e74e1993e74e1993e74e1993e74e19395bd068395bd068395bd068395bd068
34ac4eac34ac4eac34ac4eac34ac4eacea69da68ea69da68ea69da68ea69da68
e895dc6ae895dc6ae895dc6ae895dc6a0605c70e0605c70e0605c70e0605c70e
a142e4a3a142e4a3a142e4a3a142e4a3da81bfbeda81bfbeda81bfbeda81bfbe
8981a5c68981a5c68981a5c68981a5c64b8fde6e4b8fde6e4b8fde6e4b8fde6e
53a0b5b953a0b5b953a0b5b953a0b5b98b12dd8c8b12dd8c8b12dd8c8b12dd8c
747b507f747b507f747b507f747b507f36a4d52636a4d52636a4d52636a4d526
d7467fcfd7467fcfd7467fcfd7467fcf9a49f0699a49f0699a49f0699a49f069
8e3b028e8e3b028e8e3b028e8e3b028e8110caaa8110caaa8110caaa8110caaa
987228fc987228fc987228fc987228fc7ffe11ed7ffe11ed7ffe11ed7ffe11ed
c9ebedabc9ebedabc9ebedabc9ebedab0a3e62290a3e62290a3e62290a3e6229
f253afdef253afdef253afdef253afdeccd3c524ccd3c524ccd3c524ccd3c524
b3a3db6db3a3db6db3a3db6db3a3db6db9a4eb76b9a4eb76b9a4eb76b9a4eb76
d43e615cd43e615cd43e615cd43e615cfc467ca3fc467ca3fc467ca3fc467ca3
beedc99fbeedc99fbeedc99fbeedc99f8f17b2018f17b2018f17b2018f17b201
29932a7429932a7429932a7429932a743bc286d63bc286d63bc286d63bc286d6
6cf440b86cf440b86cf440b86cf440b8ee4be954ee4be954ee4be954ee4be954
5df0fe785df0fe785df0fe785df0fe78eb3be6e6eb3be6e6eb3be6e6eb3be6e6
bf81609cbf81609cbf81609cbf81609c5a8c3c845a8c3c845a8c3c845a8c3c84
1a3d27891a3d27891a3d27891a3d27899e1125669e1125669e1125669e112566
e4039e5ae4039e5ae4039e5ae4039e5a12ba192012ba192012ba192012ba1920
8e370b118e370b118e370b118e370b1143d741a143d741a143d741a143d741a1
20f84d7a20f84d7a20f84d7a20f84d7ad6e57102d6e57102d6e57102d6e57102
5d2779cc5d2779cc5d2779cc5d2779cc390ddd35390ddd35390ddd35390ddd35
241fd8b5241fd8b5241fd8b5241fd8b5e460aaeae460aaeae460aaeae460aaea
6e9a3a3f6e9a3a3f6e9a3a3f6e9a3a3fb8201b35b8201b35b8201b35b8201b35
d18b72e8d18b72e8d18b72e8d18b72e8c825134bc825134bc825134bc825134b
a57fbb79a57fbb79a57fbb79a57fbb79236365c1236365c1236365c1236365c1
8167ddda8167ddda8167ddda8167ddda3cc92d813cc92d813cc92d813cc92d81
9738154597381545973815459738154553eabe4a53eabe4a53eabe4a53eabe4a
3ae0a9383ae0a9383ae0a9383ae0a9381ed248871ed248871ed248871ed24887
47274c4547274c4547274c4547274c4529b3cb3129b3cb3129b3cb3129b3cb31
77525ae077525ae077525ae077525ae0fb9c002dfb9c002dfb9c002dfb9c002d
5d295ed45d295ed45d295ed45d295ed4dfbe370fdfbe370fdfbe370fdfbe370f
c700dff2c700dff2c700dff2c700dff2c381c74cc381c74cc381c74cc381c74c
e388000be388000be388000be388000b1050fda51050fda51050fda51050fda5
e5f318fee5f318fee5f318fee5f318fe6b30f1bb6b30f1bb6b30f1bb6b30f1bb
bab78410bab78410bab78410bab78410c6fbb964c6fbb964c6fbb964c6fbb964
2bb555b92bb555b92bb555b92bb555b9556681eb556681eb556681eb556681eb
fa1e64e4fa1e64e4fa1e64e4fa1e64e457bf598d57bf598d57bf598d57bf598d
69f05b7a69f05b7a69f05b7a69f05b7af1a9b73cf1a9b73cf1a9b73cf1a9b73c
b26f3dc5b26f3dc5b26f3dc5b26f3dc5b61669e8b61669e8b61669e8b61669e8
2bc6fbb42bc6fbb42bc6fbb42bc6fbb497e9e32097e9e32097e9e32097e9e320
935002dc935002dc935002dc935002dcfc3bdccbfc3bdccbfc3bdccbfc3bdccb
7b5561717b5561717b5561717b5561712fb12fc02fb12fc02fb12fc02fb12fc0
bfd2282bbfd2282bbfd2282bbfd2282b5dbf0a495dbf0a495dbf0a495dbf0a49
314f2ae1314f2ae1314f2ae1314f2ae18d771a248d771a248d771a248d771a24
300577b2300577b2300577b2300577b2333790e9333790e9333790e9333790e9
d53b3d13d53b3d13d53b3d13d53b3d134f4f9d344f4f9d344f4f9d344f4f9d34
5e8143a35e8143a35e8143a35e8143a34dcd16ee4dcd16ee4dcd16ee4dcd16ee
9384ff889384ff889384ff889384ff88373436e9373436e9373436e9373436e9
24821c7524821c7524821c7524821c75d6fe1a21d6fe1a21d6fe1a21d6fe1a21
21fef2ec21fef2ec21fef2ec21fef2ec45cd9aed45cd9aed45cd9aed45cd9aed
304fec01304fec01304fec01304fec0155018afc55018afc55018afc55018afc
17c9844717c9844717c9844717c984470d37671d0d37671d0d37671d0d37671d
c26f79dbc26f79dbc26f79dbc26f79db647fe04d647fe04d647fe04d647fe04d
b570922ab570922ab570922ab570922a1097df391097df391097df391097df39
f632f4a8f632f4a8f632f4a8f632f4a8745d3327745d3327745d3327745d3327
78776d0178776d0178776d0178776d013da160813da160813da160813da16081
1bab211c1bab211c1bab211c1bab211ca0a5e863a0a5e863a0a5e863a0a5e863
79018597790185977901859779018597f0f0d3baf0f0d3baf0f0d3baf0f0d3ba
d3c83b75d3c83b75d3c83b75d3c83b753d6c59963d6c59963d6c59963d6c5996
ec6e5228ec6e5228ec6e5228ec6e52287ba055ae7ba055ae7ba055ae7ba055ae
fdb89418fdb89418fdb89418fdb8941878bac8e978bac8e978bac8e978bac8e9
b43e34e1b43e34e1b43e34e1b43e34e100e5156400e5156400e5156400e51564
fcfdd726fcfdd726fcfdd726fcfdd726ba253309ba253309ba253309ba253309
94a7a97c94a7a97c94a7a97c94a7a97c3bc68a993bc68a993bc68a993bc68a99
273c689b273c689b273c689b273c689b7b1514ee7b1514ee7b1514ee7b1514ee
d15105efd15105efd15105efd15105effcb0e26afcb0e26afcb0e26afcb0e26a
b3cae38ab3cae38ab3cae38ab3cae38a8d93991d8d93991d8d93991d8d93991d
af64136faf64136faf64136faf64136fcf4c7f86cf4c7f86cf4c7f86cf4c7f86
77181c2b77181c2b77181c2b77181c2b1fb3d7131fb3d7131fb3d7131fb3d713
1915167819151678191516781915167890d642bd90d642bd90d642bd90d642bd
87f05db487f05db487f05db487f05db416728d6716728d6716728d6716728d67
84d4055e84d4055e84d4055e84d4055ec7a10881c7a10881c7a10881c7a10881
f977a448f977a448f977a448f977a448a9a6fcdaa9a6fcdaa9a6fcdaa9a6fcda
9e5d7f6a9e5d7f6a9e5d7f6a9e5d7f6a776a7c7f776a7c7f776a7c7f776a7c7f
3da68e6f3da68e6f3da68e6f3da68e6fcb4c7b96cb4c7b96cb4c7b96cb4c7b96
3641f2b93641f2b93641f2b93641f2b9a48d7e37a48d7e37a48d7e37a48d7e37
894d665a894d665a894d665a894d665a10815cf110815cf110815cf110815cf1
a455155ea455155ea455155ea455155efcdad1f2fcdad1f2fcdad1f2fcdad1f2
4bc8a8b04bc8a8b04bc8a8b04bc8a8b0bd7f3badbd7f3badbd7f3badbd7f3bad
5c784a035c784a035c784a035c784a0312811bfe12811bfe12811bfe12811bfe
b39e54ccb39e54ccb39e54ccb39e54cc117fbebd117fbebd117fbebd117fbebd
de9523d3de9523d3de9523d3de9523d36ec30d9c6ec30d9c6ec30d9c6ec30d9c
813345f4813345f4813345f4813345f4975b2ab5975b2ab5975b2ab5975b2ab5
841185cb841185cb841185cb841185cb409a811e409a811e409a811e409a811e
91a81f1691a81f1691a81f1691a81f16e39fe478e39fe478e39fe478e39fe478
8addbd858addbd858addbd858addbd854019b57e4019b57e4019b57e4019b57e
7995cfa07995cfa07995cfa07995cfa0996e59e9996e59e9996e59e9996e59e9
89e87ffb89e87ffb89e87ffb89e87ffbbf7a8247bf7a8247bf7a8247bf7a8247
d3e0fcd7d3e0fcd7d3e0fcd7d3e0fcd7d74cd728d74cd728d74cd728d74cd728
0dc77fa40dc77fa40dc77fa40dc77fa4fe683705fe683705fe683705fe683705
770e5d2a770e5d2a770e5d2a770e5d2a81318364813183648131836481318364
a3bf0240a3bf0240a3bf0240a3bf0240b3897e5eb3897e5eb3897e5eb3897e5e
8f6198cb8f6198cb8f6198cb8f6198cb216d194e216d194e216d194e216d194e
7604301b7604301b7604301b7604301bde690a3fde690a3fde690a3fde690a3f
590f9440590f9440590f9440590f94404d53c7814d53c7814d53c7814d53c781
e8901352e8901352e8901352e89013522b706db02b706db02b706db02b706db0
4d62797f4d62797f4d62797f4d62797f395e6011395e6011395e6011395e6011
81233aae81233aae81233aae81233aaeee963ba8ee963ba8ee963ba8ee963ba8
b9dc4b9ab9dc4b9ab9dc4b9ab9dc4b9a81f762e881f762e881f762e881f762e8
8143c1748143c1748143c1748143c17471c0e39271c0e39271c0e39271c0e392
1a846a641a846a641a846a641a846a64987bfd62987bfd62987bfd62987bfd62
dca90aa9dca90aa9dca90aa9dca90aa990019574900195749001957490019574
4f637f4a4f637f4a4f637f4a4f637f4a23fc7fa123fc7fa123fc7fa123fc7fa1
af5b7488af5b7488af5b7488af5b74887f35c7817f35c7817f35c7817f35c781
fce8013afce8013afce8013afce8013a7983ed127983ed127983ed127983ed12
a40954bda40954bda40954bda40954bd671b5e7b671b5e7b671b5e7b671b5e7b
8d339f318d339f318d339f318d339f31dfbaa857dfbaa857dfbaa857dfbaa857
95e38a8195e38a8195e38a8195e38a8132e41f8732e41f8732e41f8732e41f87
74d41a7474d41a7474d41a7474d41a74182a21db182a21db182a21db182a21db
6531fbb76531fbb76531fbb76531fbb7d79b6581d79b6581d79b6581d79b6581
8d37effa8d37effa8d37effa8d37effa636b1d77636b1d77636b1d77636b1d77
cb687e1acb687e1acb687e1acb687e1aff0e6f03ff0e6f03ff0e6f03ff0e6f03
6946a4536946a4536946a4536946a4536728c0de6728c0de6728c0de6728c0de
a0669681a0669681a0669681a0669681bd2906f4bd2906f4bd2906f4bd2906f4
2fecd4132fecd4132fecd4132fecd4135ee319f35ee319f35ee319f35ee319f3
6430229f6430229f6430229f6430229fb3f35779b3f35779b3f35779b3f35779
fd6a7f8cfd6a7f8cfd6a7f8cfd6a7f8c6dbb7e7e6dbb7e7e6dbb7e7e6dbb7e7e
8a704eeb8a704eeb8a704eeb8a704eeb5d9e19985d9e19985d9e19985d9e1998
f4cfb0c9f4cfb0c9f4cfb0c9f4cfb0c97f4138e17f4138e17f4138e17f4138e1
d9afd99ad9afd99ad9afd99ad9afd99ac029dedac029dedac029dedac029deda
6883c2816883c2816883c2816883c281c4815fbdc4815fbdc4815fbdc4815fbd
97c3069697c3069697c3069697c30696f0b3eedbf0b3eedbf0b3eedbf0b3eedb
feeaae5dfeeaae5dfeeaae5dfeeaae5d532494f0532494f0532494f0532494f0
848e77fb848e77fb848e77fb848e77fb4f4781984f4781984f4781984f478198
1c1eaf781c1eaf781c1eaf781c1eaf78a20017a2a20017a2a20017a2a20017a2
b1500e2ab1500e2ab1500e2ab1500e2a0010a4520010a4520010a4520010a452
bc8eee43bc8eee43bc8eee43bc8eee43bc27e058bc27e058bc27e058bc27e058
348e6e48348e6e48348e6e48348e6e48dae22ec1dae22ec1dae22ec1dae22ec1
ee9db835ee9db835ee9db835ee9db83537a89f5737a89f5737a89f5737a89f57
09347f9c09347f9c09347f9c09347f9cdb3f630fdb3f630fdb3f630fdb3f630f
314fe37d314fe37d314fe37d314fe37d4836b6a64836b6a64836b6a64836b6a6
817537a0817537a0817537a0817537a095199384951993849519938495199384
aa1eb2c7aa1eb2c7aa1eb2c7aa1eb2c79856b6ec9856b6ec9856b6ec9856b6ec
4fb009a34fb009a34fb009a34fb009a332b64e1f32b64e1f32b64e1f32b64e1f
08598f7f08598f7f08598f7f08598f7f344866e8344866e8344866e8344866e8
d154f66ed154f66ed154f66ed154f66e857bb94e857bb94e857bb94e857bb94e
bd955baebd955baebd955baebd955bae7f5975c27f5975c27f5975c27f5975c2
13e7c6a613e7c6a613e7c6a613e7c6a617c0b2e017c0b2e017c0b2e017c0b2e0
3d2ae99f3d2ae99f3d2ae99f3d2ae99fdb6387a7db6387a7db6387a7db6387a7
395be87c395be87c395be87c395be87c8991b7dc8991b7dc8991b7dc8991b7dc
a662cb32a662cb32a662cb32a662cb327f1e5bd47f1e5bd47f1e5bd47f1e5bd4
22240aae22240aae22240aae22240aae9ffe2e999ffe2e999ffe2e999ffe2e99
8532c57d8532c57d8532c57d8532c57d6504924c6504924c6504924c6504924c
c5d11249c5d11249c5d11249c5d112496acb8d4f6acb8d4f6acb8d4f6acb8d4f
f66e563af66e563af66e563af66e563a051d301e051d301e051d301e051d301e
8c8fd07f8c8fd07f8c8fd07f8c8fd07f64c8c13764c8c13764c8c13764c8c137
cdcb5256cdcb5256cdcb5256cdcb5256e581bf02e581bf02e581bf02e581bf02
b715feb9b715feb9b715feb9b715feb9dc22093cdc22093cdc22093cdc22093c
ad1196ddad1196ddad1196ddad1196dd3d625d623d625d623d625d623d625d62
817f8d41817f8d41817f8d41817f8d41480f841c480f841c480f841c480f841c
dfd86ddadfd86ddadfd86ddadfd86dda50c8096e50c8096e50c8096e50c8096e
ac2cae1aac2cae1aac2cae1aac2cae1a45b442fd45b442fd45b442fd45b442fd
f061a7dff061a7dff061a7dff061a7df64fb877b64fb877b64fb877b64fb877b
78d57d5678d57d5678d57d5678d57d56103958fd103958fd103958fd103958fd
c06575fcc06575fcc06575fcc06575fcefe6ae7befe6ae7befe6ae7befe6ae7b
d4b7f7f5d4b7f7f5d4b7f7f5d4b7f7f5cf778151cf778151cf778151cf778151
92b5545b92b5545b92b5545b92b5545b8188d3f48188d3f48188d3f48188d3f4
07865408078654080786540807865408c3826fc0c3826fc0c3826fc0c3826fc0
11e3d0a411e3d0a411e3d0a411e3d0a4d2ece59fd2ece59fd2ece59fd2ece59f
7fad155a7fad155a7fad155a7fad155ab98b404eb98b404eb98b404eb98b404e
f70cfbdcf70cfbdcf70cfbdcf70cfbdc6d96c7c96d96c7c96d96c7c96d96c7c9
3372e3f33372e3f33372e3f33372e3f326f992e526f992e526f992e526f992e5
8b11447f8b11447f8b11447f8b11447fa274f211a274f211a274f211a274f211
0de14d960de14d960de14d960de14d968e8528ff8e8528ff8e8528ff8e8528ff
5f2cf99f5f2cf99f5f2cf99f5f2cf99f54ad551854ad551854ad551854ad5518
c647f604c647f604c647f604c647f604bdccd499bdccd499bdccd499bdccd499
22398a8122398a8122398a8122398a810a81486b0a81486b0a81486b0a81486b
164b3544164b3544164b3544164b354415cd709615cd709615cd709615cd7096
c49ef323c49ef323c49ef323c49ef323a8129853a8129853a8129853a8129853
e61516d6e61516d6e61516d6e61516d6a9d71d83a9d71d83a9d71d83a9d71d83
f2ca3256f2ca3256f2ca3256f2ca3256c0811008c0811008c0811008c0811008
308b38ba308b38ba308b38ba308b38ba0781501a0781501a0781501a0781501a
f3674eaef3674eaef3674eaef3674eae7419edb87419edb87419edb87419edb8
96c3d67196c3d67196c3d67196c3d67167c8279267c8279267c8279267c82792
61ea634361ea634361ea634361ea634313ed76b213ed76b213ed76b213ed76b2
beca388abeca388abeca388abeca388a0f7d7fce0f7d7fce0f7d7fce0f7d7fce
a9aa1a94a9aa1a94a9aa1a94a9aa1a948aaf25fc8aaf25fc8aaf25fc8aaf25fc
a28d18dba28d18dba28d18dba28d18dbcbf9b92dcbf9b92dcbf9b92dcbf9b92d
b4752356b4752356b4752356b475235627f9927327f9927327f9927327f99273
7fe1c8dd7fe1c8dd7fe1c8dd7fe1c8dd0a97894a0a97894a0a97894a0a97894a
92979a7f92979a7f92979a7f92979a7fa12c7430a12c7430a12c7430a12c7430
b57fb64eb57fb64eb57fb64eb57fb64e8fea2a928fea2a928fea2a928fea2a92
f6c7db0ef6c7db0ef6c7db0ef6c7db0e4c7e38f74c7e38f74c7e38f74c7e38f7
9f3289f39f3289f39f3289f39f3289f32a0a10d82a0a10d82a0a10d82a0a10d8
9a7bfe679a7bfe679a7bfe679a7bfe67e7907ff9e7907ff9e7907ff9e7907ff9
e4c35eace4c35eace4c35eace4c35eac97962a4c97962a4c97962a4c97962a4c
103059891030598910305989103059895ce3a0f35ce3a0f35ce3a0f35ce3a0f3
3568b5963568b5963568b5963568b5960c0c2a130c0c2a130c0c2a130c0c2a13
817ac4e6817ac4e6817ac4e6817ac4e692eccb6c92eccb6c92eccb6c92eccb6c
c7e2e907c7e2e907c7e2e907c7e2e90790a856e890a856e890a856e890a856e8
27a6904b27a6904b27a6904b27a6904b4c1f81d64c1f81d64c1f81d64c1f81d6
d134add1d134add1d134add1d134add1ef888783ef888783ef888783ef888783
c1b37697c1b37697c1b37697c1b37697a0023eeda0023eeda0023eeda0023eed
e530a90ae530a90ae530a90ae530a90a41db754f41db754f41db754f41db754f
6385a4be6385a4be6385a4be6385a4be1b0bd00b1b0bd00b1b0bd00b1b0bd00b
aaff3544aaff3544aaff3544aaff35442253b9602253b9602253b9602253b960
bacdfb68bacdfb68bacdfb68bacdfb68b5e7399eb5e7399eb5e7399eb5e7399e
f56692b9f56692b9f56692b9f56692b97d2acdbf7d2acdbf7d2acdbf7d2acdbf
ff939c47ff939c47ff939c47ff939c470ee00c020ee00c020ee00c020ee00c02
b2b38302b2b38302b2b38302b2b38302ae44a5f6ae44a5f6ae44a5f6ae44a5f6
bda4d3c1bda4d3c1bda4d3c1bda4d3c1cb824cbbcb824cbbcb824cbbcb824cbb
bef9c3b1bef9c3b1bef9c3b1bef9c3b11ab07ff81ab07ff81ab07ff81ab07ff8
e3dcfecee3dcfecee3dcfecee3dcfece64312314643123146431231464312314
810c185e810c185e810c185e810c185e9a1428439a1428439a1428439a142843
1fc91aa71fc91aa71fc91aa71fc91aa7fd269f14fd269f14fd269f14fd269f14
1be8b5811be8b5811be8b5811be8b58105f50e8205f50e8205f50e8205f50e82
1287d2921287d2921287d2921287d2923fcfa0303fcfa0303fcfa0303fcfa030
3bc673703bc673703bc673703bc673709559b02a9559b02a9559b02a9559b02a
3e0ad0cd3e0ad0cd3e0ad0cd3e0ad0cd49a32d8449a32d8449a32d8449a32d84
f623a22ff623a22ff623a22ff623a22fba23436eba23436eba23436eba23436e
1c6448cf1c6448cf1c6448cf1c6448cf22608b6922608b6922608b6922608b69
32e45b0732e45b0732e45b0732e45b07f6945389f6945389f6945389f6945389
611b8a7a611b8a7a611b8a7a611b8a7abf38028ebf38028ebf38028ebf38028e
bab112b9bab112b9bab112b9bab112b9f134623ff134623ff134623ff134623f
6aa996af6aa996af6aa996af6aa996afc39cc7d4c39cc7d4c39cc7d4c39cc7d4
c126cef6c126cef6c126cef6c126cef6387f4f37387f4f37387f4f37387f4f37
f0a727f0f0a727f0f0a727f0f0a727f07fe0a3897fe0a3897fe0a3897fe0a389
ce35d619ce35d619ce35d619ce35d6195c856b445c856b445c856b445c856b44
4e6bd0164e6bd0164e6bd0164e6bd016225a5b2a225a5b2a225a5b2a225a5b2a
7beeb2e37beeb2e37beeb2e37beeb2e3baff968dbaff968dbaff968dbaff968d
8c7c4cb78c7c4cb78c7c4cb78c7c4cb702abefe702abefe702abefe702abefe7
690a6b0b690a6b0b690a6b0b690a6b0be61b6be6e61b6be6e61b6be6e61b6be6
fa3f047cfa3f047cfa3f047cfa3f047c8181537f8181537f8181537f8181537f
f5a449a1f5a449a1f5a449a1f5a449a183a5c2d883a5c2d883a5c2d883a5c2d8
9ec0e6ee9ec0e6ee9ec0e6ee9ec0e6ee86e6ff2386e6ff2386e6ff2386e6ff23
5e207ea75e207ea75e207ea75e207ea767c68a0067c68a0067c68a0067c68a00
06880f4706880f4706880f4706880f47228f56dc228f56dc228f56dc228f56dc
490302bc490302bc490302bc490302bc307feb1f307feb1f307feb1f307feb1f
9a7004b39a7004b39a7004b39a7004b3e406cd64e406cd64e406cd64e406cd64
2fec5d682fec5d682fec5d682fec5d68fb267a81fb267a81fb267a81fb267a81
c453c1b6c453c1b6c453c1b6c453c1b60fc033140fc033140fc033140fc03314
931a17d4931a17d4931a17d4931a17d4f90d3c14f90d3c14f90d3c14f90d3c14
c92eba7fc92eba7fc92eba7fc92eba7fb2c5bcb8b2c5bcb8b2c5bcb8b2c5bcb8
81412e5181412e5181412e5181412e51c2db7f44c2db7f44c2db7f44c2db7f44
31b31d6131b31d6131b31d6131b31d619d2871419d2871419d2871419d287141
e2331cf4e2331cf4e2331cf4e2331cf42c4906232c4906232c4906232c490623
f12ead71f12ead71f12ead71f12ead71ade3e9eaade3e9eaade3e9eaade3e9ea
18ace6f018ace6f018ace6f018ace6f081198535811985358119853581198535
7a90d4ae7a90d4ae7a90d4ae7a90d4ae2e13738b2e13738b2e13738b2e13738b
97ef894e97ef894e97ef894e97ef894e163970d7163970d7163970d7163970d7
f27a3b13f27a3b13f27a3b13f27a3b1325606ad625606ad625606ad625606ad6
0a7fb8570a7fb8570a7fb8570a7fb857af2864d8af2864d8af2864d8af2864d8
471c9356471c9356471c9356471c9356518169e7518169e7518169e7518169e7
7d118f117d118f117d118f117d118f11e753ba37e753ba37e753ba37e753ba37
4d54f2504d54f2504d54f2504d54f2508a42b49b8a42b49b8a42b49b8a42b49b
f165921af165921af165921af165921a0d636c480d636c480d636c480d636c48
a58110aea58110aea58110aea58110aea05f3ba6a05f3ba6a05f3ba6a05f3ba6
f17381e0f17381e0f17381e0f17381e00d2ee8430d2ee8430d2ee8430d2ee843
05d6b0b605d6b0b605d6b0b605d6b0b6e181af48e181af48e181af48e181af48
0d0281b30d0281b30d0281b30d0281b34a66b5b64a66b5b64a66b5b64a66b5b6
eba0c2f3eba0c2f3eba0c2f3eba0c2f33b91657e3b91657e3b91657e3b91657e
50cbe02750cbe02750cbe02750cbe027d790fa83d790fa83d790fa83d790fa83
6e9bd8d36e9bd8d36e9bd8d36e9bd8d388a7e56b88a7e56b88a7e56b88a7e56b
4257bf394257bf394257bf394257bf39ab62aa07ab62aa07ab62aa07ab62aa07
1de2095c1de2095c1de2095c1de2095cc9917feec9917feec9917feec9917fee
65c9a22865c9a22865c9a22865c9a228c07feacfc07feacfc07feacfc07feacf
81d99c8181d99c8181d99c8181d99c81db3ccf54db3ccf54db3ccf54db3ccf54
f02a9e2df02a9e2df02a9e2df02a9e2dc1bb1abcc1bb1abcc1bb1abcc1bb1abc
4f3760ea4f3760ea4f3760ea4f3760eae4dea8b7e4dea8b7e4dea8b7e4dea8b7
9f7a1f169f7a1f169f7a1f169f7a1f16d5eb03c7d5eb03c7d5eb03c7d5eb03c7
09ea054709ea054709ea054709ea05474cf1f0964cf1f0964cf1f0964cf1f096
c3daab17c3daab17c3daab17c3daab17227f6f81227f6f81227f6f81227f6f81
4d1b1d3f4d1b1d3f4d1b1d3f4d1b1d3f84814372848143728481437284814372
ee764fc9ee764fc9ee764fc9ee764fc98ff1c27e8ff1c27e8ff1c27e8ff1c27e
2d25ff762d25ff762d25ff762d25ff76ba3a0c39ba3a0c39ba3a0c39ba3a0c39
a37fd60ba37fd60ba37fd60ba37fd60b7c8e01837c8e01837c8e01837c8e0183
e41bbfd2e41bbfd2e41bbfd2e41bbfd281c4d23b81c4d23b81c4d23b81c4d23b
20dd98f020dd98f020dd98f020dd98f051c8b07051c8b07051c8b07051c8b070
bbf3b4b5bbf3b4b5bbf3b4b5bbf3b4b53d5bb3273d5bb3273d5bb3273d5bb327
c2d76fe9c2d76fe9c2d76fe9c2d76fe969fa32ff69fa32ff69fa32ff69fa32ff
5749317957493179574931795749317955ac5dd055ac5dd055ac5dd055ac5dd0
4efe3c964efe3c964efe3c964efe3c966fc9b6196fc9b6196fc9b6196fc9b619
6e4f318b6e4f318b6e4f318b6e4f318b75df5b1375df5b1375df5b1375df5b13
e4520451e4520451e4520451e452045136d2d26536d2d26536d2d26536d2d265
6874d5976874d5976874d5976874d5977f9d8ec27f9d8ec27f9d8ec27f9d8ec2
75c60ade75c60ade75c60ade75c60ade75c27f8975c27f8975c27f8975c27f89
d6bf36c1d6bf36c1d6bf36c1d6bf36c19b287a2e9b287a2e9b287a2e9b287a2e
a40f79fca40f79fca40f79fca40f79fc35db2ad735db2ad735db2ad735db2ad7
8d584f8c8d584f8c8d584f8c8d584f8c878ceb40878ceb40878ceb40878ceb40
45e846a845e846a845e846a845e846a8708825a5708825a5708825a5708825a5
dbe1f53edbe1f53edbe1f53edbe1f53e526a9789526a9789526a9789526a9789
98b4b46698b4b46698b4b46698b4b4668121728a8121728a8121728a8121728a
07c3261e07c3261e07c3261e07c3261edd68a819dd68a819dd68a819dd68a819
f97c0feaf97c0feaf97c0feaf97c0fea722dc8ec722dc8ec722dc8ec722dc8ec
476d2287476d2287476d2287476d2287e3940c25e3940c25e3940c25e3940c25
f984511bf984511bf984511bf984511b4d5012634d5012634d5012634d501263
bf3c3b11bf3c3b11bf3c3b11bf3c3b11a3a9cf4fa3a9cf4fa3a9cf4fa3a9cf4f
4ce3f5d04ce3f5d04ce3f5d04ce3f5d07abd81337abd81337abd81337abd8133
42370ceb42370ceb42370ceb42370cebc2910d95c2910d95c2910d95c2910d95
7dfdca657dfdca657dfdca657dfdca651717927d1717927d1717927d1717927d
171b4249171b4249171b4249171b424951c2b88151c2b88151c2b88151c2b881
3947a7663947a7663947a7663947a7667bc515867bc515867bc515867bc51586
9c50d54d9c50d54d9c50d54d9c50d54d7fab36a57fab36a57fab36a57fab36a5
043a95d1043a95d1043a95d1043a95d1005a8e6d005a8e6d005a8e6d005a8e6d
db32ab0bdb32ab0bdb32ab0bdb32ab0bf1f3aee7f1f3aee7f1f3aee7f1f3aee7
59374caa59374caa59374caa59374caa67c320cd67c320cd67c320cd67c320cd
6848444b6848444b6848444b6848444ba2b43330a2b43330a2b43330a2b43330
dc7f977fdc7f977fdc7f977fdc7f977f86cb4ff686cb4ff686cb4ff686cb4ff6
a9508123a9508123a9508123a95081232ef7b5342ef7b5342ef7b5342ef7b534
419da873419da873419da873419da873f890337ff890337ff890337ff890337f
6122731c6122731c6122731c6122731c9b94c7ed9b94c7ed9b94c7ed9b94c7ed
234e817b234e817b234e817b234e817b444b4848444b4848444b4848444b4848
fc397ee3fc397ee3fc397ee3fc397ee321929704219297042192970421929704
6b0eade66b0eade66b0eade66b0eade602433db202433db202433db202433db2
81c8b76581c8b76581c8b76581c8b7653d688f893d688f893d688f893d688f89
34ed53e334ed53e334ed53e334ed53e3f962dc8cf962dc8cf962dc8cf962dc8c
cd498f6ecd498f6ecd498f6ecd498f6e2a746ef02a746ef02a746ef02a746ef0
a69e3e9ea69e3e9ea69e3e9ea69e3e9e2d287faf2d287faf2d287faf2d287faf
11b1ed4e11b1ed4e11b1ed4e11b1ed4e5c73c87f5c73c87f5c73c87f5c73c87f
40fea8b440fea8b440fea8b440fea8b47db666e77db666e77db666e77db666e7
846dc778846dc778846dc778846dc77805e4b7d605e4b7d605e4b7d605e4b7d6
c8347fb9c8347fb9c8347fb9c8347fb968448ddb68448ddb68448ddb68448ddb
60132ea060132ea060132ea060132ea038825dfb38825dfb38825dfb38825dfb
aa73ae3daa73ae3daa73ae3daa73ae3d10d4d62910d4d62910d4d62910d4d629
bbc3f52abbc3f52abbc3f52abbc3f52a8a02c8ba8a02c8ba8a02c8ba8a02c8ba
81bff92f81bff92f81bff92f81bff92ffa0d5e7ffa0d5e7ffa0d5e7ffa0d5e7f
aac078edaac078edaac078edaac078ed7fa685d27fa685d27fa685d27fa685d2
42e9660442e9660442e9660442e96604863e18cd863e18cd863e18cd863e18cd
0f028c870f028c870f028c870f028c87f6cf20a5f6cf20a5f6cf20a5f6cf20a5
d554734ed554734ed554734ed554734edf76863cdf76863cdf76863cdf76863c
5c0e81cc5c0e81cc5c0e81cc5c0e81ccfa23f94dfa23f94dfa23f94dfa23f94d
1c487f711c487f711c487f711c487f7184db19cc84db19cc84db19cc84db19cc
a4c9cf85a4c9cf85a4c9cf85a4c9cf850b72b2070b72b2070b72b2070b72b207
095c6c26095c6c26095c6c26095c6c2608306de008306de008306de008306de0
88e2eb8a88e2eb8a88e2eb8a88e2eb8a818a8dff818a8dff818a8dff818a8dff
5bc50c975bc50c975bc50c975bc50c977f554e677f554e677f554e677f554e67
0f2d50510f2d50510f2d50510f2d5051f900e625f900e625f900e625f900e625
c16be0b2c16be0b2c16be0b2c16be0b2a40758fea40758fea40758fea40758fe
bd2a54e1bd2a54e1bd2a54e1bd2a54e1beab557dbeab557dbeab557dbeab557d
438fec2b438fec2b438fec2b438fec2b00651688006516880065168800651688
9124504791245047912450479124504793e5500e93e5500e93e5500e93e5500e
02a4b5f802a4b5f802a4b5f802a4b5f8c29161d6c29161d6c29161d6c29161d6
ab8d0918ab8d0918ab8d0918ab8d091873cf745e73cf745e73cf745e73cf745e
8d7fe4b78d7fe4b78d7fe4b78d7fe4b7dbb42588dbb42588dbb42588dbb42588
bc2af765bc2af765bc2af765bc2af7651ee251151ee251151ee251151ee25115
dab67ca3dab67ca3dab67ca3dab67ca3371ea086371ea086371ea086371ea086
69ee344169ee344169ee344169ee34411c5bce711c5bce711c5bce711c5bce71
f334a5cff334a5cff334a5cff334a5cf5c0f52e15c0f52e15c0f52e15c0f52e1
26476dff26476dff26476dff26476dffaa58d2e6aa58d2e6aa58d2e6aa58d2e6
201a0a4f201a0a4f201a0a4f201a0a4f5bf9c2e15bf9c2e15bf9c2e15bf9c2e1
066fe219066fe219066fe219066fe219776807f9776807f9776807f9776807f9
8154970e8154970e8154970e8154970efe6eb898fe6eb898fe6eb898fe6eb898
3d8956863d8956863d8956863d8956865bdfabb75bdfabb75bdfabb75bdfabb7
08b881b208b881b208b881b208b881b2ace5e32face5e32face5e32face5e32f
c9730274c9730274c9730274c97302747fc5f1a27fc5f1a27fc5f1a27fc5f1a2
153f980e153f980e153f980e153f980e70cea9c170cea9c170cea9c170cea9c1
000aa981000aa981000aa981000aa9815be2c3145be2c3145be2c3145be2c314
6431bf7f6431bf7f6431bf7f6431bf7f3a8bb3b03a8bb3b03a8bb3b03a8bb3b0
0b1f18190b1f18190b1f18190b1f1819021b442e021b442e021b442e021b442e
7c7cac5d7c7cac5d7c7cac5d7c7cac5d1c8fcb601c8fcb601c8fcb601c8fcb60
4d7f5c924d7f5c924d7f5c924d7f5c921a972f381a972f381a972f381a972f38
e24ff72be24ff72be24ff72be24ff72b8da76fbd8da76fbd8da76fbd8da76fbd
113576ad113576ad113576ad113576ad137935fe137935fe137935fe137935fe
3b873f0c3b873f0c3b873f0c3b873f0cdbf8abacdbf8abacdbf8abacdbf8abac
25851be525851be525851be525851be5d7ee81afd7ee81afd7ee81afd7ee81af
9a255c2b9a255c2b9a255c2b9a255c2bfbaca650fbaca650fbaca650fbaca650
7cdf23d57cdf23d57cdf23d57cdf23d551ede26151ede26151ede26151ede261
885c9b5c885c9b5c885c9b5c885c9b5cd5a75ae0d5a75ae0d5a75ae0d5a75ae0
0c7d2d060c7d2d060c7d2d060c7d2d0694a5c82d94a5c82d94a5c82d94a5c82d
12a1b91312a1b91312a1b91312a1b9134b31bc4d4b31bc4d4b31bc4d4b31bc4d
b85f5488b85f5488b85f5488b85f5488b3157fe7b3157fe7b3157fe7b3157fe7
90c2f99590c2f99590c2f99590c2f9956cd612ed6cd612ed6cd612ed6cd612ed
8633d2c28633d2c28633d2c28633d2c26305cdbe6305cdbe6305cdbe6305cdbe
4c6643a24c6643a24c6643a24c6643a2fed84a87fed84a87fed84a87fed84a87
dd6ba8c8dd6ba8c8dd6ba8c8dd6ba8c86f71f9856f71f9856f71f9856f71f985
76e5a17f76e5a17f76e5a17f76e5a17f53a9585853a9585853a9585853a95858
eaf2db3deaf2db3deaf2db3deaf2db3d42661daa42661daa42661daa42661daa
01ee78df01ee78df01ee78df01ee78dfbddfaa81bddfaa81bddfaa81bddfaa81
9027ac089027ac089027ac089027ac08aa2da27caa2da27caa2da27caa2da27c
d1bf9b89d1bf9b89d1bf9b89d1bf9b89776ef90f776ef90f776ef90f776ef90f
4b2f81094b2f81094b2f81094b2f81098f1a7e348f1a7e348f1a7e348f1a7e34
654206d5654206d5654206d5654206d5737d8d64737d8d64737d8d64737d8d64
1109571e1109571e1109571e1109571e922ce6d2922ce6d2922ce6d2922ce6d2
d29d514fd29d514fd29d514fd29d514fbb8fddfdbb8fddfdbb8fddfdbb8fddfd
9974c3c79974c3c79974c3c79974c3c777e2895b77e2895b77e2895b77e2895b
cee0e914cee0e914cee0e914cee0e914a27727cca27727cca27727cca27727cc
c9a0edaec9a0edaec9a0edaec9a0edaea1a30685a1a30685a1a30685a1a30685
94897181948971819489718194897181383061fd383061fd383061fd383061fd
59dead9f59dead9f59dead9f59dead9f811ee6f1811ee6f1811ee6f1811ee6f1
31dbf66131dbf66131dbf66131dbf66193e0b81593e0b81593e0b81593e0b815
7a362ff87a362ff87a362ff87a362ff844040818440408184404081844040818
aad715f6aad715f6aad715f6aad715f6bd2ecfafbd2ecfafbd2ecfafbd2ecfaf
8170e55f8170e55f8170e55f8170e55f7f019a0f7f019a0f7f019a0f7f019a0f
6a367fb66a367fb66a367fb66a367fb63c58ef873c58ef873c58ef873c58ef87
a30cbaf9a30cbaf9a30cbaf9a30cbaf9f9fb81eaf9fb81eaf9fb81eaf9fb81ea
aa7b5f13aa7b5f13aa7b5f13aa7b5f134ce7b0674ce7b0674ce7b0674ce7b067
96268b3c96268b3c96268b3c96268b3c239cb469239cb469239cb469239cb469
ceda66aeceda66aeceda66aeceda66ae534f7f5a534f7f5a534f7f5a534f7f5a
e879173be879173be879173be879173b1306f98c1306f98c1306f98c1306f98c
01c612be01c612be01c612be01c612be61228bc361228bc361228bc361228bc3
7f4aae217f4aae217f4aae217f4aae21347c8781347c8781347c8781347c8781
573e64ab573e64ab573e64ab573e64ab6079dcc06079dcc06079dcc06079dcc0
d58167e6d58167e6d58167e6d58167e6baf91b65baf91b65baf91b65baf91b65
53986020539860205398602053986020ef91f990ef91f990ef91f990ef91f990
3e2f60043e2f60043e2f60043e2f6004e0202b34e0202b34e0202b34e0202b34
a2cf3fbaa2cf3fbaa2cf3fbaa2cf3fba425294ec425294ec425294ec425294ec
966783759667837596678375966783755e62e9815e62e9815e62e9815e62e981
24460f4b24460f4b24460f4b24460f4b86497f2f86497f2f86497f2f86497f2f
0f6a31cf0f6a31cf0f6a31cf0f6a31cf160b5a85160b5a85160b5a85160b5a85
7be458887be458887be458887be458888151b5858151b5858151b5858151b585
8146b0e28146b0e28146b0e28146b0e2f321b56ef321b56ef321b56ef321b56e
8cc616ed8cc616ed8cc616ed8cc616ed4d12d73b4d12d73b4d12d73b4d12d73b
9e44d4529e44d4529e44d4529e44d452b12932b1b12932b1b12932b1b12932b1
1e0256461e0256461e0256461e0256469839cc869839cc869839cc869839cc86
f58f82f7f58f82f7f58f82f7f58f82f7358db977358db977358db977358db977
9e0b9ba39e0b9ba39e0b9ba39e0b9ba36f90c7706f90c7706f90c7706f90c770
826aafd0826aafd0826aafd0826aafd0742f91f3742f91f3742f91f3742f91f3
da22bd70da22bd70da22bd70da22bd70afc768a2afc768a2afc768a2afc768a2
8b8fc81a8b8fc81a8b8fc81a8b8fc81aefcc2dceefcc2dceefcc2dceefcc2dce
81a8901c81a8901c81a8901c81a8901c917539e0917539e0917539e0917539e0
39f045a539f045a539f045a539f045a513fb074113fb074113fb074113fb0741
42279e1742279e1742279e1742279e17d5e3968ed5e3968ed5e3968ed5e3968e
3987c8e33987c8e33987c8e33987c8e338778381387783813877838138778381
438812f9438812f9438812f9438812f9880f22c0880f22c0880f22c0880f22c0
7ed06aaf7ed06aaf7ed06aaf7ed06aafb24d8f7fb24d8f7fb24d8f7fb24d8f7f
f8ed5f45f8ed5f45f8ed5f45f8ed5f452a8b36be2a8b36be2a8b36be2a8b36be
d573ec21d573ec21d573ec21d573ec215ad634e95ad634e95ad634e95ad634e9
ddda736fddda736fddda736fddda736f0ca4427f0ca4427f0ca4427f0ca4427f
2cd44adf2cd44adf2cd44adf2cd44adf49faa55e49faa55e49faa55e49faa55e
f681005ef681005ef681005ef681005e163a106b163a106b163a106b163a106b
246c63a0246c63a0246c63a0246c63a0412cfe7f412cfe7f412cfe7f412cfe7f
8f8dd2d48f8dd2d48f8dd2d48f8dd2d437de6b0737de6b0737de6b0737de6b07
4eca2f184eca2f184eca2f184eca2f18dba5d18ddba5d18ddba5d18ddba5d18d
fc65a659fc65a659fc65a659fc65a65975a2446b75a2446b75a2446b75a2446b
640ffa6f640ffa6f640ffa6f640ffa6feb34f91ceb34f91ceb34f91ceb34f91c
fafd311dfafd311dfafd311dfafd311df7a5bd57f7a5bd57f7a5bd57f7a5bd57
328d15be328d15be328d15be328d15be3573237e3573237e3573237e3573237e
f9b0818df9b0818df9b0818df9b0818db1181cadb1181cadb1181cadb1181cad
63db37d963db37d963db37d963db37d9bda0637abda0637abda0637abda0637a
9bac244f9bac244f9bac244f9bac244faa913fdbaa913fdbaa913fdbaa913fdb
4ff2552c4ff2552c4ff2552c4ff2552c9f363a5c9f363a5c9f363a5c9f363a5c
2aa050b32aa050b32aa050b32aa050b3e2f2d090e2f2d090e2f2d090e2f2d090
d05c7ab3d05c7ab3d05c7ab3d05c7ab32e07760c2e07760c2e07760c2e07760c
28459603284596032845960328459603e2b09603e2b09603e2b09603e2b09603
1dfb78361dfb78361dfb78361dfb783686ed285e86ed285e86ed285e86ed285e
2e897ff42e897ff42e897ff42e897ff4d458537bd458537bd458537bd458537b
3a2175bf3a2175bf3a2175bf3a2175bf94fc756c94fc756c94fc756c94fc756c
df320573df320573df320573df3205730c389b270c389b270c389b270c389b27
f65ca7d6f65ca7d6f65ca7d6f65ca7d6ff3a0476ff3a0476ff3a0476ff3a0476
a58ed849a58ed849a58ed849a58ed849ef79b1e3ef79b1e3ef79b1e3ef79b1e3
7e4e967f7e4e967f7e4e967f7e4e967fc9111294c9111294c9111294c9111294
d18d7191d18d7191d18d7191d18d7191e771a610e771a610e771a610e771a610
9b7481b69b7481b69b7481b69b7481b6b641a884b641a884b641a884b641a884
d2234ebfd2234ebfd2234ebfd2234ebf1286315e1286315e1286315e1286315e
1382d8b31382d8b31382d8b31382d8b3cc74027fcc74027fcc74027fcc74027f
7384fa367384fa367384fa367384fa369f89b37f9f89b37f9f89b37f9f89b37f
65a63ab565a63ab565a63ab565a63ab5c8ebfeeac8ebfeeac8ebfeeac8ebfeea
987e38a6987e38a6987e38a6987e38a6b8b8502cb8b8502cb8b8502cb8b8502c
ee589ff3ee589ff3ee589ff3ee589ff34a96d4104a96d4104a96d4104a96d410
58fccf0958fccf0958fccf0958fccf0935cc7a7f35cc7a7f35cc7a7f35cc7a7f
c4e8dfc3c4e8dfc3c4e8dfc3c4e8dfc3407d3ca1407d3ca1407d3ca1407d3ca1
cd0c7744cd0c7744cd0c7744cd0c7744c69fd3f5c69fd3f5c69fd3f5c69fd3f5
37711a7937711a7937711a7937711a79c101563bc101563bc101563bc101563b
97d51a9797d51a9797d51a9797d51a9776746081767460817674608176746081
86c4011986c4011986c4011986c401192ef13c902ef13c902ef13c902ef13c90
8d2ae6648d2ae6648d2ae6648d2ae664bf70d2f3bf70d2f3bf70d2f3bf70d2f3
d20af738d20af738d20af738d20af738a251ab11a251ab11a251ab11a251ab11
845ff95c845ff95c845ff95c845ff95c5bd663ae5bd663ae5bd663ae5bd663ae
cebed07fcebed07fcebed07fcebed07f221a458a221a458a221a458a221a458a
99134a5a99134a5a99134a5a99134a5a37ce5f8d37ce5f8d37ce5f8d37ce5f8d
828128f3828128f3828128f3828128f31c3622761c3622761c3622761c362276
46c595ca46c595ca46c595ca46c595ca287ffb70287ffb70287ffb70287ffb70
81b7e79d81b7e79d81b7e79d81b7e79d7f7fe0097f7fe0097f7fe0097f7fe009
790709dd790709dd790709dd790709dd13aaa40113aaa40113aaa40113aaa401
8e5cbebf8e5cbebf8e5cbebf8e5cbebf977fbd99977fbd99977fbd99977fbd99
89778d5a89778d5a89778d5a89778d5a31dbfdab31dbfdab31dbfdab31dbfdab
2afab1422afab1422afab1422afab1428d7c77218d7c77218d7c77218d7c7721
5716248b5716248b5716248b5716248bb76898acb76898acb76898acb76898ac
6f810d366f810d366f810d366f810d3664e57f3164e57f3164e57f3164e57f31
b92f0455b92f0455b92f0455b92f04550cb78a610cb78a610cb78a610cb78a61
900cc4cf900cc4cf900cc4cf900cc4cf21980dd121980dd121980dd121980dd1
60c08de360c08de360c08de360c08de37873ca7e7873ca7e7873ca7e7873ca7e
9f5afc519f5afc519f5afc519f5afc511747beb81747beb81747beb81747beb8
4b27ee124b27ee124b27ee124b27ee12e2b668fee2b668fee2b668fee2b668fe
5341e5435341e5435341e5435341e543b59829d3b59829d3b59829d3b59829d3
7fde2cd57fde2cd57fde2cd57fde2cd51e8e717f1e8e717f1e8e717f1e8e717f
40abd76140abd76140abd76140abd76151d84b5851d84b5851d84b5851d84b58
fa569311fa569311fa569311fa569311b78cf119b78cf119b78cf119b78cf119
a6a87f8aa6a87f8aa6a87f8aa6a87f8ad2217f1fd2217f1fd2217f1fd2217f1f
de63db2ade63db2ade63db2ade63db2abfae8c7ebfae8c7ebfae8c7ebfae8c7e
a184cd61a184cd61a184cd61a184cd61f4766ea5f4766ea5f4766ea5f4766ea5
6ddb261f6ddb261f6ddb261f6ddb261f546d7207546d7207546d7207546d7207
51b669d551b669d551b669d551b669d5d7ffa7fdd7ffa7fdd7ffa7fdd7ffa7fd
56207dea56207dea56207dea56207dea9fef3c259fef3c259fef3c259fef3c25
48cb639b48cb639b48cb639b48cb639bca81a8ceca81a8ceca81a8ceca81a8ce
e85a35a6e85a35a6e85a35a6e85a35a689abb6b789abb6b789abb6b789abb6b7
55878110558781105587811055878110f3ef82fcf3ef82fcf3ef82fcf3ef82fc
a277a39ca277a39ca277a39ca277a39cb2c816e1b2c816e1b2c816e1b2c816e1
e381cfa8e381cfa8e381cfa8e381cfa847e13dfd47e13dfd47e13dfd47e13dfd
0f1431640f1431640f1431640f1431641f04f8d81f04f8d81f04f8d81f04f8d8
58a9d05f58a9d05f58a9d05f58a9d05f16d7ad7916d7ad7916d7ad7916d7ad79
f775b6eef775b6eef775b6eef775b6ee463b660b463b660b463b660b463b660b
3f94819e3f94819e3f94819e3f94819e275dc0c2275dc0c2275dc0c2275dc0c2
69444ddc69444ddc69444ddc69444ddcd78b8e0ed78b8e0ed78b8e0ed78b8e0e
e7d971bde7d971bde7d971bde7d971bdea91fa90ea91fa90ea91fa90ea91fa90
10ad84cd10ad84cd10ad84cd10ad84cd088163f7088163f7088163f7088163f7
7f8f4df47f8f4df47f8f4df47f8f4df468d7f5d768d7f5d768d7f5d768d7f5d7
baaf327ebaaf327ebaaf327ebaaf327e691a3bf8691a3bf8691a3bf8691a3bf8
deeeecf4deeeecf4deeeecf4deeeecf481933d3681933d3681933d3681933d36
f1ab16c1f1ab16c1f1ab16c1f1ab16c1dd930f44dd930f44dd930f44dd930f44
9a6b90a69a6b90a69a6b90a69a6b90a60bac99810bac99810bac99810bac9981
060b8be9060b8be9060b8be9060b8be9ed5ed6d8ed5ed6d8ed5ed6d8ed5ed6d8
29a282d029a282d029a282d029a282d047f97fce47f97fce47f97fce47f97fce
62358f3f62358f3f62358f3f62358f3f7bc830897bc830897bc830897bc83089
06ca369906ca369906ca369906ca3699dc5d3dbddc5d3dbddc5d3dbddc5d3dbd
ffb5e2a8ffb5e2a8ffb5e2a8ffb5e2a85483a7eb5483a7eb5483a7eb5483a7eb
aa51be2eaa51be2eaa51be2eaa51be2eba9a8c8cba9a8c8cba9a8c8cba9a8c8c
2f46d3e22f46d3e22f46d3e22f46d3e25925fe9a5925fe9a5925fe9a5925fe9a
b45ca54bb45ca54bb45ca54bb45ca54bd891847dd891847dd891847dd891847d
f7b37516f7b37516f7b37516f7b375167a2a38c47a2a38c47a2a38c47a2a38c4
6d1e45a66d1e45a66d1e45a66d1e45a6fa9a4981fa9a4981fa9a4981fa9a4981
0c33d9120c33d9120c33d9120c33d912f9a89481f9a89481f9a89481f9a89481
d7f9dfa6d7f9dfa6d7f9dfa6d7f9dfa6144a39e4144a39e4144a39e4144a39e4
4c4da4674c4da4674c4da4674c4da467374cdc81374cdc81374cdc81374cdc81
1745027617450276174502761745027674c7817374c7817374c7817374c78173
5e7fd4c15e7fd4c15e7fd4c15e7fd4c121a0bd4321a0bd4321a0bd4321a0bd43
e2bc7ab7e2bc7ab7e2bc7ab7e2bc7ab735d70ff735d70ff735d70ff735d70ff7
47aafa8147aafa8147aafa8147aafa81be1295b2be1295b2be1295b2be1295b2
0585e68e0585e68e0585e68e0585e68efad360adfad360adfad360adfad360ad
bcb98172bcb98172bcb98172bcb98172a181b591a181b591a181b591a181b591
f8eafb30f8eafb30f8eafb30f8eafb30027f1623027f1623027f1623027f1623
0a4be07f0a4be07f0a4be07f0a4be07f2e63a9e42e63a9e42e63a9e42e63a9e4
63dd44b063dd44b063dd44b063dd44b0129c545c129c545c129c545c129c545c
bb45d1bcbb45d1bcbb45d1bcbb45d1bc8f7ae83f8f7ae83f8f7ae83f8f7ae83f
f9d3a486f9d3a486f9d3a486f9d3a4863a197f183a197f183a197f183a197f18
f1238a9ef1238a9ef1238a9ef1238a9ec2639395c2639395c2639395c2639395
03531d8403531d8403531d8403531d847f675fda7f675fda7f675fda7f675fda
7d55b8e17d55b8e17d55b8e17d55b8e123d9876523d9876523d9876523d98765
642c7aff642c7aff642c7aff642c7aff61e91bc661e91bc661e91bc661e91bc6
c5795e01c5795e01c5795e01c5795e0123bf714a23bf714a23bf714a23bf714a
4f568b814f568b814f568b814f568b81d6926b93d6926b93d6926b93d6926b93
c66500d6c66500d6c66500d6c66500d6762e8192762e8192762e8192762e8192
e359dcd7e359dcd7e359dcd7e359dcd71ac661471ac661471ac661471ac66147
1d0511ca1d0511ca1d0511ca1d0511ca222cb17f222cb17f222cb17f222cb17f
23835c1423835c1423835c1423835c140434c9230434c9230434c9230434c923
9f1d0e479f1d0e479f1d0e479f1d0e4772d8847672d8847672d8847672d88476
dfa1045fdfa1045fdfa1045fdfa1045ff3aab38ff3aab38ff3aab38ff3aab38f
12cb83ea12cb83ea12cb83ea12cb83ea2f1edbd72f1edbd72f1edbd72f1edbd7
742340d0742340d0742340d0742340d033f894ee33f894ee33f894ee33f894ee
5bbdae245bbdae245bbdae245bbdae24d5ca1bc6d5ca1bc6d5ca1bc6d5ca1bc6
b0e359c6b0e359c6b0e359c6b0e359c6b1483fe4b1483fe4b1483fe4b1483fe4
fb55c78dfb55c78dfb55c78dfb55c78d59b9ee4759b9ee4759b9ee4759b9ee47
6cfc895c6cfc895c6cfc895c6cfc895cbcb6e448bcb6e448bcb6e448bcb6e448
e3217d86e3217d86e3217d86e3217d867762f5107762f5107762f5107762f510
2abf56a72abf56a72abf56a72abf56a747d82ffb47d82ffb47d82ffb47d82ffb
22c33b2922c33b2922c33b2922c33b29a9773e0da9773e0da9773e0da9773e0d
2b3c865b2b3c865b2b3c865b2b3c865b503dd342503dd342503dd342503dd342
617afe42617afe42617afe42617afe42d050e59dd050e59dd050e59dd050e59d
45ce256045ce256045ce256045ce2560111a2aec111a2aec111a2aec111a2aec
8ddf22ff8ddf22ff8ddf22ff8ddf22ff07f09dba07f09dba07f09dba07f09dba
99a915f999a915f999a915f999a915f991c9949f91c9949f91c9949f91c9949f
e1076c94e1076c94e1076c94e1076c947f81fb5b7f81fb5b7f81fb5b7f81fb5b
9307527b9307527b9307527b9307527b812a566d812a566d812a566d812a566d
e77f9362e77f9362e77f9362e77f93620bac51700bac51700bac51700bac5170
53782ffb53782ffb53782ffb53782ffb7759d17b7759d17b7759d17b7759d17b
68efd3dc68efd3dc68efd3dc68efd3dc402921dc402921dc402921dc402921dc
b5945774b5945774b5945774b59457747ec2680c7ec2680c7ec2680c7ec2680c
c9f9a0a1c9f9a0a1c9f9a0a1c9f9a0a12720117f2720117f2720117f2720117f
ff34811dff34811dff34811dff34811df5ed450ef5ed450ef5ed450ef5ed450e
6eb93d7f6eb93d7f6eb93d7f6eb93d7f9e0f36bd9e0f36bd9e0f36bd9e0f36bd
f13dd325f13dd325f13dd325f13dd325cbdb4b3ecbdb4b3ecbdb4b3ecbdb4b3e
2e13a5a52e13a5a52e13a5a52e13a5a5a130f452a130f452a130f452a130f452
eab542c9eab542c9eab542c9eab542c99620a8229620a8229620a8229620a822
2bd1dfcf2bd1dfcf2bd1dfcf2bd1dfcf5bdca2a45bdca2a45bdca2a45bdca2a4
7081255870812558708125587081255819fd048319fd048319fd048319fd0483
eb1a3cdfeb1a3cdfeb1a3cdfeb1a3cdf81cafead81cafead81cafead81cafead
d44ac6d8d44ac6d8d44ac6d8d44ac6d8a76020d3a76020d3a76020d3a76020d3
a4567fc4a4567fc4a4567fc4a4567fc4bee76645bee76645bee76645bee76645
3cc64bb33cc64bb33cc64bb33cc64bb3429f0d4c429f0d4c429f0d4c429f0d4c
7f9fb9587f9fb9587f9fb9587f9fb9587ad184267ad184267ad184267ad18426
8fe49b6c8fe49b6c8fe49b6c8fe49b6cc7b3c94bc7b3c94bc7b3c94bc7b3c94b
b80f7fa4b80f7fa4b80f7fa4b80f7fa4a2e49677a2e49677a2e49677a2e49677
3e969c4d3e969c4d3e969c4d3e969c4dd34b944ed34b944ed34b944ed34b944e
12c24ea512c24ea512c24ea512c24ea593e74e1993e74e1993e74e1993e74e19
85ddfa7f85ddfa7f85ddfa7f85ddfa7f34ac4eac34ac4eac34ac4eac34ac4eac
81de72e481de72e481de72e481de72e4e895dc6ae895dc6ae895dc6ae895dc6a
753c5b81753c5b81753c5b81753c5b81a142e4a3a142e4a3a142e4a3a142e4a3
3a5f7f523a5f7f523a5f7f523a5f7f528981a5c68981a5c68981a5c68981a5c6
d93482d6d93482d6d93482d6d93482d653a0b5b953a0b5b953a0b5b953a0b5b9
b4e492b5b4e492b5b4e492b5b4e492b5747b507f747b507f747b507f747b507f
46ddf2f346ddf2f346ddf2f346ddf2f3d7467fcfd7467fcfd7467fcfd7467fcf
4b6781124b6781124b6781124b6781128e3b028e8e3b028e8e3b028e8e3b028e
00eaee1a00eaee1a00eaee1a00eaee1a987228fc987228fc987228fc987228fc
098b7f42098b7f42098b7f42098b7f42c9ebedabc9ebedabc9ebedabc9ebedab
6822d14e6822d14e6822d14e6822d14ef253afdef253afdef253afdef253afde
d0c113ccd0c113ccd0c113ccd0c113ccb3a3db6db3a3db6db3a3db6db3a3db6d
41059457410594574105945741059457d43e615cd43e615cd43e615cd43e615c
64f203dd64f203dd64f203dd64f203ddbeedc99fbeedc99fbeedc99fbeedc99f
77eb93e777eb93e777eb93e777eb93e729932a7429932a7429932a7429932a74
9a8181e69a8181e69a8181e69a8181e66cf440b86cf440b86cf440b86cf440b8
8e3b004f8e3b004f8e3b004f8e3b004f5df0fe785df0fe785df0fe785df0fe78
4876fd674876fd674876fd674876fd67bf81609cbf81609cbf81609cbf81609c
7d47f3047d47f3047d47f3047d47f3041a3d27891a3d27891a3d27891a3d2789
93b153aa93b153aa93b153aa93b153aae4039e5ae4039e5ae4039e5ae4039e5a
6c54064f6c54064f6c54064f6c54064f8e370b118e370b118e370b118e370b11
d53c0fa3d53c0fa3d53c0fa3d53c0fa320f84d7a20f84d7a20f84d7a20f84d7a
9c3edffd9c3edffd9c3edffd9c3edffd5d2779cc5d2779cc5d2779cc5d2779cc
0aab66070aab66070aab66070aab6607241fd8b5241fd8b5241fd8b5241fd8b5
62c85b2662c85b2662c85b2662c85b266e9a3a3f6e9a3a3f6e9a3a3f6e9a3a3f
be3d0a24be3d0a24be3d0a24be3d0a24d18b72e8d18b72e8d18b72e8d18b72e8
1a0dd67f1a0dd67f1a0dd67f1a0dd67fa57fbb79a57fbb79a57fbb79a57fbb79
3f28f6063f28f6063f28f6063f28f6068167ddda8167ddda8167ddda8167ddda
6a9261656a9261656a9261656a92616597381545973815459738154597381545
c42981e1c42981e1c42981e1c42981e13ae0a9383ae0a9383ae0a9383ae0a938
7d397f647d397f647d397f647d397f6447274c4547274c4547274c4547274c45
200a57ca200a57ca200a57ca200a57ca77525ae077525ae077525ae077525ae0
5d235a535d235a535d235a535d235a535d295ed45d295ed45d295ed45d295ed4
fed5daa5fed5daa5fed5daa5fed5daa5c700dff2c700dff2c700dff2c700dff2
8f5b82718f5b82718f5b82718f5b8271e388000be388000be388000be388000b
26f07e5a26f07e5a26f07e5a26f07e5ae5f318fee5f318fee5f318fee5f318fe
86227f8186227f8186227f8186227f81bab78410bab78410bab78410bab78410
1e5a3c3c1e5a3c3c1e5a3c3c1e5a3c3c2bb555b92bb555b92bb555b92bb555b9
27a1b49527a1b49527a1b49527a1b495fa1e64e4fa1e64e4fa1e64e4fa1e64e4
aff631a7aff631a7aff631a7aff631a769f05b7a69f05b7a69f05b7a69f05b7a
20521197205211972052119720521197b26f3dc5b26f3dc5b26f3dc5b26f3dc5
dd5d1149dd5d1149dd5d1149dd5d11492bc6fbb42bc6fbb42bc6fbb42bc6fbb4
dfcdaf96dfcdaf96dfcdaf96dfcdaf96935002dc935002dc935002dc935002dc
c47fc60bc47fc60bc47fc60bc47fc60b7b5561717b5561717b5561717b556171
db35eba6db35eba6db35eba6db35eba6bfd2282bbfd2282bbfd2282bbfd2282b
5d29f3b55d29f3b55d29f3b55d29f3b5314f2ae1314f2ae1314f2ae1314f2ae1
34a862bf34a862bf34a862bf34a862bf300577b2300577b2300577b2300577b2
ffc60ec8ffc60ec8ffc60ec8ffc60ec8d53b3d13d53b3d13d53b3d13d53b3d13
d0c05f26d0c05f26d0c05f26d0c05f265e8143a35e8143a35e8143a35e8143a3
23d0afe723d0afe723d0afe723d0afe79384ff889384ff889384ff889384ff88
7fc6df8c7fc6df8c7fc6df8c7fc6df8c24821c7524821c7524821c7524821c75
8175f7d48175f7d48175f7d48175f7d421fef2ec21fef2ec21fef2ec21fef2ec
d69463b6d69463b6d69463b6d69463b6304fec01304fec01304fec01304fec01
8b3a9d758b3a9d758b3a9d758b3a9d7517c9844717c9844717c9844717c98447
b451d247b451d247b451d247b451d247c26f79dbc26f79dbc26f79dbc26f79db
71180181711801817118018171180181b570922ab570922ab570922ab570922a
7b89d3817b89d3817b89d3817b89d381f632f4a8f632f4a8f632f4a8f632f4a8
a51f270ba51f270ba51f270ba51f270b78776d0178776d0178776d0178776d01
90a6192690a6192690a6192690a619261bab211c1bab211c1bab211c1bab211c
4e4c67264e4c67264e4c67264e4c672679018597790185977901859779018597
67b639a967b639a967b639a967b639a9d3c83b75d3c83b75d3c83b75d3c83b75
1efacd7b1efacd7b1efacd7b1efacd7bec6e5228ec6e5228ec6e5228ec6e5228
ce266c60ce266c60ce266c60ce266c60fdb89418fdb89418fdb89418fdb89418
e2d3e1dde2d3e1dde2d3e1dde2d3e1ddb43e34e1b43e34e1b43e34e1b43e34e1
b69abdc2b69abdc2b69abdc2b69abdc2fcfdd726fcfdd726fcfdd726fcfdd726
78e2e7a978e2e7a978e2e7a978e2e7a994a7a97c94a7a97c94a7a97c94a7a97c
da7931d1da7931d1da7931d1da7931d1273c689b273c689b273c689b273c689b
81c95d2a81c95d2a81c95d2a81c95d2ad15105efd15105efd15105efd15105ef
ad5d2db3ad5d2db3ad5d2db3ad5d2db3b3cae38ab3cae38ab3cae38ab3cae38a
9979d4559979d4559979d4559979d455af64136faf64136faf64136faf64136f
dda2439adda2439adda2439adda2439a77181c2b77181c2b77181c2b77181c2b
347c1981347c1981347c1981347c198119151678191516781915167819151678
1de61f441de61f441de61f441de61f4487f05db487f05db487f05db487f05db4
31b01bd231b01bd231b01bd231b01bd284d4055e84d4055e84d4055e84d4055e
e84e38d3e84e38d3e84e38d3e84e38d3f977a448f977a448f977a448f977a448
ca7affccca7affccca7affccca7affcc9e5d7f6a9e5d7f6a9e5d7f6a9e5d7f6a
38769c7538769c7538769c7538769c753da68e6f3da68e6f3da68e6f3da68e6f
ad577bc6ad577bc6ad577bc6ad577bc63641f2b93641f2b93641f2b93641f2b9
1c0707281c0707281c0707281c070728894d665a894d665a894d665a894d665a
f38cab65f38cab65f38cab65f38cab65a455155ea455155ea455155ea455155e
135dbb0d135dbb0d135dbb0d135dbb0d4bc8a8b04bc8a8b04bc8a8b04bc8a8b0
b4778812b4778812b4778812b47788125c784a035c784a035c784a035c784a03
9c0181589c0181589c0181589c018158b39e54ccb39e54ccb39e54ccb39e54cc
ab873ea4ab873ea4ab873ea4ab873ea4de9523d3de9523d3de9523d3de9523d3
ce8e192dce8e192dce8e192dce8e192d813345f4813345f4813345f4813345f4
b1bf1652b1bf1652b1bf1652b1bf1652841185cb841185cb841185cb841185cb
85da17d085da17d085da17d085da17d091a81f1691a81f1691a81f1691a81f16
976dfa04976dfa04976dfa04976dfa048addbd858addbd858addbd858addbd85
30097f2b30097f2b30097f2b30097f2b7995cfa07995cfa07995cfa07995cfa0
cfaa2fdecfaa2fdecfaa2fdecfaa2fde89e87ffb89e87ffb89e87ffb89e87ffb
7263b47b7263b47b7263b47b7263b47bd3e0fcd7d3e0fcd7d3e0fcd7d3e0fcd7
340f5fb6340f5fb6340f5fb6340f5fb60dc77fa40dc77fa40dc77fa40dc77fa4
ed6a1e2ded6a1e2ded6a1e2ded6a1e2d770e5d2a770e5d2a770e5d2a770e5d2a
13ca862113ca862113ca862113ca8621a3bf0240a3bf0240a3bf0240a3bf0240
6d5effd26d5effd26d5effd26d5effd28f6198cb8f6198cb8f6198cb8f6198cb
15dd19ea15dd19ea15dd19ea15dd19ea7604301b7604301b7604301b7604301b
3d477fc53d477fc53d477fc53d477fc5590f9440590f9440590f9440590f9440
526affff526affff526affff526affffe8901352e8901352e8901352e8901352
81fa6fc181fa6fc181fa6fc181fa6fc14d62797f4d62797f4d62797f4d62797f
4bf8d6054bf8d6054bf8d6054bf8d60581233aae81233aae81233aae81233aae
5f8241315f8241315f8241315f824131b9dc4b9ab9dc4b9ab9dc4b9ab9dc4b9a
a01e89e9a01e89e9a01e89e9a01e89e98143c1748143c1748143c1748143c174
