00000000004219a1000000000000450e00000000004e8b0c000000000000467d
0000000000000000000000000000005500000000000000000000000000000055
0000000000000000000000000000000000000000000000000000000000000000
0000000000000000000000000000000000000000000000000000000000000000
00000000ffc5994c00000000000036b6000000000033ab6c0000000000004364
0000000000000000000000000000005500000000000000000000000000000055
0000000000000000000000000000000000000000000000000000000000000000
0000000000000000000000000000000000000000000000000000000000000000
00000000ffd5664c0000000000003888000000000041781500000000000044fb
0000000000000000000000000000005500000000000000000000000000000055
0000000000000000000000000000000000000000000000000000000000000000
0000000000000000000000000000000000000000000000000000000000000000
000000000025f9fe00000000000041d1000000000030c0a1000000000000430e
0000000000000000000000000000005500000000000000000000000000000055
0000000000000000000000000000000000000000000000000000000000000000
0000000000000000000000000000000000000000000000000000000000000000
00000000ffa510b900000000000032f700000000ffdf8f7100000000000039b4
0000000000000000000000000000005500000000000000000000000000000055
0000000000000000000000000000000000000000000000000000000000000000
0000000000000000000000000000000000000000000000000000000000000000
00000000003056db0000000000004302000000000012d00b0000000000003f9b
0000000000000000000000000000005500000000000000000000000000000055
0000000000000000000000000000000000000000000000000000000000000000
0000000000000000000000000000000000000000000000000000000000000000
00000000ffd085a900000000000037f80000000000286f7b0000000000004219
0000000000000000000000000000005500000000000000000000000000000055
0000000000000000000000000000000000000000000000000000000000000000
0000000000000000000000000000000000000000000000000000000000000000
00000000ffb5ecf800000000000034e80000000000066c970000000000003e2e
0000000000000000000000000000005500000000000000000000000000000055
0000000000000000000000000000000000000000000000000000000000000000
0000000000000000000000000000000000000000000000000000000000000000
000000000024e0e800000000000041b000000000ffc72eeb00000000000036e5
0000000000000000000000000000005500000000000000000000000000000055
0000000000000000000000000000000000000000000000000000000000000000
0000000000000000000000000000000000000000000000000000000000000000
00000000ffbd181800000000000035bc00000000ffe8e71e0000000000003ac7
0000000000000000000000000000005500000000000000000000000000000055
0000000000000000000000000000000000000000000000000000000000000000
0000000000000000000000000000000000000000000000000000000000000000
00000000002ffc1c00000000000042f800000000ffc3c3970000000000003680
0000000000000000000000000000005500000000000000000000000000000055
0000000000000000000000000000000000000000000000000000000000000000
0000000000000000000000000000000000000000000000000000000000000000
0000000000659e47000000000000492500000000ffd5deeb0000000000003896
0000000000000000000000000000005500000000000000000000000000000055
0000000000000000000000000000000000000000000000000000000000000000
0000000000000000000000000000000000000000000000000000000000000000
00000000ffa6bea80000000000003328000000000000c71f0000000000003d88
0000000000000000000000000000005500000000000000000000000000000055
0000000000000000000000000000000000000000000000000000000000000000
0000000000000000000000000000000000000000000000000000000000000000
00000000004dc1860000000000004666000000000044349f000000000000454c
0000000000000000000000000000005500000000000000000000000000000055
0000000000000000000000000000000000000000000000000000000000000000
0000000000000000000000000000000000000000000000000000000000000000
00000000004a29d000000000000045fc00000000fffdf1ff0000000000003d34
0000000000000000000000000000005500000000000000000000000000000055
0000000000000000000000000000000000000000000000000000000000000000
0000000000000000000000000000000000000000000000000000000000000000
00000000fffd2f540000000000003d1e0000000000417e1d00000000000044fc
0000000000000000000000000000005500000000000000000000000000000055
0000000000000000000000000000000000000000000000000000000000000000
0000000000000000000000000000000000000000000000000000000000000000
00000000000e674c0000000000003f19000000000064700a0000000000004903
0000000000000000000000000000005500000000000000000000000000000055
0000000000000000000000000000000000000000000000000000000000000000
0000000000000000000000000000000000000000000000000000000000000000
00000000ffe3e70b0000000000003a3400000000ff9d0f07000000000000320b
0000000000000000000000000000005500000000000000000000000000000055
0000000000000000000000000000000000000000000000000000000000000000
0000000000000000000000000000000000000000000000000000000000000000
000000000019288c000000000000405700000000003e90d000000000000044a6
0000000000000000000000000000005500000000000000000000000000000055
0000000000000000000000000000000000000000000000000000000000000000
0000000000000000000000000000000000000000000000000000000000000000
00000000ffa6286800000000000033170000000000073a960000000000003e46
0000000000000000000000000000005500000000000000000000000000000055
0000000000000000000000000000000000000000000000000000000000000000
0000000000000000000000000000000000000000000000000000000000000000
0000000000340586000000000000436f00000000000248bc0000000000003db4
0000000000000000000000000000005500000000000000000000000000000055
0000000000000000000000000000000000000000000000000000000000000000
0000000000000000000000000000000000000000000000000000000000000000
00000000003dec26000000000000449300000000005bf67c0000000000004809
0000000000000000000000000000005500000000000000000000000000000055
0000000000000000000000000000000000000000000000000000000000000000
0000000000000000000000000000000000000000000000000000000000000000
00000000ff960252000000000000313b0000000000507fb300000000000046b7
0000000000000000000000000000005500000000000000000000000000000055
0000000000000000000000000000000000000000000000000000000000000000
0000000000000000000000000000000000000000000000000000000000000000
00000000ffa0486a000000000000326a00000000fff37c9d0000000000003c00
0000000000000000000000000000005500000000000000000000000000000055
0000000000000000000000000000000000000000000000000000000000000000
0000000000000000000000000000000000000000000000000000000000000000
0000000000073e970000000000003e460000000000674a050000000000004957
0000000000000000000000000000005500000000000000000000000000000055
0000000000000000000000000000000000000000000000000000000000000000
0000000000000000000000000000000000000000000000000000000000000000
00000000000121c10000000000003d9200000000ffbd886700000000000035c8
0000000000000000000000000000005500000000000000000000000000000055
0000000000000000000000000000000000000000000000000000000000000000
0000000000000000000000000000000000000000000000000000000000000000
00000000ffe0496700000000000039c900000000004ae55d0000000000004611
0000000000000000000000000000005500000000000000000000000000000055
0000000000000000000000000000000000000000000000000000000000000000
0000000000000000000000000000000000000000000000000000000000000000
00000000004eebea00000000000046880000000000594e3000000000000047ba
0000000000000000000000000000005500000000000000000000000000000055
0000000000000000000000000000000000000000000000000000000000000000
0000000000000000000000000000000000000000000000000000000000000000
00000000002a2c6b000000000000424c00000000003b2d8f0000000000004442
0000000000000000000000000000005500000000000000000000000000000055
0000000000000000000000000000000000000000000000000000000000000000
0000000000000000000000000000000000000000000000000000000000000000
00000000001acd9f000000000000408700000000ffa21416000000000000329f
0000000000000000000000000000005500000000000000000000000000000055
0000000000000000000000000000000000000000000000000000000000000000
0000000000000000000000000000000000000000000000000000000000000000
000000000063a43100000000000048eb00000000fff4fedf0000000000003c2c
0000000000000000000000000000005500000000000000000000000000000055
0000000000000000000000000000000000000000000000000000000000000000
0000000000000000000000000000000000000000000000000000000000000000
00000000ffe9e3a20000000000003ae500000000003a0a0f0000000000004420
0000000000000000000000000000005500000000000000000000000000000055
0000000000000000000000000000000000000000000000000000000000000000
0000000000000000000000000000000000000000000000000000000000000000
