501e918aa6bbedeb11e10c50387009bdae7f5399caf6290e3c5fc1aee4817fe3
f41d0fc2eed7ae682b3fa537682e047bc301a1646a87d82ad4dba8a83aa09d27
abea4b28aef0ef223423fc4d775901532ef96e77dc81ccd1f4c03cbad93b21ef
fe1bd5356f8e6e3292d7405e29258512fc95947b4dde58067886f53ebb488ebb
f931f7f6ed2b8190e66ef39edb6b1ad8cfd9a1e4329607ad74eb58086cdc4038
25bf159632fefbf281c56ec4aa5fec60d65b89e608e4c936de39fbaacf360801
e8de0ea5dce99b3db0dbd07f9f068e246aee1524f6177223e02bf569823f811f
35201058e97af72995be446b7e5c5e71eaef0ce6f522b302de65110739c62eb0
de1e5f15cf29f92a71effe34557ece3df46dfc4be5460f717cdec6a3aeb3fd7f
daa029a3aacfffc925dd8852d338120bb316cb81a77aa092e01334326e817654
e4902cc3b8f1a347ba57f2fa34fd319bb4926e1fd19b7cbc58df3d4d29a1cda9
d8dda038ad350a85b92450469dc7bf751fc7b3975b6a15145eb57fee6f17cae3
7f5ec01f3d1fdfc273240b707d2baca2c2218584e55ef9522748d6ee88f22f41
fa86fd62ae413ee15c77a0d6500ad9f929b16e8107818a11f8b3de7e56cc7e6e
3e3d9eb601e6f7600805127f33d7bb24754f45f753a8da82229ad7689add1800
0bb31aa9cacffd365ab07851467ac0498197f415fa36512bf5bcc82a50a9d90d
7e09a4dbc825c61b6ec76bf763de418f7f4fd65aafc3d4297ad96eb339b9dba8
f3d8886f5b7f57b49e46638173eac55cf8cbba986c112942169f7106e99d8167
b772f46ec6fc75b000eb4af14e9caa7d362b09cac9f53a0006af95606b6aff7f
c11941e8c06322cbdcadf73f624b244f5c396c721ac7e1dd738f2725d0535072
d4f9a0bf33c83dd9252f741c71eb09ebe78e390d1712ddb2dd018c9ae17dab5d
8bb62672dd3a0478578ab6dfb370d6816963e82d1d7d6d7ce354a69a627971f0
0e4f97f8c577cbe7b59eafd68b46c130e2e9d81b0c04b56deb473734169ce836
9bad87c91df8d977bedfb9d5ed0f798a5f9621fc9a4c81e24e1e966a7f94cd10
b5078148657bb15b81a5360af6b60a48bbfc88f4fe61956596b0094965618ecb
7f4c1de741722cd39dabb1510d59873e104abd50938bfce73f2df7ac2cdad376
7e5686d511b456e14f155873dbe186cd736d64e1ecfbfbc34c74bf8f56bdfa81
d59fbd74a1ef003027c23bf3eed49f87713e1078a6fc3dabee2263709a0257ad
214c49935a7f54925d9716be557fa21097c2620b81103bdc8eaf5caa8bb1934c
4f4fba1b7d1acd6be0328aeb794faf6cade9e1348f1996e4b99e6dacbbd2eecd
fe415947ccfc8fac70d2e169742c4cc321d0bbca7b2b819f2c819a1b56267cac
3da95a4e901d507f58fda47c00172d1010a6e8c017dddf9972faae7f0278d428
dc57514404b1552876eebc1675d97f1deb9ae4db60a4aa86d5ea267fae2f627f
e4cc8956ce1fe55081de5c456a86ab4937ba200fe9c78644b5fb67798397b95e
040cb6d4da2f408edaf8817fc5c9b2e3127f051e39ae2441bbe4f0d697fed3e3
4d3f483612f6042810658fd6af4e178f5ed6dee38d9f8de4993f7837db358108
dfe646dd72dba97c27e351b3ade2e3d9aea87e37de27816d79164a01f05d3c01
1e21ea744d431b2f37d58b044dbe811f0e4ad92a1823c749ebf0654987076c56
c9af11c726bfa327317fb0cb6d577fcff5650134ab0a40fed0ab13ac3b3d3422
aaf8ec78f347e24031d6f9d081b7c1e1521ce436793b13dad2c672b1406add96
7fe9a21b13735fa56bad16903bb9b93e09bc2444cda91e6f699f4b472e2223c5
387fa735dc7faa466198c68139f9e23ed3ba6b81bb0fbfabafbfb613f7622e67
459cd57bf6a66eeb673101157caea202c717364b9cfc39638ff90db38c0587fb
a60c7fba1aea923abea987d23e27982050d2e73722932057e774f4fb930b1391
743fd9c55ff555ed7d12e2fbe66d692edb2e9a204b491be9fc3569decfa3e9aa
f2eb4e37ec3ddb81389f485e9d444a729adccb4cffa054bfe357a98529589c97
367f9313e56ba5f1774715243824778bb4c967862eb24086e32ffc6ccd3b8159
5e5bc8297e963523cd1e7381d5ad3c4a6cf34d4010cf814cb55c817eeda6187f
7928a1e757571796fe14ef60fc12fa3583fe8b28c9db56379aca6ee287d8fcd7
251248a8b0c31d81fd2cdf9a7f4f3a5d5f2b923a4df4749eb8ebafed01d60e3b
f1ea72a3206487818e812a8173ea81a0edc696858b1fe59b3f812f61ee4720a0
86f428d17ed4fdd5e77f259325ea811299b41dcac3ee237cffbcaf11ce3320b4
7f932c7f0c4b4e3ceab93c19723f234e68d677c573239b56f1f41368431fa281
d6ea197f582ee53d1843c854c0ff078f86efbc9a3979282f0dd4e0e35fcce712
54dec8b2377343f374f359c57c44c720683168197a3e6e28ea234544cc5b250d
df22c483244b9a05e4db3441d2ba54126cfb4fbf14ffb28be39dbd8b81ee81a6
b9766fcdf7b0d6dd2118bcd38dcf06957d53ebc8106ee6caa94be6e359eba671
a270c2144d7ea024c9ae4562d0402d9cfdaefca5abcd85931caf180a21ab283f
03f8ba616a53ed657b4db6c40f2209b1cae67781ef7f4c61fd917b1050558a2f
46ef8d7b83b0a4f3ee65b93275ec93f4c76b99fc70dab36d59e9f213eb2781fe
ec3a65bdce7a986d354281df76b6f8bf6cbd631d41ff043a99360474dca76318
cc6be91cb31682655f8e81c9b652c9db394e783b92a71d89f32e97cffbfd41ba
be939eb60ce16637931b15b5d36ec4c47dd2aab2a0e5278f180f8a34d56bcddb
5e5bd281e78b10fbc2dfdb0ab81443fa829aea0e5c3f773b90ba41d428f5fff1
4dda1920a06b661e6d6e93740526e151602277b97d941d7095fa1fdf0005c323
379e7fe9ba5ff97869c6b5cc57e300c5bb96e3d83713dedbfce63ea40b7fad2b
27ec1e5fff055139b186738b05a80739678181656e5e0657537e7cd985154b7f
81963a92cc8664f3f8f13efab8f5f2ec5f0d49a1213fb0667be133330b3f8fc9
9775ed2682d23c870a29c5ebef1a169fbf465a8cfe6511d0c184ed68a8fe8aa5
ea3767ee5b3e95ba2e0eef4af72ad7110af11dbb733b571714c7578c477c10c4
7529ccc13c332d388afe6b83648117f0ce6c8d0a9c5f4f19757a0d5d6bbabf67
573bff0eaba2901e90ca469dcfd8ea81757cbfbd905e7a823b4247bde39b7f7f
afbe2c88b4f61eaa25c21259f20181cf84281f4f733d989ad8538e35905e5233
7f843f87bb9792078f578e334b047f2f812e606a790222312df35edbe8a09a75
3c7ee3b7250e69955a4d7f604afdc37fd75aa57fdce9d10e786eddf8afd4fffa
a886b29bd87b3673ec0a4dd3810b7b3e3336811fd676c2a84b7485be4df68957
45d8764932377e45ab79c7b8ca7e0e51cbb4c994b942609aeae69b08351e2e30
90ff8ea9a58e81194b86ceee6db683e2f37141e829b7543a3396a3bcbacd2759
bb0f3afdb9f20b7f5a3f57042f7d69ed9fcfa33e9f87c06cfe9e34e1d881c6c3
9a9a00be73fbe1cfe57c9302e4587f8dc8d5d7daa7603e2c72f93fe303005def
377c5710a61381ab3db8aba18bfaf4d6e8f33c9e0aea3e692d256281365f5421
10693e7f3f63cd68c55b16b77d86407fe0b964646dd511fecfa90373b9464a04
c02f330c1216382ac76e38d19c5c14746acfbed944052f4759f300648dc677fb
5b3770b06ece70e4311deb34f8974b815b3e1216964c81d78da8fe67679e6fbc
5961f377d5d659b524cd81c73421587fdf6c3f3e6dcbdb423d0a4d22414eac08
7fc8165a1f0238eb5cf915578a920029e2039010a2812ef5d8b7355d946b1f2d
d5b66272dcc5a742dcdf4c6e7e3cffbca6e752f98cd5f54b5dc0acc84df57f00
c59feb7419bf00d7759457ec874ca9d488aa6f2e2fdaf8cb6edbfa086570e7c8
f16444244e7efafcf2ea76a20d5966cd384dbfdd399b5006acaf8d6eb6e6f116
fe1aa50b3f5953ca30c7af9197c70edb5b3e7b70a8f1fe170f8153e14f2ff672
15c6464fcced7f816bcc841a7ffbff92da8fdc7fea37223bb0c3ef85124d1ffb
f69514ec513da05df03f38301bef85cf157f74777feeeb0e1fba2aa596fba33b
b33eb7e93a963cf636bc85e9b51f012fb0fb5312cc06ead305bec5c7ecd90acc
3b17813ca5e7ce0b152ed12af2237476810939ebcbe5a6fcd1cc336c5de1cad0
74c7a8a42ea3818875bcf89a88180b50355d7ff56edb41b29d37335597376633
f7b000274a4ccaf582811e04ddaa4ab66db58111c768a137bee805817f52487d
3324d9fc477ea877b48af07d5dcdbb2b0a7f5966f731fbf9caca7d4d4a3cb7b9
c0da129033af2f72a37bd939ba26a70f31de81e85c61810edad59cd39967ae2f
cfa5d029c2b54cf2b373c0901d779df6fc5acc0f2b06503181be3d125db37ffc
c7c63004e177b6fb2f298578c2b7a88e5ef77c99d54fb2d1ba29a0b15b6aa489
8181d54d349b4f46f4ec9374ae92cfc4bd1995587e79a9fd29ef0e60fab93c71
379b86b54df7573d89d4a9398f7ab0e0ed5542cc0397db4601f809cef8a7d867
08c01ea4d36e181b54f81010a784fa724b642749ebe2178cb547d4c81c25d881
44481421f2a1a764f64da9062dad41909cda43c3666c1081bbf09ed171eaf04f
c95fae7fbfd24d8f37c40986bb6360045ee51e43b9d78141bf87a17674be21ee
a6148b105cbedd88937e6b7f820495b19d59992797ecd84696f6e9084a975d65
74e9543212f814eec69f089cf62bb19fab327129d3bb28e13cf53b744f575dbf
3ee3c7467266ee6f10c503a9acf3845fab5b81a9c0c3a6e30d929cdaaf8dac53
59e3940b97c7e94613da224253f2e4edf9bef32fe3ecda7fd7e2412e38658162
e3d74620c77ca88165be518ae995ec197f85e6c85928ae75de8e2a8b2f493691
a6fc1bdb62a3ed6f79e71cd5abcb9ac80efdc6b6e2eb9f4134f58403d0df8eef
e4ef5d26d3d91249c65d3c145f4981f422e161768e5f4c74441fea19a5f6d692
a042783b20539fd35dec0e16e5d681588f06566b2d2344843baeb20cc821b78a
716f4731818a3c7fd138307bb68fa97f6d375468c783d781a73f73d7fb2c5c49
a6afd5489fd442021639047fff819738ee61bd9f4fb96fab8ac942431972079b
6b2cfd3bc60bf0d15ed35be8fa4a7fcd52f7176ab592347d3cfc9e91591a0fc9
5afcd36b81b4788b58c46856f4cebd1b33fc20d48942f83ea50dc64c66d72d2e
b2a1e99e66ded895e0fe4f22cc7f8d7a43a37a45437f1e7f7fe5e255a65167d2
3baf28b2562178813bb92a49ec6a9e22e01ab87e3515edfe47d7785e4781f027
276f70e7f3f95406b72294a7377a4772a67e819e27bf335d027ff46adb5c8f13
a6929af089fb1efd626cfd8c8111df928ba285c3993f6390a8296b019f955774
ff9b7609c316811e5bd547810ce071ddad81c05581bfb251b7c55aafc722345a
ae6df54094d1fba8ec35b6d2adf25453daf2c11286f7ed5631bd3b5ef45bcf17
7c3bcc027ba5680261b7811d5a6c5708fbfdd170dacecbef82887e4c8727bbf7
b1dc2f1e589d5b3f575b64f5e656b3d0227f23e9eb5b432abb5abf28e1983d0d
f6d40d94628132fc19582553867f23b76f39ba69191abd8c18438cf8f2e5ad30
24033a0cb32f53360681dd568f8246e52cfb487f96af75c9dff191635b6c7eee
eb305f8c37a1b50ad6c77f9cc83166c0817390c833b87f8a43efcb7fbcdb81b6
72ed608886267254ed9f7c964ef6286418ff5dbe537a27eda0d184cce9bc5c51
ed1a7f6b3bcea89270cf4ea6816072d6ff3d88c5fe4c37c51ef1a0e618a28625
99197dd0c861b03e3e6e684149b6867b047d05088dab18be66de1b9377ab846f
547f9c6f7fee88fb53568266deb2fd8896f68f843dd111a69805cb6fda6e7363
81c831bdbd53cad41a6271fdaeacc8e9b57f8581eba5dbff81fc635f6f0f03a1
d6d1b068709bb59bc3ed39a790b77d46dc22d4d30999f4a7eb3a8134a451422d
967db82d362a63334d956929f78a90cec2fb76ccd43574587360027bede2bd81
42c002e64bbe00781a3a116a52a052a0f86ea509cfc91aa0b0ed7f3ef8edd8b2
f31ede3be454ac4df61bc74b4b6a0f3706ff6085cd35648dc5db1ff47f04737f
dd1e493abd0f8490c00aec099d6b1771fec1c23593930ffe3d95f79ace2fba19
d53702dcbe594d5488d83dd3f63b9cc2f5c95210b71da0d23a5fd2ea3b39cfa6
ab584d813f61cbcfef0d9142fa06e5ce946866c7a8e7ed19ba5781042a6234f4
d71e201e93f7b2ef03818d748afed704f5b12474c7b3d82a50c9744bdda57d7b
867860f477e4001b7eb98610c455eb551c75b4d4c7b670a4f65b07a9ce71fea5
eb7f35a68ee171e14de74af1735b668f2e2cd8eecfaf87afc7ad792b01822985
7baad54d5f833a6fea3ac0d7e56d21b13af6769136b3a841f2e31bb98b6f92fe
ddfc7f46ec6e38530b0193bdd3c02a4ea539dcc02e77f0677fb32835c0a6dbde
c89402ebcffd8482f569553f6d7bb1673d8981626fb76bc0d1db499160fa2179
dd1d1386cc9f76bd3d7fcd2fe1af27ccafe22e9f94fc3c75907f6cad5cfa0ac3
e5d1997fa73dfb0e6cb8b06fa8dfff607907b8013abb64e70f31907d7f7f14f9
0e1512c5606e2153af359a651fa8db7f02f694ef538b81e77f0ed76d4772bea4
d6e9a0a9ea6ec97c3d22a82135ee88f4f24fbe671291935f95840f7d3ef12efb
0969ba279d4f912441f4901dc1d491442270fb76975d7c0d9d8e2e8ee8835443
72f5fe568742ec2e6d5bbf23428dfac572e4abb7c8d648a52f730b4772d8d82f
eaab001b02be73ad737f8f19bfd002b9ad3dd7a29af4e43a7f3fb8779eba057f
a1e8623e95bbe4117f0db7e0d9b8aa1e50f275dc6d5e5cdfe20fab525514e13c
446d58585474836c1f3bf856f666f88e71ac9af9a6fd85504afed32193c7c8fe
39eebd160c4ab8a2cef262b33bcbc221d4bd5989af0fdd6494bd1385b7937ffb
878419f23f65c3c23c7f9e89c3e3ffe01b413b65dab395bd7929839394ed84f4
9be5cb3c5693811cd1fce04faf8b0077ec0f1e70e5845b9f575e13ba3afb1207
eb66b2bfb2c15e2c44ae21df76eaf38687eebfc80c70eb38d2ea277af437487f
4dc2365acadbce4cf8d451f907e9bfb068fdfe9937571b8a0b96af2a250b4cfc
4a1f7f3b476807a696f3d18b8cd0815839c01b706bd714e6277ed7e2973bffb6
afb20001054840bfd7df7d2a9f4dc090ed53fa0b2aac87603865ad81ae3ee6bf
812ae2edb8af259c7fa82781b8f9dfd3a47b0d8f1f3dc1e1c2c481af893bbc48
f4b92ae851c891e583fd81f21d7b05fee3448d978e046d25cfa35ba977aaa2d1
ef517f81f8dd0681cb3d0636ed8bee65bdc9d15d8b4b720294e8784ee7d86821
e148be19cd7a5b68c93eebc681eb69a5ec6128710efb3aaa00fa8b6523b0e688
e2cc85afc81af915bd5542b727c87f82535158e258e25b586afcec307b006e4f
bea343f77fc151033a532432f34e78f0be567977955513151c52a05e36fc3c77
48736a6fa6e799ee2f676f19ea0ab9fe32f97fb1ae5e4f675647e3b619ec98f3
ac85026032850d99b67a0781b8926e3f509f9840092e4e6e3a7dd5b1ef2ce391
578f2eed3d7bab053a55230bb7d12ed46e73b8ffaa3a915004112c76f6f0a8b9
50d1e4947cce948191813f21f6ed2838c03cc2ab1baffd5c2653e3f9b914f32d
e4de7f6fa2f27f1c66db2554fb493168f16081343c53d63fc9fc279fb5315def
dd9ac0285da181e0f0de5f667df0a1e017dd61a1ede9815ed69181d869bb2581
e601770757cd702549773bcddbf11014d3db42d75cdb9b514a28de66b0b52e70
e8c4a992190d7388f9690fcaf2b5f4c6f18243503dfbb263b3dc19402ffd2904
aa7ebcdf34fe76fcbb4df68c9ebc6991d5aba5987f72e7bb604e9c194ded3802
f72e66ca33cfca0c1c9859ae683ad02d841847fe5ed6025b84f9e5c2192ee10e
66ecfb673fb67f64e4faf503c937a0717766a7275aeaccaad5d3fd17e5d2f394
cf3a18342bca6b7fcb870970077f4965375e891962e8c8a816fbb0785e8ff9fb
45c2fd889deca9de2743845f1c26b1836b2b0781aff032a2b3df4e571fa27957
4fd9b96c2641eb7998f79f9455357f759604429283c9fd4c9ceb373898de3920
abdc00ac9faad0fba568ac483be384b9acb75bef9f96793663b1ae103fc5a96d
9b62d7ff4e9f3e7c05a7f1465eb7a06f770ece213f2b0cf50cf92a92829e1373
067fec5d397167053cfa7fa5a3cc8fcdc5a564c2c7d8b8d8dd47ca818e7c8ea8
746fccfc4fdf76cb542b6a41c2fd00a6f99c2347bf7f7116947f4acebe3683c3
b8762c43caddc57fb355630872276ecb94ad9deeccf9353dd53bdb912ab3d727
aa646f0f5f9fb5d36eab3a70dd758bafd4c3a98f2029894f3b37d033c250f8e5
c37e247f1c33d431880ddc456be3b4b1d9f4811ac9343ddd274edaac6dab1067
58ab06d25e79387adb5ff8728ca49f983484e110afcc1c778f68cb6160f9d607
aeb0fdd8500267b557b350040d5d021dbde7dfa5b0aac86793eeb4c2313e6f4f
7e7217d7744f4792bdb97ede95fa06928fd681d387e0783aaed703b4b8eb4ca1
7f744481d2f5dd86e042aeb77f52e81322b994ec739e00324810bba47e1f7e87
6d810d1cff58bf5a7e27fbf07f2cce8bf9cb109287e57b4ff1badb3542a58dd1
9d7c09ce68067fa86d02910567b67f43cafa2235c9e21a11457a8a94e72d6481
3f3bf6609a9f8c242b75d5e66e8463eeb698b7acd3ad3f92cf2a97a0cd896c4a
4aa6e69a58047fa85ee3df3690dfaecf38db694fe7442337d5cdea8991ab68fa
fc178134b57d8fd0a868ddbdb4ede0e033ded62e7b92634a3930e4899f74c286
e19d7b958efa018652768b067bd6b310ca2a1bec7f4669faf132f0fa40ff9683
4260f66c859213768ded744600931966a27a02b4c8dc3333327f2711d560201a
63edfcf5094c01d649e9cd54f60f96d0d756e4e80353159edc5ade6ae1fa8af9
8a8baff3f82f3896d18724e9f723595877262ab2379e1a08976ecf746d985ee0
f11eee7fd20748a1df629716dec4577baa9c302db461bc4d6ecdfcb5fd70b592
ed170159a65eaa2d91b66a7ff35ac996f3d2b90d849e4b7f5405cc5ed1ee2338
6b4c40cb6c9fad607fbf9168de2cf7a044c77081c72f5d7b279e2ab9e05898db
32965a2e6dbac646c67d8aefa204536d81743958301a111ea39f755ea24d9062
9afca75b1469dfbdb8828e30f7c40c30bbd237402e715fa6768d100c3d9e0705
df2b487e78f3f21a7f0d23d0c41b6c3f63f1f7312fae959059e0a8562a02e830
4743318eafa0d035fba8f739c31e2419675328e08aa33789a9e708f3b7ef8ce5
acf914b5168d75befd74a87f7eb4d4a4ff21375d8154dc3d925c81bd39ede79d
a12aec13f15e5616efa387fef7542fd4450ebae49c7d55228888aca725e5a5d0
2b31c51505243a96e97907915de9cbdccb915e4f0df0f695cf3c07b1e7ed6645
dace0b493e28f8ad3e36bde236ebc1c97d748eb3a1370bdbe43811a3b717c274
2f5b0a186b75e59a04440f96e3c323bd7ca813e4a5db8d5b81a7b48a6f25b7ff
64b927e03666031369af51b21897f2fe774f1e7f7ff10fe78fb994d5faa71ea9
37d64d43e421d34bef922e2bf4b6db827e6677de0e955d23a4742ad397ec5381
5cfee4c9673d77ce3b81fe2d3bd8021a5f0fd03b2f76f4651acf31fb48c9b764
f07c79f4ab5bd17e42ff3adbef4bc612bde1658f4d755bfca5b7f824e86a4679
d8afd1fd27e4d8b0b171eb142dbe9fa3b65d9b640c740f7796fab603d4be0d8c
810ab9c1575de57f28e9f30614a3ccb6049c55f39d3db5f3b3a667834e024bae
262dd181e7f40a4573379ea5da4a924b350fd6d0f44719cdabe3a2a6b92f81a3
fb344dead56878d75b5861176ecbb00a3acfbb174545b58fe24dbca87f8ae233
d519d1b75c773076e9b869227f9376073d15c7dcf4b64e424d1b573c1dbff23f
788938983a5ee7a68bdeb50014daa6f2db9e50e13e812365f07d99fbe3b9a959
1de7f983d722c450d16cde11d6f1b97fce76413a3c055f0f94a35752c6bda67d
ef99e5c1f1575bc24b5211eaf5e6b527317f0ba7ff42bcc581f70c78b26597ed
77669a61aa16c8c3cf3c4a81de9242ab11dbc23581f909953aeba5d0af1ff639
a9fa00adb6829f816046ece1f5b8163ffd83137a798619ff31212dd1667b4b90
7fe81ceb1ef60e82bcdfbf4dbd2f85ea1270cfbef16dd98d9dafa9b8d9ef0aa9
4689ebf339f763112d7bfe244efe1a7acd13b7cbe7f952c6d7e8d5da0f73ecbd
b73572fef37ff3d87f8db19ddf2c09d9b6ad371d7123fd1a7831bf36b0f75fd4
7d2b29b9743f7833d3f36f5a9e3348c1a82acfca6797bd9634c7c3addbd10e71
c77c0535210340c645bfcbac81b1648b4ef6036b23d071bc2f3e904681630cc4
bed2583a1d7f7c254a145609cd9d0e81999ff9bad37f51afa432867e2cf7f149
7fad77f076da0675e84d7f94c130e8ed8911945ce55eeef14f76e2314f09c91a
fb9a913f4868e18c9fe41fa0dd9fa43c17989db442b47366f659e11d3d05d36c
b26f660bdd77022b65d703fe2f7654ee75ba9cd97f3e340382b9dd5835f51141
2153e1965ee94b02b3daaed9f151174c26e797caadaec90f73b62d025074a304
ce4d083e93e1e44b6ebac9c46d6421d533872f06d23fc20c9f74232020d01957
33f60ef7dbde4e63886fb145877d3e41f553b18176c9ff169c5d522af3877a42
9fabd634dd697f557f1b90a016aed4a273c85888f16d68cb3483637fc27e7f4a
e33f317f026f1e9be7d2effa6bc9cb7f15f654fee9045bb9e2fcdd8b7b7fda8f
b3e6fb8b7c73fdafd89d77d1e67a6e813ee397132e898d7f1597b3f4fe92c63d
0e91cd2df987d07f8cc82ae0788bb518316461e3d1edbec19ff9b3eac3766343
8203161d2478d4bcbf0d477e059720ad64e60448f0b3e3cf8e3f60811484c0b7
2f5bf981a1cb89b8f69db0dba7dc9bb2ef49e223ee8a7ad39eb7e2f4df519a1c
6d71b8a2f9e23aeb64b39958c0cf92fc7da57b14baabe46552c98104a2105128
81ef1c945edb13ce972f63265688817ffe2247c3a873261eadb92ee3231383a5
7b3c646605adbb15814809e82f97f91ff39a0a8fabe46693929bb56cd15f6107
39c9780afd8afc3f608c0e55e9dc061bdf115a8c75cd15693fee0234e08c4187
da52c45046c0c2b475f19258d672d703096615571bf61ee5747e7fdd5d4cc65d
bb5c5c9ed5e920faf94d68b01d9f583aa3cf1585ddda575d197bc6b3dd8eaad7
90e0af577ae61d931f352073babbbf7f90dfe2abb3e6319769c346e3a4745388
78f0c7e3817919405e5d6ae71d1062e786115b549681087ccbba2c8157d4464a
fd387f2259a75afc2f49cc0ea3fc00005bd58673f984b0fa8119bf8d6d1f3939
4988399957370aabf97f19812717203a26fc5fddb2fce3e59abedc30fefe3867
8e227f67022ef3c733fa2b58bf49aa347ce4d45d4c5b6807e9756d9f79db07d0
ff28d7a3f89323585d9f26146dcb2f1e9d9b03f1535cab1d168481c1f5877aec
f57f4f13d3b5c8b9a0448e22114ea466420e62477dca68a374d9d69c81970be0
fb8168f681f302febed2e394365f1b25f96d507cd50f78ea95bbea2a9fb5bf1d
db2d04ba6325b3b85679c55069de8165dd1db8c8810f5b817f26e6a439db8423
e57f6c5dedc69b9b90500523fdccbeffd5f7d4a5eab500bdd53454a9a55481e1
074b674c9d63d0a83b6d9016c751a0519a9d2551a85c5f4f45fd6781dffeb675
cde57c21b333e0d5f262c16c3ead8260b673971c9907797f07d404287c75d2dd
6f92b10cb39e195f948ea9c68ef9317f675ea5ed34df81fefc75ea66e896015d
81fa59d3b7ab12241e6f40325efdc70be37f628dcb4441323e73398cd5c68116
f9591bc37906eabf4529e838ae738c46e4e78d65dfa632dbe63a05b53bc71611
8e971953eb6af2fd4ff118313c4c19d869eed5bfdc6e63e40c85c318a41a5ebe
47869982b7a93373b1ed3e6806aabed5ef1b89c16b8a0b7a65bbf74b8e75275c
d39d977f9498017fe3b23cf9bb538f0de2ee7d05f75585b3b8e67516f369c469
d9972b7d7e96767981a774609e695dbc04fb295ffa5ae405c62a0abf9eb0de2d
a583757f57f3bdde799d7aa1b2541ae247343a6d7e22d187b7d82b53dfd1df3b
fe25246e71249002694ed6a654f759f38fa7004b3b67960a244f124d537bfc04
da4e6f346aeb906395d052f875d5a0c8cdc682b69f53265c8f0ebf817fff2bcc
53b747ca5e8b3188ee3a0c6e012ae644767ce5c3a1b6c77fb47bd6c48ffa7f5b
b4f98896481282caf08749dcdbd8f2beead65230dd098cff7fabff656ef26a99
5bcf0477edc9a7c4a546145e2fac19476017522072eeaa842f1e8eec77d45413
29df0724e7437981aebc4581fe664efe229ed824f36d23da772b9e6c44989ed4
6a77af1068e5d981dbbc5ecbdc5d7e457e2bf60a5cac38a72438a6d6aa7b7fdf
26885ae9719f9510f8601fe15e67d1a6e58d9eeaaeb51f10a2ff8d1a59a74489
c0894263baa3e1ebf49dbe33638108d9fa7a1ab1170412d4fc4b56944177817d
acaf944508a9fb81ad02933be23f90bbf4d564bc06b90b7a81458b7274edf293
25bec8a5731ff3ae539165b4efc1c5e386dc5beaee69204fbf02369860c1f0ea
44813f946d40fdd43e76ec757f5db18232842eab51e60b1b27de70681281ef3c
7cba7641d6e69d7f011c05365dba42857597001276eac2fdee4e67a5b7636bdb
3306ddf2cbab4bfc65f50e92b019e1d66c9d7e7547fa0b20911c1f240a4f4771
bb7b7ffe3263dcf74afea6d506957fbaf25ce9dbf9143d5cd49fce26263a35f0
f1cda58134824f3f02bed38d4bf37adde6d381cf345d7c6f2fbbde0d6f2bea0c
ecb05f7fd55ba681be6281bb57e3138d56d4e346f26e1c64b01e3009af229f9f
998838ef3af1750c3dd9447a7863833e850c2c16fbaec5dc6e7c391e3e8d87c8
c5b75bf76c8fd1bf81aa775fcba7abffd3b584a54f58f2f99f55492cf4d6e6f7
130ecafb37b9bf30916c0de93646127fb1dcd542763d35b4e8cd75fbb5236896
4fda7ab8beac6cd8f07bb44bce7fec3f7fa4a9b8ba577fafdb0f44cbdefa4d63
bcbccbe3374da742e8b2abc6719f01a0a6fac5f80c2979335ed93012cd3bf56a
1c2c70a18f97f3357bd37dbe1fa2ac9d40df74d0bf319feba0791fc2fcb516f3
b3edde3d7f54ad5a72ee1e4aa3817f9abfc837ae4c3b3daabd8deb1a94233cfe
537e1f1ad7b717a6148d980ed25fe1b72f757d098547dd7f0604427fbab6aa59
39c888aa53bdac6673c2294107be5978f37f478171ee7c06027c6fa4e2b5cf85
dc21724af4bdc476e53e4ada81e05620010c7bee5f78aedf75b5e25d865122d2
11ffb344fe3b847edb46c1da5d7676193f47726377e6881f057b1244a6faaac9
57191570b7653e9cfa41af27878ade82823f18baa36fb1fd59506ae38f7f8c81
c8ce2181e3c6336d335fb3c878c3837fc5ca6132a71256df79b94ef5a2cacf12
c53f2501668dc581708dc5aff6e2ff53bb3c7e2abefcd096507f7fb3babaf2f0
5ea68bf6fce142cf558d8111815481f3d7bd618bf9ac12818766d292c4c892dd
0024ed7fa5b64751bb6334b0675b49ab41c02693e65651f66b6ee840d95aab35
7ab5f8b4bbf03e466d92dc6cc3ee605ef4b64fd7624bf98be0df8f7fad5781c1
5ffa72bebae370d95601b7d46df37381c6a06024b5370950d7eacb4f05e0e927
231dd719eebbd23edec9f85ce5f972e84ced48e353f5e34bc3e7d4c945f9cebd
879f087cd6292cef625d42fbe3d3509af94d9392b1de6153d17265e456773468
2f555181ece329276b1d81de0793db143c81bf3cde36ab09548d5c976c920e18
f01541bc4e0c81a927f5e2726e2893032689a18b71ac3c08b7d2b6711ea8bd62
ed354133b2bddb2e788a690e2df338811f3d9c31820fb01b31b658d2ea3d9012
dae1990dba6e295c49de241374d34bfa8359a375dba5d18a8ed4f6ee1a6eeb74
b25c4e07300673726f78b73f7725fa7978f68bd5ba7f563a3ba7fc9ed00b679b
f1cd72f60e81fb52f37fa979b95b582c49fd99c4d1d013e85cdf5ab30ffa308b
6bf35c8deb93fa8d3a2c4df13cc7513c8193cd10fa2ec7c693e2739ce99a7007
d57dab1c018e019fe7e881158661122c5e20a78f7e1161a7ec9d106fad878184
b976b43c53aa8178aaea66caa8fdcdd7796e634c65dd4d44a436d699aee37d31
d52acc46fc6c7c8ef0ea31f61b602fe0df8122ffceb345c36eda9b4631a87917
5b3505deaaccc3c1ab7a89bd9110b04fbf497ff9976e7feb62fea4ff8db05634
b6f1376d673a159e67897fd777f062608d9fc4752954c13c81e14f81a7ce81cd
7d208dedd55798862955b864612211ded30e81c88df3e23d8d887fe2f72b868a
a5544009cc1026f3f653d50b65cdac9ed1debf5fadae9f89e6bc78ff27e289e7
755eb5fb5a15ccd0cd516f9f1fb5ea61d3daa0ede81e87891e38a4d34ee7ce59
22c8600df1f4695204df35bd967fb70f98d9e9f2f35602623e5288bcb881d266
93d3a2774f7ef978cd3e54e70278a327c35f7cfef9a0d858635fb32629c3fc81
9ecd15e466a83cf231c44351dcdc253d53f6666c81f2c7c1320917f7979b1701
a30e0d95e8f6000b7375f054ba5bc732145efe4f27f36e7aa5fecbae1d3d81b7
8dab6626757f490e43fbd086f7b0afbbb63b087f4d783777be1bfeefdaaa8646
71af79a7f7bf963b0156e4468afdc3b773adc5fefc3d90de4285f5d5b6e3ea81
67308f44caed7f26091a39af8dfaef69486cc2a4df64722aa81eeb2996dcca65
b81203cbc6360b47beb281a114d5f0a04f187f95edc45636deaa81e46a40a4b8
5ecd6dfe93f61d05acafe318c9dd0124fe9287571f40922ed43d3a65e35ec2d4
d5c62391ad7a8f8ad0d4617f84a1af767f0cc62a773c4d7f7f478f1d94e62985
ed7217a0029b37815bec5a3efd7ef223593f8e1f0974adb9d7ca326181eed24d
f54d1273a06077a5855481825dc70210fb290a8281810a267fff9c2ba35f633c
37e0811eba5e7139d8b646ca4681dccb0c37253fecce7f17371ee2292a191c08
ad4a52a4f94d9d46af72ecf3fc0e57d511fb2c0cb3d88909ba976c0af9c7a7f7
e5d6f1aa1ebb6fc9c9dc4baad38f9d83f35c77287f1269a507492157d36e0cd6
adba0c2a8d5f8b762c2d8cf76dfe1283ca4d58714fbac351e8e844280789388b
20eb25f318c63b4a2fd9bf15c2da9efae424280d9ed736bcec2fec1881567f04
a7f1c79e7834067c8ef2973ebe2dc36c877d0f37505ed87eca26d4c79f636f76
1daa969371dbfedb81c2a8f902be919eadba2951f1e3541c8681557fb9c2171f
181e26837eeece72cfb47b35468190359ecce80f04e2b489a2df81cbd0391b34
f39565e37f06788a2b823e946bf1f555e75a480d81d24ea975ca83c4ccd70c84
f7813f8aa7eaa823cf9de9c347db8139743e0ede9df8f5369113ee6107fc9952
a495824961fb45a2bc758d02b98aef577c1fbfa462f5ed3fb98f39f1d11541d6
ce9df2fd99baaeea7d30521297b99259ba6ee87dd56c04817224e3894fb54663
91b9ada5d4af20b62d58501c99e14b6f71011d1417f99f1c0066da815e584e66
3936ba682c5519fb5f35b6aedbd6c7a081d117424f60284f367e7a97278a767e
ddccbd003a4d94acd27781c3da5deab3f2e9f2aa1881dc834a11d717fab83bad
cc39c79d8ededa008661d382eb01a0152905b9e572f3bda79ed1ea64819fdb23
58f498b30d4ab691fb68e317c917abe236e5eb97e6ea303faadbb8667ab80e86
67e6e5140b6ebedc01e42539f15b5ae7e63e1b0ac5bad97b487fec9d35ee0bcb
b3dbf93c5bb57ea9d4a3a6e12ddfdaba2e83df0ded633cffb783be0c0f811c01
abae81b3b861c2ac77f07825812ef40c02b7a70f8c52b11db6ad744db18b9760
a8f7a721009dd38de49424a6acaf1dd3f3b226aebb57c77791aa1eafc3bb0995
a26c16555cf563746ffb7f7d8128d0138a3bb51fdf32a7486410effb15f40a9f
e002afe0acecfaecf26d1e041c705f08e69feef8b614c34ff19d5d6d7fad6598
576e81b82a8a4735fc204284d1fa4459e557a0614840056aa8c381503bd90ed0
d05a344d5d3779810c3876b14e723386befb9a0cd0dfc1185b984e853f60c9b3
1f7fff4c4b42d938f569fcefd53209c1bce250267f207fedbdc9cbc7d7a00b11
47ebce57e76edac9cafc3dd8c2ef525e6e8fb1556c3e4834f6f6785ed0df006a
7b12f5839bf8b369f28874a20f5b7f282cd9f0a0653f2bb3d0401bab3d75f51b
bde3df51bd7f07f2bb63bccda2507f40479e7ee67e0b437f26fe3bdde221008b
2eed0e7d330c1c38653dcab9796b8ba2077f5eb37fdd3c6a62447283e3d6c978
9fa54a5fbd650284d981041723e66013f3e3e812cfb2f77508e08122a0487f6f
2630f8e20d24beda76da5f62897e51d6b2fda5a81e9d977fdb99be9042a69ce9
dec5fe702608afc17c1fb441df4ad10ed9f845327157a706ca7dd459f9d8aee7
928f0e857373700481f06c8181ffd4635bbcebadbbd27e2f657aa969d5eedf7f
030e8b17f3b7d6cf736b12e4975ebb1aec9e7f5fe46a5ebaa3bbbec07fe381f8
79c75206b2821055524a3e1232fed93def62cc5816a227fbe8fc0fc08dbb6d9a
27928b7c7eb1489aac8b60f1889caf87e35c3e75fab2470f027f8ef2ff461b4c
a01542c304b939beecad86b011c7232ae381a12af4d95f7ca7e6dceb70c4d6ec
8ddd6b0a8a81c95a9cab0b6cdb4bb5a46f6c0333f552b60b42408108e8f6930c
1d016c7faf0f4eb91336c542c336474c26ff56cf6fd4b05b647781e1c9371e7f
81a098f6e39fe87f9d5d7b09511cd98281648dcc7f5ca0819dcdee24b2810251
65f63170eaa8e91a260fa781bad3f0a3ab5ea01b4d86afbcbeddaf817ccd9ea1
89d5f5585b6bb4410a278279690758c5443668687c7ab8f29ce2be7fbab51d0d
7f1981fe92af55f0acbb5f70f2d06b427f45287fa235be33e5bcd4308c81a0c1
3f6c57dd1ebe3c7fe9bc850ff33a4c7efa1dde8df523ab40ac7ffbf7787d3a5d
406fd21fd9b9c31681476bb89ecc08878dd76894abd583b04e0efa44f87f512d
a62650e2dd9b4bdbf8ba007e8414d816a1844a380b34ff2073b6fee223fd33f7
ee0f53f801233a24d9770f9be2e7b2d05f2d050984d125d7819b449ccdba24d0
96fc1f0bf32b3bdc7c496403be1e4cfa573229687da300e85209c41b73f90503
097f189293b7efec12ff3de8eb655c810a17e8150db0e3bb5e3b89160795b3c0
fcb2002d99af0ae62fa0dee066edbd00aad7b20323e9bdd6f0d28ef33aeefc0d
681341f3ba371da7bf2a391637c64e35b5895e787cd6225ff9e1af2a4c33b6b0
fdd7c5deebc9c4f757752b46745a902a4c8652d8a65e0a6ef3aa30f001497f16
ded2111b04c71163e6477ba95ae7374e1bcf27aa367702da7a6c3b5e36decd94
58a53d4caf5a77da29f92f3427a582f439e11a68759b01fc1b7e7f5cd7bdd1d8
4ed88c6984de92ecdc7a6f9aeae4887cef257fc84dbce63abc3bfdcaebfc2cac
7637d22a7881500511f72b2ce6752d76ba7ca68276a2b9560f5525bf51fd3b46
36185d6f3ecde24cfd29fade177dffcf04737fd8bb9324865bd177891d69bd39
7046b31544c993256bb92ba3a132db6d8a392668490c81b1d9e9ceffad129e57
fae2818181269032eb5d5089cb37cf4867c7f610a34d4323810e412ec73b8148
d2ce8cf62c7f19cff505e61c6ca731f3b988d14796bb267ef54b928d9d4baa65
367fa0eaa4825813f8d3006f655d6fc28119c3c365d67cd93fe825861a7f6f20
3abd2bf79d66cea458ff89d9276f113d1f6b811f4a34ccbb4664c45246fd277d
5addc28cd6e6d55669fb0920dccde225d5b1b82d35dece9d7750a76dcc420436
cd45f9b479d9f0e7e97c2daa991072e56e4cdb3f1e9f822ac9f62f13a1d7ed2a
abce285154cfc24007c15d0cb4ed9ee2fe1c9bcb0852aefdbda81ecaaf995711
9836b0a3fea1c0b9e8a321c5fcff47575f54620f3f4bab5ad451ff1fe6819568
fe17cf69d0fa714cc6fc1b2bdc06bbfa300237151e14d2bff60f3c97c5a47f18
7aeae1f9eaf9bbcd50ab7f1fadf2aadbec5e816aabceeba295a77d0fb3e3fa8a
de6ead9547cf0d5385c101c6c2e974678641f77f07f791299fb14e9527581d99
18e342e47453ffc20fdb060744853e076c4596d46d79d03bb19f2c21774e56ef
077f6356397550425504d27fbc9712afd3d990e49751833643ace3abb9c7d897
e358ec7363bd6c4dd881f332e781321627d459207da634f3482c0720641c7a7f
7f30b68183d4f2679f662157dd8555763047cc17a25a7f81e95ef2769ee083c7
d67cf78a63480944de7bd083bd1701c3ecce408142b034f8d3b4eabeaf3641e9
7568504cdb651b5db761df758146cee410971571f3698a16a0690dadb72e7f10
058281f5fec996777ccb3d13ce0d051ae34e878aeb7b7f73733b339499fd7502
7d17cb8488f6fa0e7fa3e1a2fe8c9622be66eb2a94b8347310990c40fa8d005d
aed899d87d17cd1cc9947e215e757f1bb0624868fc936781465d383c34df7341
c3a05ede7c9635efe367cd7203b6067fed2bd1571de37ed9367ddd21f67fd7ec
d1f5a4297ae9a65d0ecccf1fb57ac9ccdb368752eb32f7e77668014f7c5bcf4f
bc70697c787bd7368c81b91934a95ccf557886acdc75edf145d2719a72c607d6
0c48a2716d174390a9deb4ffc7e5e5f1ec8cd737cb70c351c97775547a36d564
e9e5b97ff329175f0e0697fbb8ee8a11fcf0a02779ff6b10c023a90d5afc4090
b8b63282fd89a96a32b59c5049cc819707209364bd3a287f56c2ce0438c5cba8
049fba0a6832bc8dfcc5628ea918ececb4864dbe8c152a9d1db734643f4d5917
772dc91bcaec7bea51db5d18e72da75fa73b06137ec58191ff49735eff4254ee
1e68710777c37fe268ee73ef46b23792c04d41b039f5fa24c05b7f4f2f389667
1a2a0d21775ca88eb3ec7f5ccf02791e6d14951f18819e376a9fe4037bfcad11
badcb9a53adadae6fcd4970b7b27142fb5b5230b391c146a7f8bfa329e9daa81
98f718da57b32daedd0f72a35ca3a7c181da9027b6679c7f927e4e4f111ffca1
9e310b52503b9b11fd853996b969d3b72cf65d7d2281c620963f0b81ea023dba
95dd9deb035d1381c7e3d1690bf7d8acbf6158fd7ffdbc0b93dc3c9dec5da707
07bd0d98aecdae3d50115bddaaa6e0aea03bd8e5fb13edf366a9cf76dfc65f2c
aad2714a32b972936b9bd22426b28164304f087f67259a90667bfc81193cc1b1
75f1e9a97768a88126060f87af353c173de3b38a59a650df54cbcb3eb9f8b6df
61295624b5573acff2491e9f742281369101a6d7ad7c7f740d7681afdbd30378
492c2056b89081a1bcf41d527c0043f7d10c8365cf05c3f07d72e05530f2eac3
b74eaa3332718daf82e56b8ce6e95679bcf17faf2698d616d86968d13f5caf10
06cbb7637f3265a3052a8a40914681e54aed0968bd650eb83cac2d81b4e71237
427a08c42dff37f1799df6f16bc6171775915ed3acf95efebab576457e435a62
f5b8ce3744a8f19cc7a8f7a99e57ce7f71cf056f6dc6e96fa4042557aceb8b48
01dc815decc7ddec37680d05dad3eab17a2d5b5999e77f8ce4278f86ae961c52
6b9bcf4cc4c0d882cec72552816a8163ad8b9fa47a24818b0ffa6270a400941e
2bf57e4d094d32b5bfb4df5b6b7afcda88ff18a5b8906b8102ddec85b6da81b0
387f81477b5564f521cd9120125b230eb9c429814f735a6f737f9781d65f94e2
42d1c07b899e5c20cfac81e76fa33ae3a16560f2ce81de43337d992c657f7f15
bdb4ddcfc98153f2cab78206abe3f3437177527f7d8e989e20508a6def32666d
9c30546193fa075730d33a817b7385816b5bd8a0a7f132ffaab2dee6bf1c810f
bf2f819a0571908c176f0253d6b10dd9585f6303b6d4ad5797d32f78b1c5313a
6d76e617aa69be53d6a93ce023fdbac9bc5e9adf7ad08379e4fff25e3f35828a
fb7a525b395f277ff5bf17113e52dcd6c7cc8d502daf322daecc55aa583cd3f3
25889043d12d68dfd0fe874e832557a2f58d65317ffcd19d0f770fd70db490ff
db4b8a72e47f32393d0e14a55bbc0cb4d36b8fd385e992cc8a0d75a763f61614
0436f7b74e7b891c1a71915cba2ecc1ad3cb315be3b6a9813621f6efe0e416f5
b99a3f666f7f696f7f686d67097b68f8d378bda08151142f9ed6f1210fef3c95
95f5695ef4bce75590083b58f26d7fa343bf8d455de8a98999018111e17e1026
23547f78cbd62fdf6b20037f7ef7077ae4e2d97f6caf8106fcfa70bf82ce4567
60b9c1ab985283af57dc656368fc27548f8333588ce5e68b35f9a6088b2bb445
fe43600f015266a460ede3746ef4476d7a5e327f99fb1da137c2d8b178af966c
8144a9c072bdea2ba8c417e1451d6f17aabfb88a5e3e583129beb681f0156b8b
7102035a17f00f4928ff75f70d26a07fa95447ffac093f9d756bd578225b465a
2cdf11aa09ef286e7f7cf7529faa1a3d9f5915567dd104ebe68671816faa3d4f
1f718a8cf6177fb416c7254edb19a53fbbff8bd9627f094ea6594725318c81ab
7f78e9eec523fdedf356577c78b10607977f1230eaa17086cb763b0d9d055087
756d39d98f68b7ec27408481ae76f7cce26fcaad2efddd77d747d07bdec3d19e
51ce01f655de857fe835e9e6d6edb31076f407dcc9f5be064039859db246cc47
601c2f8f5431852eade554bb637fac91d9086db1c94f231b95be253e04e811cd
a9bd81f6815a18e25949252484ff42d3ee1d2b121279f32a93e6e7f8dec5eaf9
34c7f88bd8d786860fb2abbb95a8a52c1e7a142357c79c45a5f22c081a2c3aba
bb6e42de20470c1049df12e6667c44811545899dc72c8198f0af5b74cb89aaeb
dcbc7fd6f259031d3b72e3c29776fe0ec9ee1139f11b88dfc38af9437753b0ea
e6448e82eb8e2c2c25224ba225043e1920d60733d3e59d8a12981339c5fedfff
a438f081c9027f2107ef56813a549efabf198fa846dac4b25cd7b700c8844ea4
f48fc0a30909f669a3cbbef3facc7f1b8fc794122a7f6c1267bb799a51fea803
4f075a9b7bc5bcfcc6eed83443ca3d4d9eebcd4d55de7c1b7f0c3a9e22e83e73
df8d7ceb995f85eeae5d07180c8cef1de884a10555f7451c5d9ebbe194c985a0
6abdd08176ff2bc6c77f4e0ded27d79a39fa00ec7f3320f1eb3ac12e1f9784a4
be81a2bd75ea790087d2c639a5bc9b35815f646645ef8bbfe116661f86d485e7
34e8d221c8bbd3d1d59b449b9db6d544271d8541658367bf3ba790b45133e19a
9e7c5182acbfc134d202ac20696f228bc3d71e2a4b4d81abb4affcbcecea7d7f
c241fbb35cd792ef8d292554131bcd0f4d6f6f25fc4767c3687f4ff59c8801c5
bd78eef3947bb9059dabe87f9781c7d059d5edc9227f70fafb45ba1f6c590d54
f27a278195358145b26ef742f2e519c264fd4421bee4941938b19a0b51efaed9
47d6c8a63f716ac3b86bcd31e4b5ead6ae9c0730be3ab7b1d181b1d257884c93
dc5f6e42c286f8615b5e723be0d7a674c18196e2a64236b9edcc5b9972a0a375
5dd9ffa9209e90baf45913facde99634becc8c5ed2697f982c63436cf85ed5d6
147d2259b755c1fadea6997990d8db7124987abb9ba714727108622c73c8faf2
017fad2abbb8815b6e737f6271ab3b64d8da52bb3f466a115e67af8c2e57caf6
7f520475cf355abe5e6e10e1daada8ad4fcb0033e4b6780be3223cf7b72bb7b5
b87f9402be365c5adacac08bd2e2d091833115dbb7aa6ca8a4d7614ee0b04534
826dd86fecdd4942e5babad64cd4707742b4be8438917f1774ddd5b1c1f06407
5dad1cfe46bba9fcfc41385667d9d84868fd5b3e4ae868ffd0fc44a07ae37b7d
84fb16fadf54ea27895aff4db9d16a0ee5c8cdec75dc7b81b0bcd98a66cab9fb
e5b4292762aeaebffcc62681cfad676cf67f26a42535de2d993f95db9cb97e1c
ddc30a7fc15f6d282cdcf4c7bbd404b65d8fd6e3389310b54f5120e5c6d7c4a5
ef812bfbcba7b68f40df7081c585149fb7364a6d3b5e0762eb62d97f5e83d90e
d3207c17dae29cf1e78e8e05b092a926361345666f5f2bcfc7b3faae18d5d516
36e7f022603d6fc1b9450d9d4bb78181b8ee687f00df022c79882c4ee9ceb59d
9cd908d7e6d5bcc667a179a8b2a3dc0f5e99c9bcfcc95932058941543d5d7d13
7f5876ac1d1a03903fd290f7bc1175d133317978730881b53decda3000a10a38
66f6197fe0e190b05e9998facb5d24cd6bb9369c7f8e5577eb558103f91b8477
5e9d2cea9b75216f21da143e44f262337fc84158ff84c157b98150af0fc1e3a3
6a0e49b14ea278f1b7e2717fabf70ab7ce66af2f9c6394e63d97e0a60a71fa8b
ce7361a861894cc9845ec64ec3db10cea6cf671d264b53322e9fdb7fadcbef96
19dbecdedde830c2a6f019bb8661db6d7b65e7d7a6f51f7c55c294b06b7e0d2a
f1aabd7e7ae99b819eae00bbb6a826ae6c0c10e847c6e165ed743ac0add699aa
bbaa1954372e8e7fd5b9a281fea4c549763deab54052127f3fe8ce195b9bf6b0
9e92e64353f57a712082b57678640d277d7f9343f4ce00a2f2733d5d07d27281
7f7b8145427a72644fe699136a03149fa3ef26d3901fd0338df5c6cef7d58cc6
e5e5c7677f9d7fe25633bbdc9bc795002dd73b676bf05dbba604b99d5edcdb2b
0dea9079e5aeb33c08f8b80b8f0941dc6d3b5926cbb5d95765fe7f52e89e3fe2
5e54e7017ad41c8ad8f9fe818743b0b90c3cc8a7d71822d65577f77f535ea42f
47eb3ae9c9d4797fc03c7913b3d3a4613afaea0b701cb1ad819ea2177de47c00
0adc0c0fd1f6c82e5821b16ffb377f4ea8bb83eddd4b4296cf8c9e6b767bf681
670976dda55235ea36eecc1a8270b42e667cb3f6e97f32b3747764a3e28ad9d2
5ef4a9c3df9476daf76bd73e7e4dc2a577ccb4ba61a81c07321d897fedc5ea16
2bb1a4febe87bce649a8c94c8278b5ad81acb252f6accc7f09b1a75252172014
241e330ed03f7ffbf6e84e078f13d4d4be5fbb2dbd75390373e5d07875537a42
797cb2574f6b81739cbea103cb5bcd6bb4ed279563b23347718e557fddc9058d
a907e2a74d9fe96f1f89a80b7e346f7e512a7819e5e6c67f3a37452a7a2f31cd
94d0a03ba572fd8b736dab8939067d76b2ed89e0486eda45b5b6454cf70c94b6
cef8d59e86d8919e3781fbcadccbc540de3c0b493f7a3cbf6f9f9baaebb2c2b4
5475291ebc792f7fa8f320be5d4fa9f0b662efccbf4395dc9dedef7f78580112
ef666ece8d79160ce0fe09e1fc9842193e38e04a7c61a13933bd04e573f1abb8
6fa5b58a799806d2a153b78b8f3b4c399cdd3f742f72edc04181d618f8cb59b9
8a04625ef34e27e3efe22636e85230d8ab5f3f7f787ec93a81109436ede94fc1
c1e051727789b0b7bf92815b16030ddcb0c8989f17e7f5c55e9b041045c98d2a
f8cd6100c85916ea077f24ebef497f5e8fcb000230de86c2abd03862c9eb6608
6a6b75979f87c993c16b957b2bbb5698eed536c7755798526c877c8324efd6f9
bb6bfb3f51e3a514f4f45f633591f30502233843ca10492079d685ac5727a524
74b7447f2c5b0309cb7feaba6b5d4da6e69ebc357b6aeab8c9791fabfc9cefc5
1102cd5fed4e1c7bb3f081bc6550c57411d6f7e168dfe9865a3e6a5ae2ee557f
5cf061d1d6fb74c812fff48c3d78187eac86444466b22f88ad769bd16347429d
d0f7b39de6861d69d902f17b3e7645e86b7aed81a181d58af043a411fd708109
0acb8c41479f9a8197a31a7f4cdfefbf5d817f44e36e5e5dd1f974901e5a394c
e8e494d6dfa03ca73db679a6f597cc2781015f686c844bc55bcdb66b3d5e71cd
ff1887c11de2a0f1696adb019bf86ceded8e8ca165f066730adc85503eab72de
24486ccf6bd6c16b913b70235c1705307f9cb7e2e2f6fd3626be6f7d1904d3f3
9c39ee09fa819bed66d70fbd660a15a0e987a5c73881335017fa9a96bf3fd6e6
b2dd0e91ead38c8b3bf6cf7b1dbe6c791b7b132f1ccb51a9e6791588f62e8891
01e440f1d3cebd3e5895509a5820f13db2b05a8753dbf4acdfbc9b449f4afb22
6d93fa22d3ccf9a0db69557f925b6e86f6d5f7c0589b2ac41cef979d56795eb5
d6677f43c3a367e38a0f763af5d182be56de9df481cf798bb5fe2020f67897ff
2021c0bf764fc32d853be0cb7d829813c37fa941ef8caa2814aaf3841d85f5e0
62f7aadc46c828e5f399cd200545ee447fa5148beaf47f0bf8ce73c52c7ca77f
de4d8dec7f9869b22caa3ac4dce57ead5ceded44409488168a5a7979b6ced885
7f117ab1e27bf60eefdedb2e1cbad3c08d9222adeceae06c009d9d8162f3d060
ebf692e1f9326041e2b7f8dc15ef607fea3a343a258d7e46ecf8cc7914938f6f
f6b80eccce706aba811a81a6f95373d3f0b7f3e2af6fefa1894c7012175f7311
3cb08181ecc7325a73225e7e7ce9c2d160a7a4f45dda8cd1582152a9edbac7dc
100b2a8ef87f42b7c5d78900a3b9ad7904d61f1316b97e7fe77468ec53034461
ef98cc7604fce5ad6e70f2bda3bb5c927ce3b6df58f55d63aa952281ec6e9076
c9787f7a3d3bcca2cfceabcb2420205a2d875a2c8aefe9a081a427126458147f
ccbeee0a7f81fcb1aafaf9493ab87fbd224bbdedc933bbfeda3ed71d10d96b38
6d6e295fcb6d0d23a2475f7fa7dc6a19d8ed182b003639fd5b6fb196e32f146d
b18bbc24eb8bfa0672b1e758af83fddeb99ae5022f7a757355c727c8fa86814b
9ad3f7e0ba5f0a3c7f4aa8484a4f71119b02c13b64937f799fd8f5e3a7109fc3
9beaf8eff2e48855b22ffad7707f6d7fccbbe62ee6b2e781cc383b92d7962371
272470e052dfbf5764c8ef132f6962b51f980bccbd3ad92630c2428623f738f4
01db3d4107985f30e8fad1e19f403c81d9e85545107fb5acd73a98c8a6095f7f
d47e828fe428667458fc87819ed5ad4f37975dbe10c1d7124e397bd97e53c40a
de35688c7ba61a3af6b036e2d75a6e3f2a662f21dd9cf14ab851d6d9888cad3d
da2829e914efd3fae8af5805729097460f8dd48edb6bd5c48bf9aa3f953cce9e
68fdfbc8327a9ce4caea13bebb9aec7fd1bbeb0ee3027497bb8106d78d5ff7d6
66cf4284afd4dea6f53cf27fa594258c0a5816f159ddf166acdf4b0e5f65d654
c84df6e22b5c5de9be56e25c77c79b435fa5f85959bacb3d1b3f7f1b6d04d9c6
f5b883b29a3cf252699c10cf75d6afccd15ff278564b3dd2be764feeb66ea03b
cb7b1b1ff86b3a0c45d78a1e8927542dca88aa869cdbe89c9270c0fc58fccacf
c72da4886fcdb7b4b98f6d3cc01781bf20161a819ffb594665d7a8afd5a0a226
b3cd6a7fb1e44a4489db8de437cb3b986dbc106ded46fa1960632fe99b76927b
39e58c3e9f1db029acb77a0e2e0b752f94dbc8ed7e2ea09ce9aa761ffc7f23af
7261ecabdb3f7f7eb5f42f5afdaa976af605a451dff985c4d78b7b19ad7f593a
f38b886d637396a9691c3fb7c577bd5ef3d4576effe191e0bf1c2d5671dd4b81
09606c7fe9aba738cdbb4bee9d2d9d79701602a5d7d8c1c3f37359a420a0f39c
c605c8fd9fd72d547a6b24aea312e09d77ab685de354fc16e27e859c1b755a09
4fab75b8d5a8b24aa901d8c7d1f6745cdf6242b8b9e79d2a794319ef527f1953
e6f97fffd51f89d30e287de07f653c745b6da6b2667e441781fe50c105393047
31275743a3061705fd457fa8f38112bb7ad0b82bc144a3a8fe0b0359ff610ba4
4f4f49e7eeb828d55b01bf5037bc916a6c5fe97578e837f0a96683b56f5548f5
bec5b7d8b6f1a400e3699870070fe4ab167afb6b1fe31a075e7f81e113c0cf18
f5ef4c98817c4e66749f7f9fd32bf6f43b167e37fbc078247d532f6b9795a2a6
afaa6f95ced2f20b3ef2f779b9d30efe4e5fc55b98ed247a12dfcb8b67d91272
6a48aa2b69f621f88bc47f10510d6f26bc7ff795671f19e4f65728aac488e0aa
e69e7219ec9e71a1d3dc226157e26e7c3d2f3c72c9a18a5b15fd79ae480a15aa
d19f1b750f42ac028f40eec73de5b3907937695346be3197c4b7ba5a7b6c9081
5dff1a23b6ad285bdcd2550e5a5f4f810f3bd1047e8e5cacabb7a292099494bb
f6a023f6fa10fa2ce3f481cda6caac02217f8320b0d7599cf8c7069c3849b881
67bc4c5410843ed489fb5aafbf0dafcad49f011979d02d5cfbb197789f177fb0
7f81e4897f15813359ec884ce4b2cba4aa817a455d6d3f13c60e718bf103cc9f
66f501b866b4de70ed2bac6c557a3279e1c60ddd7543bb825de62b5502d484c1
5dd93d3d55d35d03a5f8122b1e7b2ac1af6905e8f82609bab4142d34cfa5815f
af04f9cfb68fe9210754f1e20a82033aed70857edb4781367359d44e7f6eedb8
81a1b2e378eb94f429bfbd7fd4160a62cae31cecd268c2f541ffbc94cd1fbf81
e796bd57edecde87e1f32b75d367efd3aadd29ca55d40852ebb3590bcf357bb2
d8c52b78f36ab8c17f297df234d5bb9a8b5a4ea7979bfc447a460d8e883176eb
9cf8ccfff6bd44bee5d39e3598ba7ed0c67829bb0bbc02161fdcc9ddd5a3d7fc
d2fc5fa5996b90e263316ab0e4f9ffe1df68484859e879baabd6f2049a77f774
bd50a5ccdcadc6be762b3b7d1bec40b97ffaa640f566d56a23e8106162eef216
5020d4146681e0da39e742c61048ecfffedbedc83581dedbf4e3ff94832c7fc9
d87e1d4b9a81b8860974ca7f5dd5c5a9e1bdbe3cb8cc2924d203bfd893fa13f1
da46a183d2f51526734e6f287e17ab68930f8a9f39bb7fb6f2024814badec381
9c39ee1009ff2aa87c73d14f8bd7919ad11fab11e05acb493ebcd5356e1c22df
877711b287cb042dc8d45809bc6d6d3263bd762340539defd604311af4dc509e
917bc29d5bba8a8f3ee728fde4345f9ab074649ebc6bc1c83c3d412a64db345e
ce2c918f517b18d3d33e8f36f5e41ae81c3b7ab5234ff20e36de0c55876b81fc
7cc70d1e3108a49b85a6df777b360df1a73b8d8173c5aae0a7a15fc47bb4a3d8
ead19fdab5e66c047f375bee6e78737fe5597fc2c0ff075fd7d1ac0094368be7
5b492031771d06ea7e2b8d2261cbe5b8b0d544c3f8c073aaf237baed555ba0b6
bbc3453607d9d17bff6e8b37fd15c651db553950dd4b38e88124a543f68b8e25
5919f947e9ea5905913afe5ed35454b317a14f6753b7aba16cd961ab8de80947
7afec5cbed908104af65cb171bdf4b208b669fae159466817aeceee0db7f5d98
ce970b359bdc26b5905de45a79da9d835e3d4e461f7f0b81570ad28cafd4afb9
1a5b69a0b3ea7f19467594fc757de80dde68404ed4db2ce4601cebce7ae60479
f1b8a93cf5ca2a162f2f9bd66df410bf6d120af61961810e67ec2c0e1f6052b5
e35b2893d90d3a5ead4dd789b26feef75f471270441994d99b6646e55eb61f2c
c00575d9e19f3eb05053abd0cf7ab72686920f339f99f7f0eb4a650668331445
5ce53b8a31f462c919df86eecd56c713a990e3dba1d37172bd5c1145e7d4d915
787e13c465130ba252c1d33fe6aba9ddd597050dd13458b7d48fb631775c9712
d5ba7fc63df4eccea767d78489444544c99e27bcebc36ac9e8ac546466ce6162
947f3abe50b981f7d5b68cd152c2285d331f5bacfbe2d201756e089876ea5e5d
1eb7a33c690f048b6473fe0b696f5e349f633f6f4411213726f87b7e2ef55102
1769f0dbabe95fcc449f720ecf5f15361cb964e4be6aac207fb889e93f9e36d5
2d7f714d7fcb47a77c57f181d1953032f97f8137997fe81d7e699af3b43d681e
9ff006eb4fe8a7441b97a7c05e6d3daef5e248f8cc2569c3a26ab3fca3b75fcd
8f998434d86fb0ec0dd5a69d867ff8ba4f620a5d5f5cc7d6f0c9ce309bac59d8
d3e16c3ee2e29bf1ddb8504f1093885ba51b08ba153e671095f650c53e8597d6
bb4bcbc7ad361a568136126a72dbdefce27eb7cbba5350b4b01e04add64f81ef
38b60f2dacbd25952aa599268a31a28769a8f89a775a81e0bc2bb42dea083c5a
f1182165d2e6a402f6e27fe1d378e74b7f95c00e88fb7064f49da9bf81aa255b
f535a91e66c9e4294eb362c0537d132ffa2e64453f2a788109df7674f4d660ee
7e9e728579c7c8f7e4f116272c2c1fab70159f5ed7a60c7f1722eec06cd5bb4e
404e7fce1081f68eae5bd087dd75acb697aa176be1328d16b7c5301b177f0638
e65dbbea664dc92f51236dbb517f9759ee1e6e15f6349f7f441a3a10c4fe8c00
cf6ebb27b16f87557fa35e946ca4aef0a1b5f0dcd23fba9cc9b88e2319071897
9be5997fe081964a9cde1c6d75970b55667fd7de67e2344ce67ad122e445f312
db8e6c87fdf6508fa8b744d0569f55aa277d6a4ad524f3adad7fbe74e5ec3d29
43985078e1f95f61517f94b73eae247fdad63eda37d61dcd410a37c8448a7ff7
431c8f98607fc2598fe57347b4afcf1d993f8bdeb0124f4abd4d8e81cbd91a7b
b7e8ad8b750d4b8729219801a9cf01fa773914fc0c7ce08c9d4c7fa39be97f96
8a151feec7c781981732bcb1a30781c46ad58eb14e7dea6ebe83946c947410a7
6694cc031942c827be938f6d2eae79698bcaac9c81aefd166af5d579b16e7fd8
f94e7e83ced77317b5e70c0dd9374bd0ccb7cddc65bf359b83dd5a86e1ee6300
734a0b0f51efa7ee7f415d8160c96eb184cbb8adf6f0afd857ee23f63ae04f43
ba3c7cafc073964299f57d174343d01dee023edbaa2a1476e9375e44a23a023a
7c752c68bbce395b05c09bb23f2d2716df62afd6ff547fc1d8ab19aa97c75181
7107e4f1f4d927f4198961b5098667834e60f9ddd2f3257e032f2e2533771574
954a7564f6aa6978d56e21ee56c7fb168295b858ad8c28231f73d66182228c82
276f3c82dc2f371ff0108b3b377adca1fda4e930583e12b8547f6d5af1b57ff8
0a68d553b95bc21998e5aee039bc57f23c413a11d3dc32e6d3b0a9d274b37c73
1fedc44881d1ddddcaed78741996f59ba36b5873dcc2a1a4b76c7f3d87f77581
dc8f8eae483ab86ff5cc19774fea23f7ea4ff381a7f96338afa2f709edd40f07
1eeb707fa6d7567ba191b3aaa84161b02c53c8d51feaa9d0f486a19de772cc18
3bb85172117950247d3c49aae14851ce73ce814c8170b89d8bee0ac63ef8dffd
a773b678332de5a7637fe0c5ef61a28195779a762049f2e5815a08354f9ec0b3
4296f7ab9ad73ac39961fb3efe44cfe3f4488b301edebbdd149481fb4a6586c7
2bf1441842c8efb675cb6a604916a286f2e77fa761b2298c7abc0068bb3e2d0d
7597193be2c020a2e05f1dc623fb2fc6bcf825e4a0615e4dac8ba8e7dcf4fc00
81c3d481d78767acadaa1986461ebe81f1b8a9567e5578332626691565107003
0d168a4577184119f3d1d3c9f14c8928f5c47f32a09a9d9badc7399a246d6564
8afb7f9f046981155554f9727ad929915bad3514b332ca4cadf1e7ceaabdd97f
a1205615be6a4085cbb331c7e9d866fd2c43eb93dd95217c86815c7c03589e62
e0c75ea2a0be1f700fee8ee91a4d2b8c437f729c454d997bdd8b7f3155c082b3
eee1c91406d59b0c1e1f8dcaae7693dc73dc518d928a9e81cc18eea89a77709a
ba66ba1b6bba1e0e89ed4af57b207db26f3708875f8e02626671c2bd5ad70c7f
ad81c49a9dc6ed4ca4fe7f9d8d957f01f3b7600aa3e3c9ade83f951012cbdb4a
47b790459363efde1642bf9c6e4f3eca74f3770076005ee97d7f3185fb16f4c9
15a1f95b559f948c71d8a8f92a3bfb99a90719ff3be58954edd245be7f64aca7
0eb4d2745e09d78cb8f974c8b77dccfd656f3ed7858c8e0ccef4d816d812257f
727ba965e7b348f6f681db6ee2de6890f1e5ca9349e570af95bd924091fd3a47
647f5183e61f90813c95281aa85b55b474bc8167fa33d0b9b0bc1ad7c7281037
970c9595030ecb601bdb9c3977247f665370a1e7b0f310817f2af9ecff6e07a2
5db63f8164c01ace01544890997ddb755f74bfd3459d981dbca57fd1a73ef0a8
4b1b68b0bf625bfbe6b61e39c94492c9a21596d0ee7153e736702f53ba523b53
56ec9612d27c9d7f47f3cfec527f7b7f4d2a35dd9f5c4e0f7ef0620ee0315eae
d99eb227127fc77f2e0a384ec9ebb688cfc3d02cb40f62f6435b5ebff4a7db76
c6bf74015c77dfcc479d1d7f5e40ada207500fb3ec3d7f94478b3b9a33c7b537
d6baf37a64e76b057aab566fb0266395bb58fef6412c39babc67757159c64aa9
35ede97c7f9b495e4f7467497f1337a1fc5c9e24e3c5da5aaecf3b19559f0f1c
37a17f25dad69ecc5fb928ac3d3ce98b4bdc4e815adb734be130368103dec57f
d101bd1e6c7f81622fc71a3bdb7fcbd086e55020817fd2f094dfba7dbab6e747
bab352b5a0e988cb42d7d2acd2f65e9f4ff89bb0d4038a1f239e05318d7b0131
f815fbaf3cbe917bd2d4a337bdf16eedc97f7f70c75ec948f89b01a40f11980e
47000256ac37234ac77a3cb9747fdc812afb4a5517b6f1e06eb354587f77fa6e
34f7e45bb5667f953986c28993f37a006ef4c430653575413df33c9709ffba9b
8b87305d5bf477d2993a9e215b3fccbd4ae87bc86fb4ccfbd4e9a875e69f4903
452bd944da1f0e161cdf797c35dba95d1bc81e4278aba060dfa87fa667c2f381
7679c57f0c1b94520494ae2d6dd3c0b7ddaab5a547c5ea52845dcec038febd35
ba4191667bc59bc9dc7eeebbe1d5b27f7bb2a65e397be460a181a43fd67fd24b
585a4105d93506fcb2fa5c512704035021f159192f30da2a1c7f96d0dde5ba3a
bfc1ff2e174a539178d9e229ae97e092f65a453ffab5071268744381bec6e6ac
4493a69ab5799dbc636cbc2f3cc325f4cc7ef350d49f328119453638ac175826
60a9388bf496bb10f24fd7b8e6f523e181cb08e5525193ea9ee9c5d94fc546eb
39bb39fa7c4b8efcdc21b528f0fc1daa3b5dfbb89516a98166256e4777ca034d
41205254b537901c1e894e53b6e8f0f94c6ca591ddd260d7c9b5e911a9dd257c
66316437cc41f0a2f21f217f1060925b61e138545eda5dd2bbe8821feb4e8481
99cf9407dc9ab5ce592f76a35e1f7025b66e7bf728e06bbd24ecae79bd9af66e
d3e311cbeec9bb026f6f7fd54d1e3a642447030ae78dce6f8aff470bee43452b
81df42cf81b041817b87866534e84089e4c78a0026edac5ca7e9dc00bb88a345
378f6448c881de7598b0a47fcf53d5bf27befa209430a0378d31977f9afcac00
5fa2de83cf56e06b390cdf16c8be538ca929cf0792ef38391bd7ee38ab6a5a18
aebc66e0e60c458c70fb9989d3a4af8ea47ffe0c8bfa3ce0eed10360d44f4230
37b5090481bf58c061144e6a93fa02e6a7b5073e025e6fd887b99830bd3c6447
5c1dc1adb5d50c0d8194feff1b5eae1cef71ead35bb5b4df8766658e5e55018a
b4cdf46e425f6f1fcbaba17f98da5fdf7d3f7fd9c403c948c57ba6d8f6e602bb
2f9ee95229cc33fce8faf0b88abfc09c1efc16811396ed7adb888437eb56d1dd
13431fb493b727a12dc591dfd4721141bf9e527fa9dea2859f030dc602a91129
34bcdc0492280f73aae7406994a6df267f3ab4c40ea36db917d7b853263634e9
8f6dfb1c02682d536101567ae4fc30566e6b675eaadd501e752897c7cdae9ba0
898e0383b8dde7bb948d7f7f784d2e8e526f6a54cd5d0df1b1489eedd7cd81ae
d42dcb67326f8829af2d8c10110cb8444010fb9afb81674cf23781a7e0549c3a
6e8fc86b97093352197c2439f33c6fa2db65e62cdae39b0dd48c811b5f6951ed
cba27557cfe4f9afc77ccc4f5af69e6d2171abc7faa62cc440c1efa8fd897590
eee5a2b4615028ad6e738eb3d272bf7d2114c49264a558a0d5e9dc422d5d7c3a
dd2b25532e44ec0786567fb0e36ed7066bea3f1c54a7337fa60a6b819bf4bfc7
bd876e10f237e4da66a502732e2a87429cd6bb28f374f56dc17b2091d8340c81
19e26ce4613241ee3abdb38551674d1a414af4cc8172aceaa7d331c966c399f4
7d870545fad394b96f3ee0e2f15bf7966ed9eb0db9ac607f05d92f32cda72aca
ec70defde95bd3d16eeb348cbd83ced1f4c0d7d1b16f39ce871a25fe750574e1
05c9d325d1fa2e4bc9bb6f2acce87d2e6a70f9b03b30013dafc59c815c9fe1c6
dae97fa40d903be39775a4daff819b9df68b28232ff957287b29356565eb2cdb
0d3e81a787db21eee91c787f05ef4db56449127dddc972cf63c28ef9d539ff0b
547e9f81411eae242f6bed071ebb721f3760f29096026d7aee5c498f423d8cb4
5bab98e73c45a839cc3dcc36a57bb2a9f5b23ddc3c72c4e23c0bf1513e73a3e8
1f3021ab3ed65210c74375681df50d3e6a25d79efb519a6725060b01e9b8dd19
da973dde8112776c5faa0381812c2104bb6e6715cc5b0f7eb73681840c8d817f
d9e62193c7f1367185b081dbe1bb3c7e5fa93d73832195fe0e29e0cc1afb247f
c964f7cb7b8d25739574ccbf4d81d5f14ce2c17e1e7771c4c2cf3091451fc4b4
d94ec9473d40560ef6330bcd8a3a185cd265717fee607f0cfb64813ca97ffc15
fcc9bc1ef4efd9354b8a6307b5c782b4a5dbd4a3bd44e1c6d3990cba7e4e65c1
e2afedaf1ef64bdf36526ddce0a6b872574ec347ca3f5b8bbb6a416a7a37c3cc
740fa408f638528c6be594667924dc5d81af1eb22797177e7d7234b1981f0dab
dd5350df8a86f5065294d63bdbe86e54d7c3fe000e93b51607d9eeb8d8ee88ce
325c4938e58fd3f3332f989baf2b3a8ba4b21c9538fddb1addfc588a17fd5bf6
002c17039de91b08d3da8142a98232ff88818b5136d060bdec6d0bf3ac8fa5a8
c9cf72d4030ffc24f5d53602e4eb0a1b6be99e7479ec53bda55be9371f57517b
c0237f56555fc18ad3f3ab330281dd2b6b48bf5f7b69ebcf72165276c30883a5
01a058c27a06b6c477acd94c2b43233869ec815b93294454dde200fe4754c3bd
6c7d9284297017157f297f3672ed02f2ecb5b081c248f5f767c2e89dbae9fd22
9e36ae3b98dfff10bf0953812941f559dae122fa336f5c270816b6e04901ebd7
db0a07fcbd89cb5bded43a16a05aaf8be88e54f9f33379e267baba4ea4eecd71
4f6e691ffb71bce88170759f639ff3d0bab574edb1b7851617ee65096b6e1df0
0b4a69dcd9d90963efa7c05b23ff406bc5bbb778763bc1a6edcada7f7481a837
9bc4a92d0daf863cb7551efbd566150ce9d289992c2321aab5f11f056c6acf45
dda594ec8f0ce7afc43ca1eff593f965d56b908bcf1bf9137328e868aa7dadf0
5e06ba05755e2a6be7790664628e94596d959e23d8f96ca395ab27286ba8e056
71a0e323430dd01be55ef64c68f3ea0a611c3f437f73a36462df0f2f251f16fb
d373f038b9da321d81be024c9f8d839a787ec4889da690aa417a9055d2eb74b6
dae18f94be56a5cafe330dc17830e957a087b1fbf237ae909675bf4799799648
0c32ebf404e77460cf393bfa010f65382a93bb998a81ce2ff1f8636af81d0d7f
ed2be368b43a261f75aa70f17bc3775f967b24915285e26d3875f53fe53e8f2a
6471526a5f6991c50566f727a58112f3f4a39a7a6ddae86b408e4b5211769279
0a372a08bb828d60357b559d39584b2d2f83affdb7fdc487bf0eb6d8ed257f5a
6bb5fabfa348625a0f5f36d36b8f8379e8bd6f5ca9a90edb7b2c1d51ceea17cf
4edf6634ae6ee6ca78b2f08e52aca741e40f717ff15d7f5277dda181f1409d14
7158236cdbe43a697e63bdff0d7ff54ff544148297b57f7fb8ee0ff44a5fc2eb
3db6856d21dee056817f8163f0cf583aff84f25d16a870782525e9ceafac1865
25ead0ffdccd99663d8181981381179ce4a54715aaed7cc2606de08b05954cf5
d76f271e5f0c50215f556dffe6156150930a77c8967dfd11f4d3e92d10b98a5a
457feb1d8b7c81ff2f38dcc5d3e36974eeb42067b739b6c134c2dcbc99e7bb0d
17608b776f470affbea46ce27af4cc7f5dd3687737d9c1cddfca3d577cf2497f
8ac317b490d209d6caf398ee6c353b9abc6532727dd3b5f1b3375f6a173f2f3d
2ecfe51528cc496e4710197af5c65facbd8b712f81cf5e39486c72e2ff064caa
81ef160313bf8b977584ac72629c9f5b7b6eb7c2797311c41ac97f8d5c4b7f97
9b08e5f54f1787bdf26b66f0f78c970c11055deb58c9ebd9bba53ea3f010a196
fc2e9808a4bed5c89d6c7f10a2f7927f7de13cc8fee9777f02b768402eb7ab69
6a091a896da76081d9e8218278855cdb5ea81e81c7cb40f34c259df181b2fe25
b2776244822d30e70efb61eb7fbf0085253431b7b6f753fc497f83dcd8dfd4f3
96f977a6444ad1f439d88105fd07019c74d781a61a8f7f5114a8a35d795d7482
759c60cbc3f900d7819623607479b0f3fc12f1620ff921340e12817cc7e44909
ba2190a45440523907f788a17e8423f03abdaab9b46e872c9d97d062ee08c828
efb0067f7c7c94f08e32e7f217d7ed5a37eae2420cd93f1d14b1e937cd76cde0
d3def5f47cad3b06610856f76bd3253cb16bdfe9dd9c2c75dd81c4d0248db56f
e9405081ffce7a765dcbac34814552de54f49d458d9b659bd2bb927f7e23fc9c
17f3ae7f38dbd0e90b5fe255ecd9ef7985df00ecb207db84b539281856ddfb72
860483815d3b7622412c6ad23b35aac6ba170bbed2f64a4db96bf681f1817e97
5f41ba2ba47f729eea73d3e281892b8195ce8a3fa1069a3dfec853ce380168a4
a3e7ab2797a3e07008df0fb029f7bdd38fcd151ac2164773e990fb2229ef7b7f
165b88969e1f3b81a5afde2cd7c7fdcefd49c5bff4c709dc6266eec337761ee5
9de50d7865d2404de07fe50c7491c8448aff9a42787b7f95f9e19d78cc0d08bf
37f2486258666496819b14ebadb303a5f745c34a145081e8a44db9912b7b5a96
a1081427cfb4a14b92bcfce5d1b581bb486489738fae0cea129381d6639d8747
828c1f2833d845b9f4f248c1a3e568c0bf96f3f1422bb902d2f5227d94e07c5e
67cba2960acdf4c1b463b7eff867e343e763e12ec1335a9c321c20d54f9dd9bc
9962ab10699f25f3ab86db37ae4b0173df7e687fe72da416ff24c30b4db910ae
3dda8681bb43e931fb1c1dd1a9c75dd60b787f6bdf13dd977aabfa7fb059fce9
7b8b6d81810cc5a3c1befc7f7f38fa28fd854bcca175891379190ace85fe9100
ce327f537d1b18947e2e2615c51cf3fe7b254bd5e7d8deda7f518ff61704507a
90f3881839a6de7f4be71560366770886aa6d4694c6c5552b79ca27f0675ac39
77997f755b7ffd2caaebfaeebb6a9562a767b6b36654e27393ef8f0cea5b3a4e
85d724378bbe8fb17af2b7d7d144ffde40567321573d151957ccc42aad1b0c4b
14f6c06b4c6dd86ae8ee456d87e4b4b9d9e2688fa862ad7f7f689c0f9e8da1ad
f23b7f896c32f17681b15f91cfc3978394df4d1303d7642c7ab853c4d92f7a5c
7d7d8881fa99aa013990c8aac50fb873278afbcba7bc8f529b81c6300c6b2587
cf8384684331da15d9dc41867cd2d1092b845d32715358313eae628769ad5151
8f9d67c58473126081041d0ebe6695a65b732a47272971ef6466c764f8733b1c
e6c8d040d2f67f886e8a28900f8eacae97c87339727b8181aab9f843d7be898e
cbdeeaeb8481597ef3aa22bf117f7f8684ca2f655b9498ad7f0d810bd462077f
75e37f00f7bb22720bc97f5dd3ae970597c79fc3c1dba8811439f6aed99d81d8
9a5446d44bbe5b5573ce93a2ea8f4b5db9359e50d9aecaaf461e4d2c04157ecd
7f2061e204622d678ddb038371810cc8db86ef2169454615a3f960c24a4545eb
69eecf8c6e98438116ead01eee9c204995bebb100c568e8bd13048f2da674af8
5081d30adae550d3db01209255a5988148d33a8499e72026a891027fafe51c11
39acf3eded81814367ab1916074abfa24bb3721d6581d9ddc67d9beb9185e439
f47c646e399f015970cf11819ef41c0ae6f4a781255d8108ef6476d5f8bc7a97
071cc6ffbec9412cdf8a719325c1ed7c1cc816c8dbb84edc9ec386aaa8ac09ba
6fdf87207f3f8a767cf44300591b15933a3eb9da2083fb0895e7f6f9a26894e9
f7e081c9c24fea6b66c1be1287f5e090f9636516de7f25bb742d37f43af600ca
51a0c55366fa767324813b81ca810ec5ec9b4c81775cddd3845631cc952a47f8
7f908c0ebe415c555bf22f9f443d8ca7fcf21ebf812da0f0db63241b138e5d2d
0faf6c114ca364e3b6572151fb4c7f78da8ffce5ecb5f5e00b7f2c9575cdaf7f
3b9a9ced69de2cbf207feae8bc5ca1681b7de8b55d3decfe317fc46a67377f23
691264ea4b49b8cac7bc616a148e99f4967f6e59b1dca08abcad51f5379c5016
ff21ea909169b3fe8370065135fcdc87c3f5f77b9a15cef82cfa5114d89f8137
7ff9e2a295d777aafb46d9c573220e5a45627b816c7b60c56f96a6268d640d85
89dfd3976c751cc6d4bd4b7fe663ae4caf7179fd818f04a7cdad165381973f45
3f4b6169bcf2edfc578589d79e8f414939eb5d07a9ec4bb38ac5e8962afbd839
fd936cce5cf9a50b3cbe57ab722a7c28e030f535cbb98114320bc7fbe5d8cce3
3183880f09d7c1f0b3dce281e5eef58881d24b90eef51b3e3ab7cd7f8599665d
88ff39c14698009aa3131c31e3d51e234df39037a5e8c6276068e47ab54f9bab
97323ff5e1bd589982635d7f09edc032d9f3f796df62c75126381c77f72e5e5d
d01c54199c770a739d37427eadd4c82495fd31245c15230e975e3f81c3fa69a6
ebc3564179150e57476b1cb01f670d7fce6eb02e0326187fecb8ea92ff24e612
53ce0995939f57de3713f3398c354f607276ecb34bf6d96a088701cb43b5f4e6
d233edceb9811ecbfa1d453d8818ed420733dd1d07ee93b1f566e567fa237830
b63d62c60f81da94f86b1a1396ddf2c696e740aa810482cd38c0725d66bd9781
6f63da746eb300d181779fdf49e30185bad0758edc73931edd89eb689a48af32
f1f0851d88b27f4d0ffc047c5c828e0fe93e17d5625af4d96bec9bda236c16d2
5d3d417cb87d0923386eed81772b7fee2fcbdf9edaf2c157a1237c796f475b33
b9f9aa319df844f92cec1150407fbf32bc35e9ee37ba12d2737ff44c0397a227
69de3cb78aaa5785d9d6a1d2ff6b75959e66b4c840552a7284ff254484b6d1c9
b35e41c4541e97aa4076d50cef865946e25fd9282b5e6b0e0ac61d53f52e9d15
b11be8383aed00e0550e82c3e6b660ec6e52c86a85df93c97eb43da6207827ad
246dab03c2e64272dccd40978154384b0e948c601630df58a9cf7f30fe633b07
1aef18ba33b71e15d2f1cbf4dacb5766eb3abf1b724e33762e437cc527f6ec65
7ff06c1dbb59fb6b85278a0557bc23c38167415bcdae39e3884e77b62301436b
e33978d3b9a046a0df863033a8347f833c6614b83596153c7e56a8da508dede5
4f4f0d832ef57820ef5de05af4a7d67acbb6ba6c7ffc054d8bc104883e6dc75f
701bd683abd9c0816ab0e624bf6577f29639d36255bb3a103c4d7da930f818e2
68d32c36dd9a638fabae8562ab8cc3a8ceb132a0d70c46eac773ed4df5f1bcd9
eab9497fc8f222de86d632edfe462efe6d4fad8fd9ce4aff7a935567ef58907e
1d4b062e7bca4bc1c42f4a6c787e27ac7f7f42a7b3f11917a7840bb0dd19ce59
de6738aa435aeedbf92b942b0397f9b27fdb06206206796a8bbecbef1876194a
8bf58390004325ae71c4d9edfbd02911fcd481630be71f02daee918dab3de25a
33318e9fecb6df1c3a4ee4bf19f72e03d58e3b889f5cbdac3ec0c9967737fc3f
a24be6ca7f5d2d6c07fd1f905c21f5ee409ae971a756ff0179d3bbc0e3bb48fc
fe26b5a94e074cda9a057fc8edacca865dea31e97f366e816c81e061cb3b66dc
598a9a5b74e7e33781a5441a368a7c31997b3a03b759fe4f761a06b07ab4c048
7cfa439914599f37f89b83304797a0fd40bf8c83b925fda35f2e195b8157f528
f5f000216a9caab4f0ec950c76b57da35f1e797799157f7a2327ae9e3d5e21c0
507f6691eb4b7faf0cccd27f75b849297e74f76e3f3a07b4c3c91a190153475c
f73abb9b5dfc1a22f13b61bf45fca8540058c328f04ba046bae3f20d1f2aa73d
f0eb192136e5815d3c3049f4fcc3e751cb3d8448b5176c931448e73159fab207
7f2dd194f6a94675b43a134f261ac7bbde259d333cf3fbff1739db0a81c5777b
5a126a893abfb44bb32f94107f2a75261b7fc12310ae88d14c7fc862d8fa8182
f3c9b089cf77817f071d4881d69d81ecb6bcbb2091298a430b6ceea57e639410
f1c2d42fd32f7f4ab2d2df3acce083198161c74a2b7d0344320be5c5d46af0ec
343ecf1859d0e90267c75e81b369a027d281cac16237bb0d7a7325460567bad2
75b924817f68ef89b7327fc06b5e712e1fb699fe54a6bd45fe419e5eee3cbdc6
4c2a8115d4fc4d7687009bacff098c2275818e1eca9fd781a9565f25b94d05d1
c98410b1b75f7ea0de8d92201eedb6b1bf15c09f7b359b98f4a7cd229482d6fc
f79881d9cdbfc7a94e65d581bc1f6bb4ff88f91538e650b60f785c38fc74837f
e3a5dd2935eb604a3d6fdb02b3baeb6dc28e5ed46d3e3a687f5b5642be631de2
92738d5672d9be4768fd085d1ccbe156baec9d896b9f0b557c1f05e712609821
e3574ad742a9b6f16eccfbbade5acdea73cb95968da74126617f0dd62fea9900
0bbe6ae37ee8260066760e1dd9497e2f8335d0b33ff091d6767f3b7c7ed210b6
62416683a6fcc3649f9aebed2aa47fc24abe72d8446720f0b8f68b727edeb3b1
f663ef95d2baa11dd8d51e28df54509ef569657d09619a0244218d06776abd3a
7cfeee8eff48ba69870246255e17819b501e918aa6bbedeb11e10c50387009bd
8f322cdcbb7f91abf84f7ba141875c5cf41d0fc2eed7ae682b3fa537682e047b
5bc75285a568815f8fd87871a3deb5ecabea4b28aef0ef223423fc4d77590153
72acc0956c7e51cb9db52b6ff271d9f8fe1bd5356f8e6e3292d7405e29258512
e8178ec7079edd59ef85588d2b24b721f931f7f6ed2b8190e66ef39edb6b1ad8
ceea14d0085d55907f65ba7d3db5d08225bf159632fefbf281c56ec4aa5fec60
f49c5781b83fe74468175bea080b9c0ae8de0ea5dce99b3db0dbd07f9f068e24
12b43e4ad4f34357c7d6dd2f7ebc62f235201058e97af72995be446b7e5c5e71
69bd97fff948a59e9a6b0954b9e93088de1e5f15cf29f92a71effe34557ece3d
36f35c9ed65d83e14b20635e8f2b813fdaa029a3aacfffc925dd8852d338120b
580938b6d21f6ecd66db81957f995dafe4902cc3b8f1a347ba57f2fa34fd319b
796ebf945813dd5ead8d40952afeafedd8dda038ad350a85b92450469dc7bf75
fb4c34539dba51a7249867ca12b50cae7f5ec01f3d1fdfc273240b707d2baca2
f4f46530817da4b8a5be539e1f36924dfa86fd62ae413ee15c77a0d6500ad9f9
61f78fc69420202432817f0dd3f16dce3e3d9eb601e6f7600805127f33d7bb24
0c0798435bcee3aa4927c960a1067fa40bb31aa9cacffd365ab07851467ac049
197f6db7c37fff75cfaac93575ec407e7e09a4dbc825c61b6ec76bf763de418f
8ff17d4e81fc4dfe28851dc1e6cee300f3d8886f5b7f57b49e46638173eac55c
2c95e787ec57b2c67f7f280f4244127fb772f46ec6fc75b000eb4af14e9caa7d
8c5db0c0c17223119eb6feb41711a8ffc11941e8c06322cbdcadf73f624b244f
89fb0a754eec539e752281290befce00d4f9a0bf33c83dd9252f741c71eb09eb
bacfd4db7f4c9625dc370aca18a7d6db8bb62672dd3a0478578ab6dfb370d681
740a693f5aedf7e7976b1e6dee81aa660e4f97f8c577cbe7b59eafd68b46c130
c3fad004041bac046c7c45ece3ad19b39bad87c91df8d977bedfb9d5ed0f798a
81b64dd25cebe0e88666ffc6de6862c5b5078148657bb15b81a5360af6b60a48
f0b86764825828f9bb1d626e10b5db7e7f4c1de741722cd39dabb1510d59873e
fe26074f116062b01e81f9620fd74f737e5686d511b456e14f155873dbe186cd
eb5e819fcbe5b63a9020793b21e81fedd59fbd74a1ef003027c23bf3eed49f87
d4172253d2ccbc2e3dbc7daaa2e910ae214c49935a7f54925d9716be557fa210
f1d681d7bb81e607346afc95663f0a664f4fba1b7d1acd6be0328aeb794faf6c
03ca9b131bb798691031247212d4c5bafe415947ccfc8fac70d2e169742c4cc3
6550660634244ea157a7b125907d618e3da95a4e901d507f58fda47c00172d10
e35eb66544a33fd25209a0aa7e4efd40dc57514404b1552876eebc1675d97f1d
a4671d5d7d33369235d22994b89cb4d0e4cc8956ce1fe55081de5c456a86ab49
81d3088125e3ea664bd71a815f66b279040cb6d4da2f408edaf8817fc5c9b2e3
f6a598817ab682a5e411d3a956cfc08d4d3f483612f6042810658fd6af4e178f
270bcca5ca3fa8cf50ae21ebf3281ac2dfe646dd72dba97c27e351b3ade2e3d9
05c01fff30336e8796f3e746ac5520451e21ea744d431b2f37d58b044dbe811f
f9d4380f497f31de818c605387e710c2c9af11c726bfa327317fb0cb6d577fcf
3ccd45f68f2f9bb7776ea1d2b18f4944aaf8ec78f347e24031d6f9d081b7c1e1
9c3f58f372e1e6cacbb64f0304457f167fe9a21b13735fa56bad16903bb9b93e
b37c85dbf03ce788eae5585afc1ecf4a387fa735dc7faa466198c68139f9e23e
5b8c1ef5ba6dcaf7cc5be28f8ddfc066459cd57bf6a66eeb673101157caea202
23c177c7957706efcf95f2aec25e0f37a60c7fba1aea923abea987d23e279820
b9d91ab7d063e89f5826c1ab9dcd874f743fd9c55ff555ed7d12e2fbe66d692e
06ae0b19fc2dff6b265f7f1b8794fcdef2eb4e37ec3ddb81389f485e9d444a72
4bdd7f8a843597b92f79813f99fe024a367f9313e56ba5f1774715243824778b
b26f652eda644d22d874b12ca7735b1d5e5bc8297e963523cd1e7381d5ad3c4a
90d6321aab6744099ecd99c181d644a77928a1e757571796fe14ef60fc12fa35
57b7b2cce91f6e13af69dc144540e06d251248a8b0c31d81fd2cdf9a7f4f3a5d
7fa86def7647fee636e6cde8aeb3999df1ea72a3206487818e812a8173ea81a0
3052e022def0920cde7fe9ffdf7f193686f428d17ed4fdd5e77f259325ea8112
e0c942be026dcd67bbb46f01f17f69ea7f932c7f0c4b4e3ceab93c19723f234e
dc79f9df8360bfa81eb98102bf4a427fd6ea197f582ee53d1843c854c0ff078f
748fc1e776ecc60aa3318138c2193e9854dec8b2377343f374f359c57c44c720
2548226e0c9fd4c54fb972ea4534ed74df22c483244b9a05e4db3441d2ba5412
6eea41a599bd8ce83e8c441feee4604cb9766fcdf7b0d6dd2118bcd38dcf0695
4aa021dce7caa7aa7ffe332dfeb32898a270c2144d7ea024c9ae4562d0402d9c
0c92dd5dd64ab8d99b6b17cf287d7f8303f8ba616a53ed657b4db6c40f2209b1
38fea716935b1518080561fcf56c8ad746ef8d7b83b0a4f3ee65b93275ec93f4
59814d5e3b731af77f2e91682c12f4d6ec3a65bdce7a986d354281df76b6f8bf
811f1b46817f51f4eee2d38bbd3a709dcc6be91cb31682655f8e81c9b652c9db
b5e6d688f9a981b87342750f3d3e7a6dbe939eb60ce16637931b15b5d36ec4c4
2f5853bd9fcca706d571fe7786aeb0175e5bd281e78b10fbc2dfdb0ab81443fa
3e67dbfca6f3ec08feb0536487ed34784dda1920a06b661e6d6e93740526e151
2fd9330070813c4e4033c35efb150fb0379e7fe9ba5ff97869c6b5cc57e300c5
81f838cd97cdeac8d08109bab0fc628827ec1e5fff055139b186738b05a80739
8194d68106d49f75ade6fb480a5ea27a81963a92cc8664f3f8f13efab8f5f2ec
bf2ad15961d0ef2b245d5d416fa3dd189775ed2682d23c870a29c5ebef1a169f
7fe7ec14bec6ccb93648983bb765f581ea3767ee5b3e95ba2e0eef4af72ad711
7c07fd383b658bcc8df3250734dcb51d7529ccc13c332d388afe6b83648117f0
7ecc940eefba6cd72a0d84865d7c5825573bff0eaba2901e90ca469dcfd8ea81
5e18e79aeeb8ecd3c0e32009782bc2e6afbe2c88b4f61eaa25c21259f20181cf
be9e470d6e7f7ad3dbb290bf55329cfd7f843f87bb9792078f578e334b047f2f
25fd53cd55a031ff8aa10fdffe13e5343c7ee3b7250e69955a4d7f604afdc37f
7f7572985af998b37032fd7b7497a9d6a886b29bd87b3673ec0a4dd3810b7b3e
3d6f75adcd297f947eac0cf94d0e203745d8764932377e45ab79c7b8ca7e0e51
acee22fc0d60810cd0df865c1fb5954c90ff8ea9a58e81194b86ceee6db683e2
c49e186036b77db1d847ed947f466e34bb0f3afdb9f20b7f5a3f57042f7d69ed
8891c6434ddcb1ec3d5eca7ffcb324819a9a00be73fbe1cfe57c9302e4587f8d
657e79eb485fb8636ce3e7fc5f99ec74377c5710a61381ab3db8aba18bfaf4d6
88486f2f7c374576eb727e1b7e7f779910693e7f3f63cd68c55b16b77d86407f
686d7b934db6e92df33963be6aff0505c02f330c1216382ac76e38d19c5c1474
be1b770fcfa90daedb292e22ef0e7f835b3770b06ece70e4311deb34f8974b81
5c733bfcb4db979ef81c2e5b98a9549e5961f377d5d659b524cd81c73421587f
d8f5bf8ce7de0d16c79743bcaea9ba2e7fc8165a1f0238eb5cf915578a920029
be96dfa4cc497b248bfdef2d96b7a710d5b66272dcc5a742dcdf4c6e7e3cffbc
f1eebd5c7e4b45a53a2e2a381e0e3423c59feb7419bf00d7759457ec874ca9d4
e2f80d8e2481d9065f1d64f4a57f3250f16444244e7efafcf2ea76a20d5966cd
437f824e7c3d83627f3a4b6f0bdf0082fe1aa50b3f5953ca30c7af9197c70edb
727f81b2f4d58d9a77e4397ff293adcb15c6464fcced7f816bcc841a7ffbff92
0e1ac2bd2d7b79d3dda500ff09816ce7f69514ec513da05df03f38301bef85cf
9ecba05a9e7f5dafea974c1aaf717e7cb33eb7e93a963cf636bc85e9b51f012f
18b23fcff28f13188b4156ff44abc6be3b17813ca5e7ce0b152ed12af2237476
383a277f1729e17d15fdb99ede8278cc74c7a8a42ea3818875bcf89a88180b50
37f27f938156ab20bc17a76fe99e19bbf7b000274a4ccaf582811e04ddaa4ab6
3d687db927dd276ae26b867fee6bbb713324d9fc477ea877b48af07d5dcdbb2b
77fb54556fe93487f8f8990030b693b9c0da129033af2f72a37bd939ba26a70f
3e7a715bb61a81038a70948d3767f39ecfa5d029c2b54cf2b373c0901d779df6
e7257917e9ab1e2d4ae3da3f031481c0c7c63004e177b6fb2f298578c2b7a88e
2a87e91626c0269ff1d309d674a53fbc8181d54d349b4f46f4ec9374ae92cfc4
3eb9fa4f193cd8c2b65b3fbdee1b0887379b86b54df7573d89d4a9398f7ab0e0
81c1300c70fdd831aa04b3e7a76b44ea08c01ea4d36e181b54f81010a784fa72
69f27e8b7f32cbc3bc5e06e67f02481f44481421f2a1a764f64da9062dad4190
f85e5110c926d2511bc71945d4eb3034c95fae7fbfd24d8f37c40986bb636004
b9be5abb97d68e0d6bf6271ca076d1d4a6148b105cbedd88937e6b7f820495b1
bc5d81d7637531c0c7763e47447e6b5e74e9543212f814eec69f089cf62bb19f
2b3f4c82c215d8e31f5c7f50c7ec3dd03ee3c7467266ee6f10c503a9acf3845f
013783726b3d6408359b49e7d2e9aa4259e3940b97c7e94613da224253f2e4ed
e19d264ca3060da24e6f4e235b068125e3d74620c77ca88165be518ae995ec19
37e6067fe0b86b0f5219f0d0f94d8945a6fc1bdb62a3ed6f79e71cd5abcb9ac8
b582796b67ec1a8101c714099c81f277e4ef5d26d3d91249c65d3c145f4981f4
3a2012cdf2721f46c5bb1cbf0b978ea5a042783b20539fd35dec0e16e5d68158
975da185d006ed7ff630a1fed36eed22716f4731818a3c7fd138307bb68fa97f
7bf91e3d3aedf2d79d7c9926262c2b41a6afd5489fd442021639047fff819738
c29403d1956c9ce7abb5bd0881a0d2e86b2cfd3bc60bf0d15ed35be8fa4a7fcd
b375348e4d62761c36b933fc567ea3275afcd36b81b4788b58c46856f4cebd1b
c605f9aee3a7695078169742d4ba6dfbb2a1e99e66ded895e0fe4f22cc7f8d7a
9fbfd932fdd69f5656dd81c1cc0ce1343baf28b2562178813bb92a49ec6a9e22
d55e4487fbed2e089bad7f090ff56af0276f70e7f3f95406b72294a7377a4772
82c5f619e277567f4a3316597f637f11a6929af089fb1efd626cfd8c8111df92
de135cf4a625120e6afcf1cb124dc320ff9b7609c316811e5bd547810ce071dd
55f6a506e2d3d6ab68b7737996de2800ae6df54094d1fba8ec35b6d2adf25453
d6dee2f6acd781b0d76b612385ca891f7c3bcc027ba5680261b7811d5a6c5708
9ef7f90e23f5b7c2795ba781905da003b1dc2f1e589d5b3f575b64f5e656b3d0
c3e7ef0d3adfd87381c48ebbe7959888f6d40d94628132fc19582553867f23b7
d33bfcc2eadc046eb81f714cb1a51f4824033a0cb32f53360681dd568f8246e5
28d60c32de742070aeb346250f7f9a88eb305f8c37a1b50ad6c77f9cc83166c0
b1eb25d356b71cb13a132ae2746f7c1072ed608886267254ed9f7c964ef62864
f7119cd1fec8b18e44f18a446034c191ed1a7f6b3bcea89270cf4ea6816072d6
66157f304b13db1498bf40bfb44d084899197dd0c861b03e3e6e684149b6867b
3dd957ad33046eea567fbb0bfd8610c8547f9c6f7fee88fb53568266deb2fd88
4cb2a7b2997ee61c643b9256f4d0e5a281c831bdbd53cad41a6271fdaeacc8e9
ec9355f7c6ac013fd3f281f2a2cf203bd6d1b068709bb59bc3ed39a790b77d46
6de937007781b8756e718264765bdf7f967db82d362a63334d956929f78a90ce
6d43face2dde1d53555723e297cbff1542c002e64bbe00781a3a116a52a052a0
9621b92d850f781f89ef2048761de904f31ede3be454ac4df61bc74b4b6a0f37
4beecd68f8519cec857281b5deb27f58dd1e493abd0f8490c00aec099d6b1771
c4ac2fc18bbbf47c70b3c72f86a26846d53702dcbe594d5488d83dd3f63b9cc2
3b98b07c887db10c6de9811fffa7c958ab584d813f61cbcfef0d9142fa06e5ce
db87ac9161f78c6436da34b387e71603d71e201e93f7b2ef03818d748afed704
7f889bcb7dd49a8d44585e977556f1b8867860f477e4001b7eb98610c455eb55
9cc8dde826dd0461f7e08f1b6bd57d1beb7f35a68ee171e14de74af1735b668f
9eb64c243901f6096516cae55de61a357baad54d5f833a6fea3ac0d7e56d21b1
01a2a5cad4e7b113a4c8cd58523bc7d8ddfc7f46ec6e38530b0193bdd3c02a4e
8167f0cee2cfaeebb76a5923c997e154c89402ebcffd8482f569553f6d7bb167
caf30045bac5dd3e33c8e77c58fdccc8dd1d1386cc9f76bd3d7fcd2fe1af27cc
f28d638a6bc7d59ef47f5bd98d8317d6e5d1997fa73dfb0e6cb8b06fa8dfff60
ea5418e56796cbe555ee66904ea862ed0e1512c5606e2153af359a651fa8db7f
ef317e1915cfc39942be2e7ff279fbbdd6e9a0a9ea6ec97c3d22a82135ee88f4
616fc77f7cd6ce540230b87f6c3a023b0969ba279d4f912441f4901dc1d49144
2e579fe63812fb13f8d9a626902d1adf72f5fe568742ec2e6d5bbf23428dfac5
d53e17a0a422ad592dbc1a63e7362e81eaab001b02be73ad737f8f19bfd002b9
5aa205491d7eb99c58297fe8ec4f8914a1e8623e95bbe4117f0db7e0d9b8aa1e
1b2c479f3486037af8ad40f1bf46258d446d58585474836c1f3bf856f666f88e
7f8a889ee31b6897ea6f67c60edf745239eebd160c4ab8a2cef262b33bcbc221
70ee2ce6db3984bb8984c5b77f6fcc2e878419f23f65c3c23c7f9e89c3e3ffe0
3ca21b478ccabb6fcb9b2396a3b5b9cf9be5cb3c5693811cd1fce04faf8b0077
965fce6346501e5003b95b1f61fd833feb66b2bfb2c15e2c44ae21df76eaf386
e4f77fe516bfbbff5bafd99ba6e148a84dc2365acadbce4cf8d451f907e9bfb0
5350059bcfd8aaa8ee8b8c61bc33f3064a1f7f3b476807a696f3d18b8cd08158
b2bdf84b2ed9e2437f6f8eaa6fc9a2f8afb20001054840bfd7df7d2a9f4dc090
3d6e6964bbd2720b3c7b676620118137812ae2edb8af259c7fa82781b8f9dfd3
6444dfdbc23b971adf2af07437b61a5ef4b92ae851c891e583fd81f21d7b05fe
f0f68199fefeda6304da9c28b5a7b29aef517f81f8dd0681cb3d0636ed8bee65
f9ca7b118ef5a53582feed22339527a4e148be19cd7a5b68c93eebc681eb69a5
4a2a2b4a812d0907cf1d2e8c680cdd7fe2cc85afc81af915bd5542b727c87f82
eca7206ed87ecec23689398b2de7077abea343f77fc151033a532432f34e78f0
32f68273f1d9857906922b205f27937f48736a6fa6e799ee2f676f19ea0ab9fe
7b136ee41f292e90979e811dd2b8ebe3ac85026032850d99b67a0781b8926e3f
f6a6b9a324aa773a2340f0d07e652add578f2eed3d7bab053a55230bb7d12ed4
10ead0e6cf5611fed144c8fee5fa7f7f50d1e4947cce948191813f21f6ed2838
81732e92468832d6ea3bb18f91344c7fe4de7f6fa2f27f1c66db2554fb493168
766ede7282ca1935082306794d7bbcb4dd9ac0285da181e0f0de5f667df0a1e0
5ed95e9adcd6cdeb28076bfb97fc7fcee601770757cd702549773bcddbf11014
63dac54b81c1efa9cb9d95a520759f28e8c4a992190d7388f9690fcaf2b5f4c6
46f7cf7f815b0ef5185a8b52b69d7fc9aa7ebcdf34fe76fcbb4df68c9ebc6991
f7b15824a6dd7d402cbebe1d33d50955f72e66ca33cfca0c1c9859ae683ad02d
8874f7efc48e5e0734fb2b68e02eee1066ecfb673fb67f64e4faf503c937a071
ee5c7feff1d0658df81047bfe6e6aafccf3a18342bca6b7fcb870970077f4965
7f74e2f1b5b6eab7daa1114681b455cc45c2fd889deca9de2743845f1c26b183
0a207f9a46b25d0263af818a020e99bf4fd9b96c2641eb7998f79f9455357f75
2bfc459f707ff073b7df49626b676e49abdc00ac9faad0fba568ac483be384b9
6da150e79f74b486f5bca645cb64a6bc9b62d7ff4e9f3e7c05a7f1465eb7a06f
64b2e430aec7a47d8fbc100e99758e63067fec5d397167053cfa7fa5a3cc8fcd
99fa5961cf48d47958ccd8e8e3f183db746fccfc4fdf76cb542b6a41c2fd00a6
c1762a696e57374486f88185cd0dcd8cb8762c43caddc57fb355630872276ecb
f4339caa34585d814dee42aba2ea3c71aa646f0f5f9fb5d36eab3a70dd758baf
fc9a469dc3ff7769f86f471ef1b5bb28c37e247f1c33d431880ddc456be3b4b1
4f4e3ca953fad29983bd01a80869350d58ab06d25e79387adb5ff8728ca49f98
d44e1e182e8e910a35f562a5d49cc77faeb0fdd8500267b557b350040d5d021d
3d3edbeeab81f40504a4cce32fc756b07e7217d7744f4792bdb97ede95fa0692
103081386a6f5fa0369f52abde5c6a817f744481d2f5dd86e042aeb77f52e813
9e47654cb3f9b2c9cf27d738c55b7c816d810d1cff58bf5a7e27fbf07f2cce8b
d98f00082b4b135211c9207f5f6a66ed9d7c09ce68067fa86d02910567b67f43
f250816c79ab00d9bd8126bf5a5623e53f3bf6609a9f8c242b75d5e66e8463ee
7281e47815817f146b5b9b5aa20a29814aa6e69a58047fa85ee3df3690dfaecf
a3cfead3b7cbe425f692ee2e67ada938fc178134b57d8fd0a868ddbdb4ede0e0
3bcbc721beb2bc99c09cdb2faa28667ae19d7b958efa018652768b067bd6b310
d54a2c2c0d9c3e6afba2977f6e3876674260f66c859213768ded744600931966
dec63d784f73816f9639f3c01fd5e5b763edfcf5094c01d649e9cd54f60f96d0
77906cb9695fed6ddaa0712b983428178a8baff3f82f3896d18724e9f7235958
dcb4427a48c7e2a6e1d7db9981a1ff70f11eee7fd20748a1df629716dec4577b
3fc51381c196307f93ca9c51b3c7e5b8ed170159a65eaa2d91b66a7ff35ac996
3b1a3d05736eb0c08118f3dcee9d7bf96b4c40cb6c9fad607fbf9168de2cf7a0
568dca67d103bde5c7cef2ebe6a0025b32965a2e6dbac646c67d8aefa204536d
cc9f3341395be9af827959e6acbd0e7e9afca75b1469dfbdb8828e30f7c40c30
03d0476bcfb83a81ed62a0da10f74e8adf2b487e78f3f21a7f0d23d0c41b6c3f
e259773f7562ff697af4ce1d002a81964743318eafa0d035fba8f739c31e2419
e9cb7ffa4ddc0dda9b0498a1cce79c44acf914b5168d75befd74a87f7eb4d4a4
db6d8a1e3ea77b8a9d084a42b8b5d48aa12aec13f15e5616efa387fef7542fd4
7801c2812749cd1feed86102cb0c92c12b31c51505243a96e97907915de9cbdc
e0eff7ff0d2b76f4e29e8e879fc37f9edace0b493e28f8ad3e36bde236ebc1c9
cd44f07f1fe38b2ec0040eadef70da812f5b0a186b75e59a04440f96e3c323bd
5725fa84f0c2bb43da9b7321e926833a64b927e03666031369af51b21897f2fe
2bee9bd82b8140b08e2ad77fd7b100f537d64d43e421d34bef922e2bf4b6db82
f67a6e639bbc9006e5427064648c28235cfee4c9673d77ce3b81fe2d3bd8021a
ae40979d12e017faf0f6c5a5a02515a0f07c79f4ab5bd17e42ff3adbef4bc612
b27771e304766c824b6fa9fbe7659c67d8afd1fd27e4d8b0b171eb142dbe9fa3
b2e96506276f2154c1314742420587b4810ab9c1575de57f28e9f30614a3ccb6
bb95260e4468a5fb9af6c77ba19a110d262dd181e7f40a4573379ea5da4a924b
355faa2b529322d5592def8ada5b3e9efb344dead56878d75b5861176ecbb00a
e51ac478dce687c5c9164dfc4f99e4e5d519d1b75c773076e9b869227f937607
54f809c76698532fb3f1cf665ae4c190788938983a5ee7a68bdeb50014daa6f2
3ed5d9e7ab2e7f8caedccab5e0bf00c31de7f983d722c450d16cde11d6f1b97f
eaf8409a778e5a816ac7fe8214df7f01ef99e5c1f1575bc24b5211eaf5e6b527
8968c8ab1a481e9356f97fdce1939f0677669a61aa16c8c3cf3c4a81de9242ab
3fe884cac0f52081b6e08b82c3ebe963a9fa00adb6829f816046ece1f5b8163f
dea314528bdd7fe3430b7a93adf635fc7fe81ceb1ef60e82bcdfbf4dbd2f85ea
94bcb14c997c86a45f8dd5fce02451544689ebf339f763112d7bfe244efe1a7a
df0ebeb93335fd631c158de54cef6a34b73572fef37ff3d87f8db19ddf2c09d9
f44ee0747379b00ca4cb684016d356ae7d2b29b9743f7833d3f36f5a9e3348c1
702f7864042fd153d71b8b8c9929c16bc77c0535210340c645bfcbac81b1648b
bb55cecfcbe745898da0eb814d9f0d1bbed2583a1d7f7c254a145609cd9d0e81
d52f8176ef3827e2822ff34364a910b47fad77f076da0675e84d7f94c130e8ed
c656080149810aac47fc06d2eaf4e957fb9a913f4868e18c9fe41fa0dd9fa43c
f672625e4ac79e391554bf7f5fe40e64b26f660bdd77022b65d703fe2f7654ee
34a518c2b2ed5bd3bd9a8ccf9f2ef19c2153e1965ee94b02b3daaed9f151174c
505196a1cdab162ccbd383c1c36c0716ce4d083e93e1e44b6ebac9c46d6421d5
acf6943364de7f2296662a5c4f5beb9133f60ef7dbde4e63886fb145877d3e41
cbbadd37e5671186ef157b642f2cde6d9fabd634dd697f557f1b90a016aed4a2
4c86c6676c8fd79bea5dafe418753abee33f317f026f1e9be7d2effa6bc9cb7f
f34e8e237cf5f63ed38247f4dbc973b9b3e6fb8b7c73fdafd89d77d1e67a6e81
d9ef9f3db753e29da05d113583f631600e91cd2df987d07f8cc82ae0788bb518
5f79aa6682262e3496f6344b787f74118203161d2478d4bcbf0d477e059720ad
3f56318da0a59fcf24797f4a667e4b222f5bf981a1cb89b8f69db0dba7dc9bb2
c8c0976fdb72042fe268e69501e2c0a36d71b8a2f9e23aeb64b39958c0cf92fc
255038c9bde6c4bd4dcfeb509b62e52b81ef1c945edb13ce972f63265688817f
4deefcb9fb9b7460f520294aebac8be87b3c646605adbb15814809e82f97f91f
6d7d30425f9ad0675f36677a20d2e59539c9780afd8afc3f608c0e55e9dc061b
d1ca7f9497f8e458faf0cb6c7fa10ec5da52c45046c0c2b475f19258d672d703
e76c10ee0abba97851aa3c84bca73681bb5c5c9ed5e920faf94d68b01d9f583a
1489740b4db78dd42317e5c2a76422bc90e0af577ae61d931f352073babbbf7f
bef38137df73b2a4ee6381ace1d9c4ad78f0c7e3817919405e5d6ae71d1062e7
f94b44fac0ab577f5c7e8177ad3b1938fd387f2259a75afc2f49cc0ea3fc0000
4c8f1f67b79a0e220eb5fd2907f850f64988399957370aabf97f19812717203a
6b590aa03f1d99c7a35fe1727b81632a8e227f67022ef3c733fa2b58bf49aa34
cead279385af630913e17fb4d6ece564ff28d7a3f89323585d9f26146dcb2f1e
434cc376b65ea76691d2fef75ae942dcf57f4f13d3b5c8b9a0448e22114ea466
440e2c166315a24ca6bbd1173dd791d7fb8168f681f302febed2e394365f1b25
99ed1d1207bcd7d9507f6959b9d3bf48db2d04ba6325b3b85679c55069de8165
75dc9aff6a7e8116ad4c7073197b2592e57f6c5dedc69b9b90500523fdccbeff
810a7b732c8ca5a8e49fd9c3025ddba8074b674c9d63d0a83b6d9016c751a051
778e44f885ed842a8ec77dbfdbb20da8cde57c21b333e0d5f262c16c3ead8260
f0c7bed2fc6c4837c3bda54265f1c1776f92b10cb39e195f948ea9c68ef9317f
13374b7eabc8784781ff83677524004381fa59d3b7ab12241e6f40325efdc70b
8f7a9a1b717bed2e12d55e47f66aa66cf9591bc37906eabf4529e838ae738c46
5d8f857f2fd5b753c462b90c8fb6b9e38e971953eb6af2fd4ff118313c4c19d8
7f881811082dcd8b84ff46a481c3e8af47869982b7a93373b1ed3e6806aabed5
7a750bf1561fd95f82a4d78c397b74a8d39d977f9498017fe3b23cf9bb538f0d
8a687de272d7774fe586f8f755659bc6d9972b7d7e96767981a774609e695dbc
7ced1c0f827c35c75dd549f712199881a583757f57f3bdde799d7aa1b2541ae2
a8fb1af5bc01380f257f7f930ff3af07fe25246e71249002694ed6a654f759f3
ad12294cd39dc310ee951d2d03a24a6ada4e6f346aeb906395d052f875d5a0c8
db4b7c6f7fae4eb874af338b4cd01c8153b747ca5e8b3188ee3a0c6e012ae644
b87743af122644aff24aa94d974f4a7eb4f98896481282caf08749dcdbd8f2be
89302d4ef4a799133481722507a172095bcf0477edc9a7c4a546145e2fac1947
c97f1f48a821e83adeb13f8c30cb341c29df0724e7437981aebc4581fe664efe
7aa781e6f065db0361315c81de1d98556a77af1068e5d981dbbc5ecbdc5d7e45
35cc621db8cfc058f33ba67762ca53de26885ae9719f9510f8601fe15e67d1a6
c85d61bb836464895b5b8196871e9181c0894263baa3e1ebf49dbe33638108d9
b6e984cca9abdd86495683b7e7c37c00acaf944508a9fb81ad02933be23f90bb
e0df93c5de783e07774e5781bd7faaff25bec8a5731ff3ae539165b4efc1c5e3
ec977ffad3043284dc3e46be4b14f09844813f946d40fdd43e76ec757f5db182
56ee538fe07799387fd38dc0c57e9c357cba7641d6e69d7f011c05365dba4285
7afb43b23f630a3c77179ea6afb48ef83306ddf2cbab4bfc65f50e92b019e1d6
f1ddfa06a4b20b54eadad1cd51f4b479bb7b7ffe3263dcf74afea6d506957fba
a5fc4e24cf9875af27b98b9b37769d66f1cda58134824f3f02bed38d4bf37add
c78b477be3dc6c60ef7c0962dbed6b7becb05f7fd55ba681be6281bb57e3138d
886df1abf8faa2b15ee5bcf48f09a8f6998838ef3af1750c3dd9447a7863833e
fc8ef2698ec8a981f92ec37f387f4d8ec5b75bf76c8fd1bf81aa775fcba7abff
4425f42a75b333bcb47d53898c1e6c8c130ecafb37b9bf30916c0de93646127f
54867fdc90c0709aafcce3985f8230284fda7ab8beac6cd8f07bb44bce7fec3f
376e3b6093ed66a19c477d47e65ee337bcbccbe3374da742e8b2abc6719f01a0
d6704094b0efebf44c9ffa8f045b6f251c2c70a18f97f3357bd37dbe1fa2ac9d
6f061422825b89215c5f5ce56ddde8eab3edde3d7f54ad5a72ee1e4aa3817f9a
d7e411c4ed826e8a7988c36e5ced138d537e1f1ad7b717a6148d980ed25fe1b7
c38358e67f70d0ee1151f7212fad7fb639c888aa53bdac6673c2294107be5978
5eaaf6a78139bdecaef4f0dbce632ba7dc21724af4bdc476e53e4ada81e05620
99dda58681c26c5df9b4373119ef6d0711ffb344fe3b847edb46c1da5d767619
963cd2ac5f5add7def8196d8ca099dc457191570b7653e9cfa41af27878ade82
f1c0587c23a087565f8d7270d252ae09c8ce2181e3c6336d335fb3c878c3837f
f8577f7e41ac7cedd53bbdb9763e740fc53f2501668dc581708dc5aff6e2ff53
5935fefd0f77a8a5ec36a43d2b90b6da5ea68bf6fce142cf558d8111815481f3
328104cba3b71a2faabb5526467653a20024ed7fa5b64751bb6334b0675b49ab
71edf4aedf6820fc4e8da543dfc8b4aa7ab5f8b4bbf03e466d92dc6cc3ee605e
cac5141dfc873b9c480bca637e385b315ffa72bebae370d95601b7d46df37381
3101abd81f45e249ee71de3c68ac8f87231dd719eebbd23edec9f85ce5f972e8
5f3cbc819d5baddc042faeaa32dfab26879f087cd6292cef625d42fbe3d3509a
cfc06a98eaf25bf468af5246e03753622f555181ece329276b1d81de0793db14
aada0de043cd029487bb71cc42602d35f01541bc4e0c81a927f5e2726e289303
6f1e2dcffaa5daa4193889f49bcdd8c8ed354133b2bddb2e788a690e2df33881
2048c43cbcea7f28a342f98cfc779c49dae1990dba6e295c49de241374d34bfa
0c8458bbd5817b09e6d63cdbb8046edbb25c4e07300673726f78b73f7725fa79
1afe0065144108b51f7cfff9edb2c849f1cd72f60e81fb52f37fa979b95b582c
48e0bf2d6d5b4134c4956d9993d0b4716bf35c8deb93fa8d3a2c4df13cc7513c
98be76ed44a4588af917b981fadbe529d57dab1c018e019fe7e881158661122c
9d6e3951993cfaf0af766347f97261c1b976b43c53aa8178aaea66caa8fdcdd7
9472eb5fb3d99ce8b7a3a4ac8146e881d52acc46fc6c7c8ef0ea31f61b602fe0
c950a4f04b0f6571379b01e80f8832d45b3505deaaccc3c1ab7a89bd9110b04f
dcda53c51968dec6d3880730bbb121b6b6f1376d673a159e67897fd777f06260
b7fff56d6b5e0578626dce7e03cf973a7d208dedd55798862955b864612211de
00e055960da5c97fd3cdd1d5b88844d0a5544009cc1026f3f653d50b65cdac9e
6eb6877045d71545bf38ec374afd2c83755eb5fb5a15ccd0cd516f9f1fb5ea61
33decafeb9ae7f1c7fbe2d7143cefcef22c8600df1f4695204df35bd967fb70f
f47a6286231492723f63312b6acd8a2d93d3a2774f7ef978cd3e54e70278a327
3bae136675be67fba09d5ccc6c7d1dc89ecd15e466a83cf231c44351dcdc253d
1367e07fba97cdd60f0995a4097fb673a30e0d95e8f6000b7375f054ba5bc732
81e6ec2ad8c2ce043aeef5eac531044b8dab6626757f490e43fbd086f7b0afbb
f96a7f1f632ba61189af355465ee632071af79a7f7bf963b0156e4468afdc3b7
0ac77ad238df59939c4481c93cb8efe667308f44caed7f26091a39af8dfaef69
d881a01d4dd691cd5977f2c53adb819eb81203cbc6360b47beb281a114d5f0a0
ef45a39bcc8bdd9e0aef3865879f162a5ecd6dfe93f61d05acafe318c9dd0124
a89b8172b6daf0e8c2891b21d67c10f0d5c62391ad7a8f8ad0d4617f84a1af76
15187b1981791a30be5c07e546694144ed7217a0029b37815bec5a3efd7ef223
b5abe9d5b132d4dfb9fc081b37f2a06df54d1273a06077a5855481825dc70210
ca9a4ed2d8faf36e82528c90442d093e37e0811eba5e7139d8b646ca4681dccb
b83ce0257fbab8784db7d46e6e40235dad4a52a4f94d9d46af72ecf3fc0e57d5
6e3e757bee94e9a4906d2308675ba479e5d6f1aa1ebb6fc9c9dc4baad38f9d83
f340b6343eabfaf988e3bccdb6f4e6a8adba0c2a8d5f8b762c2d8cf76dfe1283
641cc0a969d0312ef39a90fe24d82c2a20eb25f318c63b4a2fd9bf15c2da9efa
6e57dc1fad5046f37199442dadb61b7fa7f1c79e7834067c8ef2973ebe2dc36c
32b682604fcb4300df37611b7f02dbb21daa969371dbfedb81c2a8f902be919e
46481b44cc9f96a99c7e6d125d4aa0c2181e26837eeece72cfb47b3546819035
df521c08ce5556d4fb915fbeeec6be79f39565e37f06788a2b823e946bf1f555
26ca6a81fb43a58c3b6eeb817fc0b581f7813f8aa7eaa823cf9de9c347db8139
fd574ee16c3d9ccafd169476f98172bea495824961fb45a2bc758d02b98aef57
97baa98696814a8581e6892eee17efc3ce9df2fd99baaeea7d30521297b99259
faa3816ddad5826ca3908fa257a67f7f91b9ada5d4af20b62d58501c99e14b6f
438cf9c830e17f66f3696a6215ed9e0c3936ba682c5519fb5f35b6aedbd6c7a0
3ecd1a149c3d35c5e43d8181a7b5acddddccbd003a4d94acd27781c3da5deab3
eb23777da7b5dc0d6d430f4dd682cefbcc39c79d8ededa008661d382eb01a015
9f9a3954af20a3fb87fc2d5d937c6ca158f498b30d4ab691fb68e317c917abe2
f17ccd81c30d7f602dde82905eb5494467e6e5140b6ebedc01e42539f15b5ae7
750e61b9b49f5d56724803a16919c607b3dbf93c5bb57ea9d4a3a6e12ddfdaba
1c2181e5558e4d58ef83452b9d26c950abae81b3b861c2ac77f07825812ef40c
a797cf2e87de011632eaf32c64bf1dd7a8f7a721009dd38de49424a6acaf1dd3
eb7b8e1c9779c560a2cda373f268b35ca26c16555cf563746ffb7f7d8128d013
c0ae72e4bb8d6adf9ddcaa4d54580c37e002afe0acecfaecf26d1e041c705f08
d74b590876854fedd47028319ed9e5c1576e81b82a8a4735fc204284d1fa4459
a5c1ac09ede126df5b1a784d410fc613d05a344d5d3779810c3876b14e723386
9460ce03ab4ce77fbe55fc4d8e35598c1f7fff4c4b42d938f569fcefd53209c1
f63572dcb5be21ed819cf20e7a6bf9d847ebce57e76edac9cafc3dd8c2ef525e
30012cb2bee27f7f25c9b1773eb544a77b12f5839bf8b369f28874a20f5b7f28
e481b62945f384d6ab97e12bf5cdab69bde3df51bd7f07f2bb63bccda2507f40
eb33d1a41d4f7b734286ac61770f827a2eed0e7d330c1c38653dcab9796b8ba2
212bad8d23fb197fffa5f9e56a62599d9fa54a5fbd650284d981041723e66013
00e20bbfca7c111c79757fec59898e412630f8e20d24beda76da5f62897e51d6
59be00bb24c699834ada657d93f383e4dec5fe702608afc17c1fb441df4ad10e
e2fce21b5ebab116ed0f0f81693e6d3e928f0e857373700481f06c8181ffd463
f13aea53d11c6f25adf27d33ec7a283c030e8b17f3b7d6cf736b12e4975ebb1a
95cfeef2817b17b6a0fed8921ef57fea79c75206b2821055524a3e1232fed93d
e433ef66f13ebb11783f9fc683f6d42c27928b7c7eb1489aac8b60f1889caf87
efbd938cd18173402fae7ff7330f2971a01542c304b939beecad86b011c7232a
d4f91398d02f129ce481bbbf61fdb67f8ddd6b0a8a81c95a9cab0b6cdb4bb5a4
dd577cb778e7aa00ec0965dbedde42621d016c7faf0f4eb91336c542c336474c
010ab0d1ac5d23fa2ef3884c1581483281a098f6e39fe87f9d5d7b09511cd982
8fd30f3faaee6d1ad51d8b8a5d3e723065f63170eaa8e91a260fa781bad3f0a3
5a8117246fc981d72d77667f50a2ad3789d5f5585b6bb4410a278279690758c5
aec26a75a9357f06bf25de4c2a9908797f1981fe92af55f0acbb5f70f2d06b42
ab5d9ff05abca0c2e855ee0abd7463f23f6c57dd1ebe3c7fe9bc850ff33a4c7e
24aee009f0f3028882ab90e73754c997406fd21fd9b9c31681476bb89ecc0887
90d8379aa6d9de7fe2ebcd3500c23784a62650e2dd9b4bdbf8ba007e8414d816
8d7d363266ed683d817f09dc9f7158bcee0f53f801233a24d9770f9be2e7b2d0
7ded0d54dc67fa4ca61b0fdf3c5ce93f96fc1f0bf32b3bdc7c496403be1e4cfa
a5732a88104c03817e33106e4c65013e097f189293b7efec12ff3de8eb655c81
ebc6efa95afe509c09d8401ac3fc502ffcb2002d99af0ae62fa0dee066edbd00
1eae794bd93bc1fb94817f74fafbf382681341f3ba371da7bf2a391637c64e35
18ef4cc68932edb0fd3846b19a515d8ffdd7c5deebc9c4f757752b46745a902a
d7e1d33ff683bc830787dc81fb510e31ded2111b04c71163e6477ba95ae7374e
c199844572f963432738ac850cffe25158a53d4caf5a77da29f92f3427a582f4
37eb56b93ffb234f93bdc80ce7d3fc714ed88c6984de92ecdc7a6f9aeae4887c
57d938524b209037aadc4ca6cd76229a7637d22a7881500511f72b2ce6752d76
f70b4fbf8beb9548a1f396b4ad35554236185d6f3ecde24cfd29fade177dffcf
0a9788d7ccceb896f65c7bd29a4a3c497046b31544c993256bb92ba3a132db6d
e23fb532a744629ad601839dce2fac46fae2818181269032eb5d5089cb37cf48
ed7e230bf5d2b4611f8ae01125073baed2ce8cf62c7f19cff505e61c6ca731f3
1aab46aed793595da6af921ed80b798c367fa0eaa4825813f8d3006f655d6fc2
f23bad40a6d36998ed1e16556ce735b63abd2bf79d66cea458ff89d9276f113d
d8755ae59fc6b2a5e03832b9e04fc04e5addc28cd6e6d55669fb0920dccde225
7504fd794506ab086d1f067f0f2c73facd45f9b479d9f0e7e97c2daa991072e5
a3f9c17fc7e15da21998e6dc5e9b6c96abce285154cfc24007c15d0cb4ed9ee2
3e1cd69471de7f03811d1927a3847f7e9836b0a3fea1c0b9e8a321c5fcff4757
8e1413dc978cd09a879f8e49c859bb65fe17cf69d0fa714cc6fc1b2bdc06bbfa
1debbd66d40b257fecb4c8f17576ed817aeae1f9eaf9bbcd50ab7f1fadf2aadb
a0a1e71e797581e0adee6f75c54537eade6ead9547cf0d5385c101c6c2e97467
7e645bbcff0497bbb2ed02c97f7af3ff18e342e47453ffc20fdb060744853e07
df077959ae4d70625d224d4d9dc73f0e077f6356397550425504d27fbc9712af
a2511344567bb9d23c8c88f5dd491a35e358ec7363bd6c4dd881f332e7813216
028eff7fe07ae86f33bef39f23b6f9307f30b68183d4f2679f662157dd855576
b37a27c9816af92aa9958d7d8bebeabcd67cf78a63480944de7bd083bd1701c3
454608c9b379d85ea5971916e27788627568504cdb651b5db761df758146cee4
e981cbabb7c30f25f2b66ecad4bf2e81058281f5fec996777ccb3d13ce0d051a
7a3792871b81120c359e9f60d35dd4547d17cb8488f6fa0e7fa3e1a2fe8c9622
2ebdc7fb9f78ab7a1a81d9d91e95ccd3aed899d87d17cd1cc9947e215e757f1b
b11e81d309175f09ad9b71c3a26e0ecfc3a05ede7c9635efe367cd7203b6067f
6af9f72050fd83498e09c7d6e26f10ffd1f5a4297ae9a65d0ecccf1fb57ac9cc
e35923cac6777f8412fe72d9852bdb02bc70697c787bd7368c81b91934a95ccf
c795e72dd9e30782f0de0056a110b97f0c48a2716d174390a9deb4ffc7e5e5f1
5f7442e8c7fc57774faa7798a776c388e9e5b97ff329175f0e0697fbb8ee8a11
df27101a9eecad4b4019073ce73d8269b8b63282fd89a96a32b59c5049cc8197
4d20dc39d544818c79bc28d68e9b6e1e049fba0a6832bc8dfcc5628ea918ecec
3f8718df38ad65be3d069e0aa76dd2e2772dc91bcaec7bea51db5d18e72da75f
7ee0ce0fabea236ee758fdc1bfae48f41e68710777c37fe268ee73ef46b23792
52a17fc8d8f24e87b37cd5902fdc2fc01a2a0d21775ca88eb3ec7f5ccf02791e
75cd6e103cdfc47763c2f297f74c6a38badcb9a53adadae6fcd4970b7b27142f
81692b3b69fc0057fc635058b42f7f2c98f718da57b32daedd0f72a35ca3a7c1
876f48a35dbc6b11b6cb4e00f823cf849e310b52503b9b11fd853996b969d3b7
6a7b99fa10394b3f1ffc91778fb3bfe795dd9deb035d1381c7e3d1690bf7d8ac
356d2b2f6d3ed47f503d03cc1ae82da107bd0d98aecdae3d50115bddaaa6e0ae
8f1d02a660949f88d5ad67584761aa18aad2714a32b972936b9bd22426b28164
2bf63928b1417f177154bec0771d4f8e75f1e9a97768a88126060f87af353c17
444c0bf785f79ef2fcdd08b39b6d5f0861295624b5573acff2491e9f74228136
daebc2f07fba7701d5b3ff36da482579492c2056b89081a1bcf41d527c0043f7
cceb6a7296692e28227d840feeb84f81b74eaa3332718daf82e56b8ce6e95679
0ac31ca8747bada0f6d336983f84bc6306cbb7637f3265a3052a8a40914681e5
9795fafe208e4253f3c33a6814d3db0d427a08c42dff37f1799df6f16bc61717
fc55d57968ccc3303a8e2e5d3b6bb0fdf5b8ce3744a8f19cc7a8f7a99e57ce7f
97da6fa8e34f81e41cc61214c83d7f0d01dc815decc7ddec37680d05dad3eab1
d32d1905d6103eb107fe3c10985d227b6b9bcf4cc4c0d882cec72552816a8163
eb87acc17f97507f4c0681a2de56f7122bf57e4d094d32b5bfb4df5b6b7afcda
3e6c81f37f3452d0057f901551642feb387f81477b5564f521cd9120125b230e
e405c806fedee1c2dbb43fe69350df4842d1c07b899e5c20cfac81e76fa33ae3
57a7de1f5d543ac00aa0f1569d3b481abdb4ddcfc98153f2cab78206abe3f343
cff92e24ead627beef4dcaefd8c9407e9c30546193fa075730d33a817b738581
68275f77c5856d315e3b5be83ae66e8cbf2f819a0571908c176f0253d6b10dd9
bd56b2f0c9e5acb97306d0905de6aea56d76e617aa69be53d6a93ce023fdbac9
36b31ad5e72b1adef31181274bff4d65fb7a525b395f277ff5bf17113e52dcd6
edc113e4dbf6a111f9e42b4508bec51725889043d12d68dfd0fe874e832557a2
5f9a354c697d868f7f8d3f286f93898adb4b8a72e47f32393d0e14a55bbc0cb4
03df0e7c4f978190ffdd94646608dc7f0436f7b74e7b891c1a71915cba2ecc1a
a696e281f229482f74fc8bdcb3784881b99a3f666f7f696f7f686d67097b68f8
d46fc231a5477f2193d32ae1bd4d23b695f5695ef4bce75590083b58f26d7fa3
2871108dfd1c56d446cbf3e611614f5f23547f78cbd62fdf6b20037f7ef7077a
aa7ffe04e7a083828de7c757f54e8b5760b9c1ab985283af57dc656368fc2754
ca770ec207822f577c7ad5329ed6c867fe43600f015266a460ede3746ef4476d
52f6eef2cf63d7b4ed8d9960d7cd5a7f8144a9c072bdea2ba8c417e1451d6f17
79c0cc66d41812607f9281260a8572207102035a17f00f4928ff75f70d26a07f
b3e3d8a72832bd75502a935a71be0ad82cdf11aa09ef286e7f7cf7529faa1a3d
7a869c3fdb1d67c533787ff185660a361f718a8cf6177fb416c7254edb19a53f
2c11c8b27f023202bcc764530d18fb7f7f78e9eec523fdedf356577c78b10607
dcb960cb1a3452be63287f339adb626e756d39d98f68b7ec27408481ae76f7cc
a84f450d6b6e0c727f1a4571196676cf51ce01f655de857fe835e9e6d6edb310
007a1dd8a4ae03f59dcb99f2339b7226601c2f8f5431852eade554bb637fac91
c6d70db68188bf64c4537fdc6ce7542ca9bd81f6815a18e25949252484ff42d3
f0791b7ef6a67f33f18154ab0edfc04034c7f88bd8d786860fb2abbb95a8a52c
beb59cd9c44fd540ff189739c76b8575bb6e42de20470c1049df12e6667c4481
17d77f33738f9f435c81488474cf0e7fdcbc7fd6f259031d3b72e3c29776fe0e
e27a48a3d53b58ef2f49ba24f3d70c39e6448e82eb8e2c2c25224ba225043e19
e168ab9e78c21eb5f783b3930cae7fdea438f081c9027f2107ef56813a549efa
bb6ce6f146b5cdb9d52b81dc8f7a81dcf48fc0a30909f669a3cbbef3facc7f1b
d2a5cb17fbc2c003fd3eb9bece19810d4f075a9b7bc5bcfcc6eed83443ca3d4d
ba7626afefffb5304d5f16205deb1c7fdf8d7ceb995f85eeae5d07180c8cef1d
3bf4e300f31aba74e678b781f8b61d6f6abdd08176ff2bc6c77f4e0ded27d79a
76e162377367947781ce81e0c8a75781be81a2bd75ea790087d2c639a5bc9b35
812ac35c219b5fc2e6d30dce4467be1334e8d221c8bbd3d1d59b449b9db6d544
bef0e4692ba3c9138d627f92d5aea2519e7c5182acbfc134d202ac20696f228b
b916d41dc7cdb3ece835d3c5e873db8bc241fbb35cd792ef8d292554131bcd0f
5b617ba47f4d02fa666fdd6deecce3c8bd78eef3947bb9059dabe87f9781c7d0
f62db9de25d173c6a75a6ac6b1f38127f27a278195358145b26ef742f2e519c2
3152a2223be30fa595fac1e9fb76077d47d6c8a63f716ac3b86bcd31e4b5ead6
eff60eab945e421bb4ed2d8672eb3764dc5f6e42c286f8615b5e723be0d7a674
f4cd7f67573a20fd3d20a6f9957dc5345dd9ffa9209e90baf45913facde99634
0bf3c77fadb5d0a2733078ad6924dc2a147d2259b755c1fadea6997990d8db71
f7e734271fe1c2c0b9d61c6fd48b45cf017fad2abbb8815b6e737f6271ab3b64
b63b81c2c4fa17e3a4cfc81793b7b12c7f520475cf355abe5e6e10e1daada8ad
b0f88134ce8feb344e1a211e09872b7fb87f9402be365c5adacac08bd2e2d091
2d81f844a73cc433b35d543b612d3cf6826dd86fecdd4942e5babad64cd47077
aed3b5ed7f82f833e79bff66eb1dbe5b5dad1cfe46bba9fcfc41385667d9d848
f016f0ce6d37ffe179d56b8726fa159484fb16fadf54ea27895aff4db9d16a0e
0930b25d26d6ae309bbc182e8133d5fee5b4292762aeaebffcc62681cfad676c
ab1f3f0f81a50a06817a8524dd47100addc30a7fc15f6d282cdcf4c7bbd404b6
866cb5a9d7cce116de2392f6baad985aef812bfbcba7b68f40df7081c585149f
bfb6b881097555fdef54a98d8c2e7522d3207c17dae29cf1e78e8e05b092a926
47f6713e8be56512cf4eda5a636f385e36e7f022603d6fc1b9450d9d4bb78181
02cbdadfa6bbf81fe94f40b9d766884b9cd908d7e6d5bcc667a179a8b2a3dc0f
3304d8a80e15bbe6ab6d4edd318737987f5876ac1d1a03903fd290f7bc1175d1
2dbd5675aac91ed5732a0761c779fa6966f6197fe0e190b05e9998facb5d24cd
28dc44befb38e92cc1ea367f3b4cd6b35e9d2cea9b75216f21da143e44f26233
04fee1bb495f3eb1c6b72935c876741e6a0e49b14ea278f1b7e2717fabf70ab7
f3a3ce5a7084d2d968627f89cc5fb081ce7361a861894cc9845ec64ec3db10ce
55eaa67f1ebea90fdce2761a1b0d891719dbecdedde830c2a6f019bb8661db6d
be7f7fe5e43055c1b66eeffda76ce8e0f1aabd7e7ae99b819eae00bbb6a826ae
fe64c92274da50919cb3e3f3cb9e814fbbaa1954372e8e7fd5b9a281fea4c549
652fb1ae7f26d6883939317f697881019e92e64353f57a712082b57678640d27
0d2b17f83d01c4e71f7365cdd4818cc97f7b8145427a72644fe699136a03149f
4fc763c9e48119093d3af95357dc7185e5e5c7677f9d7fe25633bbdc9bc79500
c5ee9e11f762c267efadd59d82a363810dea9079e5aeb33c08f8b80b8f0941dc
f0c7883ca09995acbfc26db0d846064a5e54e7017ad41c8ad8f9fe818743b0b9
e6ced2427803af1bb00f45fde2fa111b47eb3ae9c9d4797fc03c7913b3d3a461
90db8720ddb18ec5e85b4b7fcf9750a50adc0c0fd1f6c82e5821b16ffb377f4e
036ae8ec2da8b73396e7bc17c50fb781670976dda55235ea36eecc1a8270b42e
37b5720b9ab63fe6047ada04a7f468025ef4a9c3df9476daf76bd73e7e4dc2a5
e43154915cf97173d8a57ad0413ac16e2bb1a4febe87bce649a8c94c8278b5ad
7bfd8ae1df3094dabfc421e02b0fe77f241e330ed03f7ffbf6e84e078f13d4d4
55f63a4093a96a7fff7fd3143e5def06797cb2574f6b81739cbea103cb5bcd6b
273e21a98f6d6bd1ccaa3016e7171dcba907e2a74d9fe96f1f89a80b7e346f7e
cd724f50b152d7fbd2f37f6f36095c9b94d0a03ba572fd8b736dab8939067d76
cf4b23f582d1389cfcf8c7bd87e75328cef8d59e86d8919e3781fbcadccbc540
f12ca296bdaa7f83aa78f51953cf241e5475291ebc792f7fa8f320be5d4fa9f0
84008df4f9a14f649bab82ca90473d5bef666ece8d79160ce0fe09e1fc984219
9badac908e244832b571a08deaf800d16fa5b58a799806d2a153b78b8f3b4c39
d1d8d2aef5f0e8b766a78d85b1e556d68a04625ef34e27e3efe22636e85230d8
ba9e1e11861e78ffc5be472342263eb3c1e051727789b0b7bf92815b16030ddc
65ee6fe78b5be94a73ffc60d79e919b0f8cd6100c85916ea077f24ebef497f5e
d3753ab6f65ca3dd3e558127b927ede26a6b75979f87c993c16b957b2bbb5698
2c2270634adb431c9e9b1c2333aef899bb6bfb3f51e3a514f4f45f633591f305
83f781458bc77b29d378d519f90f885274b7447f2c5b0309cb7feaba6b5d4da6
26ce9323f29b3d84edb08c9e1c02f4df1102cd5fed4e1c7bb3f081bc6550c574
652e36815f916339e59bd229bb8124aa5cf061d1d6fb74c812fff48c3d78187e
f7586965d5e6355220df45c74df97fb8d0f7b39de6861d69d902f17b3e7645e8
439c174ee7c95e195c79ee96aa8740770acb8c41479f9a8197a31a7f4cdfefbf
76bac0c48628c72159ed35820919816be8e494d6dfa03ca73db679a6f597cc27
14ff250af81cffe2a4613699373e81e2ff1887c11de2a0f1696adb019bf86ced
7bef333976ecdc8b5662813efe6219cf24486ccf6bd6c16b913b70235c170530
dfd937bd662f7e605fd84bb0f687cfdf9c39ee09fa819bed66d70fbd660a15a0
687f30d19f86210d9a4febb15df4cdd1b2dd0e91ead38c8b3bf6cf7b1dbe6c79
cba891d349fb28ff7eb9dce6a39e02ed01e440f1d3cebd3e5895509a5820f13d
b8c41b8ce02693337ad3e6553a623ae56d93fa22d3ccf9a0db69557f925b6e86
69f62c4304473f7f23481ab4e375c013d6677f43c3a367e38a0f763af5d182be
817fb47fcaf6c68125f136a37fcd77fb2021c0bf764fc32d853be0cb7d829813
8473f1cfbf42aeca2edb45d2119a7f0762f7aadc46c828e5f399cd200545ee44
c2fdd5fb4166edaa262685a59cb7d80bde4d8dec7f9869b22caa3ac4dce57ead
b0a539d6ed39d72d8b17871b962e9d7f7f117ab1e27bf60eefdedb2e1cbad3c0
4c695b2e26f4899fdc5eee901d7f500eebf692e1f9326041e2b7f8dc15ef607f
ce4f2db548ecebe3f4814471ba579423f6b80eccce706aba811a81a6f95373d3
7cb19fad2b7e6b2c26cb63c20d1efc413cb08181ecc7325a73225e7e7ce9c2d1
657f0e1ac86337fd6ea7b6e8246a9018100b2a8ef87f42b7c5d78900a3b9ad79
d6f858394de37251b832f6466d9e38a5ef98cc7604fce5ad6e70f2bda3bb5c92
6f7bf5d6671fc0a95945e5f712b1496fc9787f7a3d3bcca2cfceabcb2420205a
667f105fc7376958ea5d2040ef882bd9ccbeee0a7f81fcb1aafaf9493ab87fbd
fcd8bd0f3ab3f9fe7f2a90c549fbdde76d6e295fcb6d0d23a2475f7fa7dc6a19
74fa0fc44ecf3ec27fc41a599beed9cdb18bbc24eb8bfa0672b1e758af83fdde
96c88e64b3813db579a7c5a264e61be89ad3f7e0ba5f0a3c7f4aa8484a4f7111
57f27081e7814c0f58acb77fbacd83d69beaf8eff2e48855b22ffad7707f6d7f
4a20a304b1b77f57fe3307f95efd7f08272470e052dfbf5764c8ef132f6962b5
656c7b2aeed22b645ee6c6ee957e9f3801db3d4107985f30e8fad1e19f403c81
b8fa63c9332f2e509264d6f7bdb105d7d47e828fe428667458fc87819ed5ad4f
3af98acfdc6e7189ae0597a1696d673cde35688c7ba61a3af6b036e2d75a6e3f
ed69d586a7e6b051fcc94a395554a3d6da2829e914efd3fae8af580572909746
dcf84cbfc04d9f76a559389c6b9d374468fdfbc8327a9ce4caea13bebb9aec7f
c7020c4a70ef12911d349fff9c0e732c66cf4284afd4dea6f53cf27fa594258c
ff921e140b6881f1d9e52ba54805da37c84df6e22b5c5de9be56e25c77c79b43
fc723250596b301876dfb603dda5007ef5b883b29a3cf252699c10cf75d6afcc
54bb8878bdb2cc3c641c1491e197f481cb7b1b1ff86b3a0c45d78a1e8927542d
af3aa9ff219e1996be555dfa20b75e7bc72da4886fcdb7b4b98f6d3cc01781bf
5afad73d0c5c8101918ce55a1ef6e50db3cd6a7fb1e44a4489db8de437cb3b98
546201446f27013665cf23b3878119df39e58c3e9f1db029acb77a0e2e0b752f
7f5b3f1233c72702e5cd45cb078723dc7261ecabdb3f7f7eb5f42f5afdaa976a
6e3ec9a26f1764495aec197363fcb604f38b886d637396a9691c3fb7c577bd5e
4531711d57f1e461c1148dcc837f76be09606c7fe9aba738cdbb4bee9d2d9d79
ed538372869a312ee98fa65af5d34081c605c8fd9fd72d547a6b24aea312e09d
5f9c227bb8634e613210488f4d77bfea4fab75b8d5a8b24aa901d8c7d1f6745c
0a6b62431fba3255b3748c4e43cdfc44e6f97fffd51f89d30e287de07f653c74
ed56037d24364850f5f0d17f2805251231275743a3061705fd457fa8f38112bb
477e3c3de068c909bb5de716d766552f4f4f49e7eeb828d55b01bf5037bc916a
7cd931a977c94c4dec867ec781777fc7bec5b7d8b6f1a400e3699870070fe4ab
4d4c9e25fcd87d3e8fea5e0aee94a8d9f5ef4c98817c4e66749f7f9fd32bf6f4
e8de8d9bc4e7c576b3d8c0baba1f8e31afaa6f95ced2f20b3ef2f779b9d30efe
51c3cf25df70c2cd7d0596812743d0856a48aa2b69f621f88bc47f10510d6f26
c263b92c454e8dc9dd9c43f5d107a074e69e7219ec9e71a1d3dc226157e26e7c
f81f857ff82e1e4f504b2ec6babc6d1bd19f1b750f42ac028f40eec73de5b390
3bb1e7144fbcd170e4e2cb7f540297f25dff1a23b6ad285bdcd2550e5a5f4f81
071342425b472b4c37dc1264acaa7fddf6a023f6fa10fa2ce3f481cda6caac02
2afe7c8c53b33cd67f569c286e4f818967bc4c5410843ed489fb5aafbf0dafca
e05fffdeecd309cd5e154242265c81937f81e4897f15813359ec884ce4b2cba4
460905fc676456ccdab6fe8f5506658466f501b866b4de70ed2bac6c557a3279
ce9d349426c7c45e3de7b6337d870f3c5dd93d3d55d35d03a5f8122b1e7b2ac1
4dc3dbe33bcb359654d6651c0cb3f62baf04f9cfb68fe9210754f1e20a82033a
784dcfd4991022d9770f1a61a3ebcb8181a1b2e378eb94f429bfbd7fd4160a62
e3b5cf679bee15f2359bcaa4b7b149cfe796bd57edecde87e1f32b75d367efd3
8aebbc276779b2d057fe3c8a6e93265fd8c52b78f36ab8c17f297df234d5bb9a
e95364d3f6e14554af1d1328b2d48f149cf8ccfff6bd44bee5d39e3598ba7ed0
6dcea558c03fd829316d980b974fe9fdd2fc5fa5996b90e263316ab0e4f9ffe1
c279462477698be2661036d205f2e92ebd50a5ccdcadc6be762b3b7d1bec40b9
3c5013352cfcf5a15f6617be278cf28a5020d4146681e0da39e742c61048ecff
47bbe9c734e774cdfbbc791aee2b53f7d87e1d4b9a81b8860974ca7f5dd5c5a9
13b5617c5f2d8ebea1daf12b47a0b2c7da46a183d2f51526734e6f287e17ab68
cebb6a414bfdbe25b61f998f7c41bb1a9c39ee1009ff2aa87c73d14f8bd7919a
5d73aa2e0641de4504a6b213bcbc7ee5877711b287cb042dc8d45809bc6d6d32
c3327f431cf7e4165485f840f023a2d9917bc29d5bba8a8f3ee728fde4345f9a
b2a0f4c1c51c5d99a79b2ca0476fd367ce2c918f517b18d3d33e8f36f5e41ae8
3af39350be30cbe057b52446bd3592cc7cc70d1e3108a49b85a6df777b360df1
d06ca7787b87007f515e42844e81a799ead19fdab5e66c047f375bee6e78737f
9468e76f3d137395bae5717cd4ebf7255b492031771d06ea7e2b8d2261cbe5b8
b6e6a4cbe2a49584a8bb1927eb657fb6bbc3453607d9d17bff6e8b37fd15c651
d92074ff5fd1b8e323ea4e6bc981de7f5919f947e9ea5905913afe5ed35454b3
b9fdd8cc7fde9cd4795d827181450c0f7afec5cbed908104af65cb171bdf4b20
3cee009c9654a61b5654f9ad72cfcd6dce970b359bdc26b5905de45a79da9d83
b707e6c5b573454d9fc709e3897f83531a5b69a0b3ea7f19467594fc757de80d
7fcbc9a2ebf83134cd5e25d47ff01fcaf1b8a93cf5ca2a162f2f9bd66df410bf
93f604bab7f2b57c7fd4d6af8bee8124e35b2893d90d3a5ead4dd789b26feef7
df3d35c9a9f66195f6c10e8e8b7093fbc00575d9e19f3eb05053abd0cf7ab726
5090d88d4b819f48ecad3f1886f806b65ce53b8a31f462c919df86eecd56c713
a7737cb58cee7db52381854afc995cf4787e13c465130ba252c1d33fe6aba9dd
4e9de15bda5dfa557e14f6d4eee25aa7d5ba7fc63df4eccea767d78489444544
a487c6b76ebf45defc5aff522903452f947f3abe50b981f7d5b68cd152c2285d
7d2ee4277fd6151608cb338c7bc36ff81eb7a33c690f048b6473fe0b696f5e34
0b7f668ec757834e5069977f921cdf781769f0dbabe95fcc449f720ecf5f1536
4a670e31591ec4537f323c58839cae5f2d7f714d7fcb47a77c57f181d1953032
6db3d6518e7f1ee429ca5159d71b35bb9ff006eb4fe8a7441b97a7c05e6d3dae
39200c4edbb4a1851f13e9ba0110ef318f998434d86fb0ec0dd5a69d867ff8ba
bc791e11cc81d381b56b7243b0f4e1ccd3e16c3ee2e29bf1ddb8504f1093885b
8fd594114678835cda43be97fe16e33abb4bcbc7ad361a568136126a72dbdefc
8bfdd3d366bb018fbc97f6e4b441a6ee38b60f2dacbd25952aa599268a31a287
528ab4d15deb819635eb5c3f34737f55f1182165d2e6a402f6e27fe1d378e74b
9b6db12614f0fc9b3a45672da36fcc7ff535a91e66c9e4294eb362c0537d132f
3ea039dc93fca46ba72116162099b8c37e9e728579c7c8f7e4f116272c2c1fab
9e8518e5514aac611bf3a6a974c97bdb404e7fce1081f68eae5bd087dd75acb6
a7b9aa130a4b477a4f55ee3e7f943b49e65dbbea664dc92f51236dbb517f9759
cf09853e4f6d6be3ab4ac3b1b85137e8cf6ebb27b16f87557fa35e946ca4aef0
19217946b07ae5eefe689d729d117fb09be5997fe081964a9cde1c6d75970b55
6b8fde82d0e28587404bece637e6bd8edb8e6c87fdf6508fa8b744d0569f55aa
2f15321775ce05a3f9a7971d3a2b8a7f43985078e1f95f61517f94b73eae247f
8d15b104c81ac2acdab3c775de058b9d431c8f98607fc2598fe57347b4afcf1d
772bfc0cd2eee81193ec6a369ead9c55b7e8ad8b750d4b8729219801a9cf01fa
553c8339ca3f787f146142464292bd2a8a151feec7c781981732bcb1a30781c4
47de2a7f73940c117b36d3dd34f6e7626694cc031942c827be938f6d2eae7969
1d3fdedc5a5fec627e7d957778f50003f94e7e83ced77317b5e70c0dd9374bd0
92642811f93aacefe7e1a38c359f880c734a0b0f51efa7ee7f415d8160c96eb1
ff262a24039267605c7d89816d7f0bfdba3c7cafc073964299f57d174343d01d
be6a797fdf8705bd0601dd9055bd7f207c752c68bbce395b05c09bb23f2d2716
821d0bac8bf56e5ff6a1a0a613ca6e087107e4f1f4d927f4198961b509866783
484e398e2581799ff4ae7b0b678be6d5954a7564f6aa6978d56e21ee56c7fb16
673edd66696c4dfc53a01508fdd03f4a276f3c82dc2f371ff0108b3b377adca1
f50641513ebcf542c9d013f6c13902de0a68d553b95bc21998e5aee039bc57f2
792981d147279af346dfd61ca92895b91fedc44881d1ddddcaed78741996f59b
537e30104053894bef6f7ff486fd60a4dc8f8eae483ab86ff5cc19774fea23f7
d617900f7477e38806d7060359fada921eeb707fa6d7567ba191b3aaa84161b0
6fcf7f14d1d0cd69d16f7ece911420033bb85172117950247d3c49aae14851ce
b19fec11e354ff06c87891b5dacd0704a773b678332de5a7637fe0c5ef61a281
553f85a29a3f9b1bc4def0c4ab05e8ac4296f7ab9ad73ac39961fb3efe44cfe3
7fdcdeccf302e1f7b1f9e736d07403d62bf1441842c8efb675cb6a604916a286
0bfd64da90537b5fbcc6026df3a945047597193be2c020a2e05f1dc623fb2fc6
c8045b2987f90084a5be7c9df701177e81c3d481d78767acadaa1986461ebe81
55a8abf49e682808e9798779ae6959550d168a4577184119f3d1d3c9f14c8928
bdca0ec2d2a0219ea0e2ee64a5f5fef28afb7f9f046981155554f9727ad92991
c68c0de5f61d7883504a6d5b953ada7fa1205615be6a4085cbb331c7e9d866fd
3dee960305638ff276ceec3353d7bc3fe0c75ea2a0be1f700fee8ee91a4d2b8c
19bf7f4993a52b9e7396368da6cf1dc7eee1c91406d59b0c1e1f8dcaae7693dc
b72a08b2c5bd0dff4bdb2637d66ec19cba66ba1b6bba1e0e89ed4af57b207db2
72f0bc1b030dc1cb70ef1e817ee6b5b3ad81c49a9dc6ed4ca4fe7f9d8d957f01
fa2ef7a97f7f2f019e60c6299dbc5d3047b790459363efde1642bf9c6e4f3eca
f5e7d4ded91f883a675dd9143a34f51415a1f95b559f948c71d8a8f92a3bfb99
2d001e8f81487c1bf3b80a2d0610fb370eb4d2745e09d78cb8f974c8b77dccfd
f5ca2dcf43d6437033c8ac300efdfc87727ba965e7b348f6f681db6ee2de6890
7fc7726757b36b17ffb14795a0684dbe647f5183e61f90813c95281aa85b55b4
2ed5b601a67694ef9b9e16c3f266c4d7970c9595030ecb601bdb9c3977247f66
ad2ffd8a8852cab16e5d70f7d1e7f9d35db63f8164c01ace01544890997ddb75
1d6398958cfe9f5e6bf362e1e3e3c8b24b1b68b0bf625bfbe6b61e39c94492c9
1305f9cd82818e0bd3b6cc598beeda7c56ec9612d27c9d7f47f3cfec527f7b7f
ff0cd9c21bded912ed816281ead61efbd99eb227127fc77f2e0a384ec9ebb688
c75b7e55fb70c9f5ed7f2387d72e8eb3c6bf74015c77dfcc479d1d7f5e40ada2
7edc86d5ac95e1b65f96cb3e4fe84110d6baf37a64e76b057aab566fb0266395
