004e8b0c
0033ab6c
00417815
0030c0a1
ffdf8f71
0012d00b
00286f7b
00066c97
ffc72eeb
ffe8e71e
ffc3c397
ffd5deeb
0000c71f
0044349f
fffdf1ff
00417e1d
004219a1
ffc5994c
ffd5664c
0025f9fe
ffa510b9
003056db
ffd085a9
ffb5ecf8
0024e0e8
ffbd1818
002ffc1c
00659e47
ffa6bea8
004dc186
004a29d0
fffd2f54
0064700a
ff9d0f07
003e90d0
00073a96
000248bc
005bf67c
00507fb3
fff37c9d
00674a05
ffbd8867
004ae55d
00594e30
003b2d8f
ffa21416
fff4fedf
003a0a0f
000e674c
ffe3e70b
0019288c
ffa62868
00340586
003dec26
ff960252
ffa0486a
00073e97
000121c1
ffe04967
004eebea
002a2c6b
001acd9f
0063a431
ffe9e3a2
