77d658f74fcf194d76b9f209c25bd99552fd5501cbb5e3b9083318d73d524162
fe9767015b72cb2268da567f83bd38b4fc5d61907f3cac2ea3c53c8e2fcbb753
c55b67f69b2b976779260861252360b249f28b4a705ead7ff0657303094e847e
d81727bbe794ee8166c2db59ad122ecde47d223563d8010988814d41901fdd12
c67f0d197c451f81d9c3b397c3ac7f234d8ea7e2169646ecca6815b6874ab0ee
258726ff7ece9e814b66fbdc0381d8fb74c26d8148c1110a95dc6e7999d6aeca
1b5382b801e1b65b0556b63f251fd815da74525f2b3dd804caf8bf276068c653
f5c81241d944bf9a6a691c4de185cc8df90efb779899818165d73cf9939a369a
ef9e647c3781602bd485347f0b8c7f6ba4db330456a6dfd32973428c3a37e095
7e23b316952347c3fe7c45ed2c99e097229a9ec7e711eb0ef53189dd49905f2a
f9a5af727fff9f53ea0d9f006b3db06cf4238c8ad8812e021d747ffccabb21af
6084b52244836e8f81067f283bd557281000cc5c8618a71a188b818761817975
17d2c0c8ea39733a3b8c3c6c06aa631864e8a28a923a9e937f6a5bf06ad44d2a
2c98ff2099c702813dcd678b5711dd73107f782bd95081a1d3a4603b92eeb907
b222dd7422810e3e1d2f93dffdb344b615a04abd6e5dde56864e5fbb03490181
17e1f510a66037fff659cb0a01eb3866221029efa5adaf39690e4ab1c320902e
e6667f9a5b143739c7876ceea7b0ccf501e5fce2dbdb7c348181213103817681
74dacbbfd2e8720ca2774f3f94e7c01a7f7fff338192fa18bcfa00facd20158a
a192a9106caec3cad7214f50a606efd9575020dead0dfc89c8aa8ab496f4c7bb
7e925ceada7fc849fb747f39004334d57ddd9fd948a47089f149bd57f48ee4e7
aba4eeea9f5f6caa625d7f9c15210d540250416a13f6f5e16abaa97a7f65e6ff
210a9d8aa6e91635fdd4cc54a57167b4f75b834d2833b1382abbb9086136f440
8210289c721f7665d004c43f975ef05486d4d41472753f3cb138be3bced99ac8
ab29b9792a97a84afaf4582a71815dcabaaf4b70f5f529fa854111c696bc3ea0
97df6e4a6d827c5f853162d600e1467eda222b78d1dba190bcd2633d86bab874
32385d738c6657831e576c7eb94721a99f06735ca877ff13ee5129236e4b3bdf
330357184f679aea086c22e30ae37989e1f8656023223d5b58b2cbc2587cadab
12af6bb5a6ed7b1547c7d1fbfb4134499a1d9b1e3bfe07b4066270566fdc29ad
a870e3e0f63eae141c2b575413e9cca9732010d4320e9b24d423a97f8b96c150
6da096d181574abffd7c92c758cf17e60bc332a9954238c5cd8190dafd396094
d8a611b78554862a9446fcfe6c930b44a17edd88b277248dafe4795bb938ec44
2f4f4c4b24b57ce1b247196186416dbcbfc97d362eafd681585794f86ebc625a
00000000008433410000000000007ae100000000009d16180000000000007ae1
0000000000000000000000000000001600000000000000000000000000000016
0000000000000000000000000000000000000000000000000000000000000000
0000000000000000000000000000000000000000000000000000000000000000
00000000ff8b32980000000000007ae100000000006756d90000000000007ae1
0000000000000000000000000000001600000000000000000000000000000016
0000000000000000000000000000000000000000000000000000000000000000
0000000000000000000000000000000000000000000000000000000000000000
00000000ffaacc980000000000007ae1000000000082f02a0000000000007ae1
0000000000000000000000000000001600000000000000000000000000000016
0000000000000000000000000000000000000000000000000000000000000000
0000000000000000000000000000000000000000000000000000000000000000
00000000004bf3fd0000000000007ae100000000006181420000000000007ae1
0000000000000000000000000000001600000000000000000000000000000016
0000000000000000000000000000000000000000000000000000000000000000
0000000000000000000000000000000000000000000000000000000000000000
00000000ff4a21720000000000007ae100000000ffbf1ee20000000000007ae1
0000000000000000000000000000001600000000000000000000000000000016
0000000000000000000000000000000000000000000000000000000000000000
0000000000000000000000000000000000000000000000000000000000000000
000000000060adb60000000000007ae1000000000025a0160000000000007ae1
0000000000000000000000000000001600000000000000000000000000000016
0000000000000000000000000000000000000000000000000000000000000000
0000000000000000000000000000000000000000000000000000000000000000
00000000ffa10b510000000000007ae1000000000050def70000000000007ae1
0000000000000000000000000000001600000000000000000000000000000016
0000000000000000000000000000000000000000000000000000000000000000
0000000000000000000000000000000000000000000000000000000000000000
00000000ff6bd9f00000000000007ae100000000000cd92f0000000000007ae1
0000000000000000000000000000001600000000000000000000000000000016
0000000000000000000000000000000000000000000000000000000000000000
0000000000000000000000000000000000000000000000000000000000000000
000000000049c1cf0000000000007ae100000000ff8e5dd60000000000007ae1
0000000000000000000000000000001600000000000000000000000000000016
0000000000000000000000000000000000000000000000000000000000000000
0000000000000000000000000000000000000000000000000000000000000000
00000000ff7a30300000000000007ae100000000ffd1ce3d0000000000007ae1
0000000000000000000000000000001600000000000000000000000000000016
0000000000000000000000000000000000000000000000000000000000000000
0000000000000000000000000000000000000000000000000000000000000000
00000000005ff8380000000000007ae100000000ff87872d0000000000007ae1
0000000000000000000000000000001600000000000000000000000000000016
0000000000000000000000000000000000000000000000000000000000000000
0000000000000000000000000000000000000000000000000000000000000000
0000000000cb3c8d0000000000007ae100000000ffabbdd60000000000007ae1
0000000000000000000000000000001600000000000000000000000000000016
0000000000000000000000000000000000000000000000000000000000000000
0000000000000000000000000000000000000000000000000000000000000000
00000000ff4d7d510000000000007ae10000000000018e3f0000000000007ae1
0000000000000000000000000000001600000000000000000000000000000016
0000000000000000000000000000000000000000000000000000000000000000
0000000000000000000000000000000000000000000000000000000000000000
00000000009b830c0000000000007ae1000000000088693d0000000000007ae1
0000000000000000000000000000001600000000000000000000000000000016
0000000000000000000000000000000000000000000000000000000000000000
0000000000000000000000000000000000000000000000000000000000000000
00000000009453a10000000000007ae100000000fffbe3fe0000000000007ae1
0000000000000000000000000000001600000000000000000000000000000016
0000000000000000000000000000000000000000000000000000000000000000
0000000000000000000000000000000000000000000000000000000000000000
00000000fffa5ea80000000000007ae1000000000082fc3a0000000000007ae1
0000000000000000000000000000001600000000000000000000000000000016
0000000000000000000000000000000000000000000000000000000000000000
0000000000000000000000000000000000000000000000000000000000000000
34f4651a8ecf31846eb0fb6a48c9b764290e3c5f60c1aeece4818b037fcbe362
0dc08cbde1658f954d75d05b96fc7faebce521efc35d01a1646acc87d8bbeb2a
eed98ddc9daf37a9b8d9ef0a359afaa9d3f9d7522748d646ee88f273902fb541
5fd4cd132cb7cbe7f9f752c69ff556a618018129b16e4981077f00818aca115f
0968cb4f348368637fc27e7f9c811a4adf956574bf819996b0094965618ecb52
c692b73d47b5152af654fee9045bb99ffa8a81104abd0350b993108b8cfce790
319769af4fc3465be306a4747d965388a6e081daf86d79164a0112f05d3c013d
2207ad393986115b8a5496e88108dd7c921534220e4abbd9ee9e2a18237fc749
81fea0fc75ea66e837ae9601a05d813a5637819acac26ee287d8dd7ffcc555d7
161181a64be37f6235d08dcb44a4413281207c8169a05f2b923a4d1af4749edd
aa842fa41e8eec09b277d454c7fb13bd043a99360474dca7b6631fad7ea3fd18
c47fdf229eadd824f3156d0a235adaae33cddb7639154e783b92d4a7751d9a89
4f1c648db01e303309af229fa3789f31338c989ad853958e1535905e842e5233
e6f7ac85150c2c3216fbaec5d6dc1a7dfffadb81af2e867f608a6a1879022231
08b1fd9559506ae38f0e7f8a7f2a8c81db4277933dc60a4d682241704eac5308
f233f0c5ca7261d132e3a71256f3df497f00e203ad905610a4a2f086812eaff5
d1bc8a74548e70d4f6ee4e1a6e43eb74a473fbf92b6811caca7d4d4a093cb7b9
308b78f68b11d56e38447d56ba7f563a7ffafc31a520de81d3e85b5c6181210e
b227b5f3b3a67f678390b64e024b4eae5806297886f53e3cf7bb417a488efcbb
e206ce3e3388350a1c0fd6d0f44719cd665b080183cfd981a1e432da329607ad
bdd1f696a434c7c3d3addbd6c1d10e715b9f512b3df5bc3fc82a50a9d9f40dc7
f1494ef62e036b23ad02d0a271bc162f81c526677f4f5bd65aafc390d48bfe29
bec19f61f9b332eac3768963b197f3433dabee22637096759a3802ba9f57adf4
189a7b1cac70ee64e604b248f0b3e3cfeecd799756f7c2af628d0b81107f3bdc
e3e59abedc307bcafea9fe38ce0a678a22ad13dad24bc672d9b1406addbdde96
7a2f8c3290ec7ce4d45d4c5bae68b707942e67feda58092ebc2444cd20a91e6f
8163e4a90c85c3aa18a45e1a5ebeac94237cffdfbcaf1114ce33f4e17d4920b4
97c46961ef530a1b89c16b8a4eb60b7ae71297b268d6f2366e77ecc573239b56
1faa10a2c9ff308d1a355918a74489db6058773b90ba41d43b2836f5fff1508a
f293faba7a1a3fb13b17041213d47cb9bbad2b602277b97df8b2383894d41d70
1bba35b4e8cd6875b5fbb5238168965665c2a84ba17485d4be4d61f6e68957aa
0ac9f56a7f2ea4a9b8ba4996577fa1af27599b23cbb476c99488b94260249a62
12f5817f87667ae1d292c4c892b9e6ddf8cb5c6edbb8fa86388308136570e7c8
47819ec11c41c026932ee6ce5651eef617dbf62572384dbf57dd5b95399b5006
3bffc792c693e297739ce99a7047077fe1b27323d1ba29a0b15bb96a7fa4e489
7d315ef011b320a78f1d7e271161a7f0d8c267615bbd1995587e79a9fd0ec1b4
4e4d424dfe1b57543c1dbff2963f39503b847f726b23e02bf569823f7e811f23
a6a97ddb9e50fde13e81caf59e23653efda47fea00aeef0ce687f50a22b30273
6eee1df14f76e265314f09928bc95c1a3a6006af009599606b6a53b6ff03457f
11411798b19d1bb4eda842b44e73496635ab5d5c396c06721ac7e1cb74fdc7dd
e42d65a55225c98104ffa210517628ae731881a59f162c817f9a1b5626dc7cac
40613907fe2247c3a873a726b41c661e16b462927f10a6e8c0391759dddf9911
68a381f1747fd973d5d69c81970b81e039638ff90db3ed378cbf8d0587fb19c3
84239cf96d4e507cc781d50f787b4deae967aa7e74a950d2e737f5f622932057
75e4f005c61b2ad60abf9eb0ded22db6eaaa6e28ea23457c0b44cc5b25660d97
c8fc044734393a6d7f7e9522b9e3d187a6716c54fb924fbf9414ccffb22fff8b
d6204f0dbfdd370236986081c1f0eab3c8068357537e7c647fd985b6154b7fb3
606bdbf9130e32842eadab51a0e60b1b8aa55f0d49a121cb3f5bb037661d9867
a4bb9feb0ff37aa079b41fc2fcb516f3c06c44d59f6cfe9e3441e1e1d881c6c3
aa8159bf73c8373caeb74c3b3d65aa119d549f21c8d5d7da4f9aa760383e2ccd
8dc2095058d7eacb4f6f05e08ce94727d23c223bffb0c3ef85124d011f9efbd9
bb34684cc3ed48e3f55344f52ae34bd00accea157f34ca74777feea6eb0eb63d
4557c36ee849da9b4631abd8a87917d3178cb5287f3d4797d4c81cb825ced881
81cddc42bf497f37f98f970c2f6e7feb21d4ee9cda43c3d9a2666c1001814481
08bc5baab82ac5c081f70c78b26597ed94a092e013ed34ea32576ed62a817654
314b9011db2fc235f681f976610995adb95f67ca42e3b492ee6e1f6bd19b7cbc
c9da0f4273b62de9027c506674a351042a6d7ce354a6419a891edf6279711ff0
7a65863b364233872f06d23ff8d5c20ccd5f4910e7e26dd2c3e9d81b0c04b56d
1569c10f3fee6b029834e08c0e41b2878644fd7057b5fb6779839731b92a725e
aa114c25d70966851557431bf61ea2e5a8cd8108c512b77f051e0b39ae482441
00f3bdd50a342a54a9a5547381cfe14e540bbfa82b6bfb4fe357a98529589c97
81d2dd9a709d6b25e551a85c5f4fc82b18957fc873b4c9d767862efbb2404b86
6426435c31478f0ebf6dec817fff2bcc85934ae61cafd1180a66215fabf4283f
6a99767c3674e5df7fc3a123b6c77fd5f4f781f487fecae67781ef137f274c61
0b20911c1f1a2448180a507f194f4771b76c57171412c757e38c477c7efa10c4
a3ceea880ce0f25cbae9db9bf9143d5c7ff81f7fcec66c8d0a9c5f1581de4f19
7c0602a47c6fa4c9ace2b5cf5d19f88511fe81cfaea947032273b982464a8204
aac9010c7ba0ee7d5fed782d13aedf066f9b72bc6acfbee317d9440f27052f47
4d81ab097f548d5c5c97096c920e1826a6fcd1583ecc15336c5d7e6de1a8cad0
96949012268927a18b71acb93c8108139948647df237354f035d7ff56edb41b2
e23d8d884f897fe2f756e4eb2b86b78ad84696c7f6e97b4908386c4a00975d65
ce59d1b8dadebf5f66ad9b54ae9f8988acb418f653abce3271722960d3bb28e1
f88224e8ed6a46795faf0f1745d04b3ba8a8003aa09d9d27ae7f55535499364f
cd9b28640c74450f778196fa44b6036f6e77dc81cc7ca4d12133f448c03cbaf7
d5da0f0173226ac6ecbd31122170cfbedec07e562545cc7e6ec221858487f0aa
37d21dfa7123fbfd1a4e783179bf361d8645b603f753a8da3d82229a54d75068
dd8b7b7fda8fe44a73c858ae6f1a88217adbf781ac2c70dadd7fd376bbfc88f4
97132e32d582898d1ad87f1597b3f4bee864e106ecfb61fb2bc34c747402bf8f
2c818157d4a8463e4a90b064df1ce2ab6549870713c8d1256c56ae7ca8487e37
86733af9c48421b001fa75811936bf8d9401348b54ab6a0a40fed0abba1341ac
f6398cd581f0c681004516675ea5ede6afed017fd6ce0e3b83d7fe8b2816f8a1
8d65df632aa632dbe63a053764b573d996853c2e658b1f81e59b3f61812f0661
24429e536c274498639ed460a0175220fc8d9736cffbfd7f41ba6cbd3b6e631d
d298f69b0a7e5cacf738a72438a6d64faab228a05d3ae5d9ea278f180f8aaf34
8f391e3e8d87022fd2c85660d4e346045edbe8a05ac29a75b97284a1281fb84f
84eea54f5f588ef2f99fd8555cf3492c26a5837fdcfbe9f4d10e5678a46eddf8
4e43f5a2ca888fcf2f12823f18f9f7ba35b85d94c76b1f2ddf6cca3f3edec6e8
ce587e2abefc4ea0d0cf96507f097fb352f98cb825d5f54b5dd0c0d4d9acc87e
fc7e9e9665d00b67a66a9b8359afa3759cd39e992d674aae2f0a667f594f66db
99c4d1d013e88d5c4adf717a5ac391b39ccc810f2bcb0614503181be3d123dee
a2a6b98277a82f81a37f04289c8a55f358086cbddc6e4038a9fc95944c7b7d6e
bb17ff7f4545b58fd102e24dbc76a8f4b589c7e60852e4c936dec339c1fbaa57
e3de904681630cc5cfdbc495a82acfca6eb30839b9a5a9dbe7a88197f40c15ed
f95eaabad37f51afa4d4be3286c12e7eba981fec6c60112942169f7106463a81
0fa160811484c0b731cd8de76461e39d5c63aa238bb1934c716661d53e107820
f1e22fde23bc46ee8a7ad3ec9eb7e2f4e1348fa219508c96e4dcb9339e6dbaac
586d9f79a9db5a07d026fc095f1f51dd4b021c472e2223c544521c5ce4f80136
0347b4f153aa5cab1dfaa51684814bc16b7781bb0f81bfdaabafe6bf0e7fb613
f7514b8e75b6275cb669eebeeed512bf1368431ff6a29c818199b41d5d149dca
7d05f79a5585b36bb8e67590e18e16a6bc9a39e379282f0dd42ddd97f3e0e3e0
3f56538994204177817de58d9eea435a1fdf5305c386232d82d5079a00ea0f0e
64bc6d062cb91e0b7a81458bff72a6e9e3ff9bd8393713bdde4edbfce6a53ea4
69487f2a44cbdefa4d632cb1dc9bd5429b0835d7391e2e943033364e81161fd3
c5f80c2979ea33a25efbd982013012d0ff41e829123211b7543a33963f2ea3bc
e7e84057d95aab167135d724bda6618b8d256e31b6e6f1168864aadf6f2e7f72
4f0ad762564bf9358be0df8f817fa63f81e27b70a8f1fe547e17b60f81af53e1
1055fa6fad8756818481930dcd1011360e60fa64b93c715ee70bf7b37c84ef99
c6634c0665dd4dca0044a436d6b067997c42d6cc4e03fd97db460189f80981ce
6e99fbe3b9a955593d15c7dc7ff98dd75a1107f4903968c62eb06f6aee15247f
d5413a3c3c055fc60f947f4ba35752b3d6fc4bdee5468f0f717cdec602a36e69
f1e16c1d3d07fc05d36c891125945cca275066a525d053501e72362b811509ca
9c64d97f3ef2349fdf0382b9fdddd658398f8b590d1712b1ddb2dd8135018c9a
2e93e32313072183a5527d5ca57b8614ae7f0278d4a3282d4621d0bb8208ca2c
0a77b48fabebe4e46693929b07e7b56ce43b36db60c2a42eaa86d5fbead6267f
eae72a9fb57fbf1d4293560ec962a74741f4fb93860bc8bb1391c78ec317364b
629a46b8c881dd0f5b81f27f26e6f3a4b8ee9ad3204b49081be9f0fc355469de
2b5322dfd178c3a1df2f3b04cffb295fbda99a8b81eef981a66831a962896819
be8e4b3e3d3b67960a00819c244f124dc8eb81c8253b106e13e6caa94be6aae3
70682b1281ef3ccb25d3868358dc5bea33330ba6d86bac3f438fc96781948165
1a4800120d76eac2d6fdee4e7f671aa5235a7f39638cfe5b653c11d0c184ed68
ebb561741a947a233c57fe40df7442d03fe3036f5da700efec9fcfa3f1f03ef9
3f7d098528478bddf6f37ffa0604427f3c9e0aeac9113e692d2562da81662968
d4c9455b4af9cebdc6a025aed8a160242a81a596fb51a3ee57ac663bda8fdc7f
6a93688192b122de6153d17265aa4ee45312cc06eabad305be19c5c74a20240e
a4ff8db05634dfe37f812259c41dffc69ed171ea83eef315f0294f4b64ef2749
c46cd0752954c13c8106135be14fcc811e43b9dad2d7a4814841ebbf87a176be
a5d0af7d1fc0f639275f317f0b26a7643d4df129a1cda9b36016b7cb81ee3c31
13cecadaca8e7a798619ff31212dccd1b397777b895b6a157e2a7c145eb57fee
90232020a6d0520a19af115726e797caa037b6fba534169ce836690063e9e82d
6db138815ebf76c9ff169c5dd252752a2140cbfc6d9a4cb019817be24e1e966a
4e7fdd5d4cc65d2367df115a268c4953f0d697dff0fee9bed31ae337ba21200f
1585adadddda575d19177b2dead0c6b3dee3a48d699f8d930ae47e993f78371d
6781dffeb675cdd539f7afdaa9d496a53d45fcc36ccd3b81599adcc796edcb4c
3d971c99476d07797ffa07d4c50428554d4010cf5319814cc7b55c7f817ef186
1ed6c48ffa947f5bcd63c6827bb60b717b552f10a001b150558a2ffdaefcc0a5
5230f3dd6a098ca2ff7fab43ff2b659a2b99fc1f706edab36d59d1d7b0e9f213
ce8bdb26263a35f06c9deb7e6075a65a780d5d6bba37bf30c8670af1e91d49bb
81cf1334faaa5d7c6f2fbb19c1de0d8139bfbd905e7a7fd660823b421147adbd
e2b45d86d3512922e1d2f37fdd47b58100648dc6e57f77fb15e01ab9644d2464
4b72b41df86377e6d6b4881f057b1244eed71216964c81723bd71b8da828fe67
b671341e9a18a85abd01623cc281bf3cba1033552597376633df90810939e9eb
5f349c31820f01b0415f811b31b658d281fe11c7f7687fa16237be08e805bd81
787bff27e289c6a1e7d30eb4a981c8953b744f57c65d4fbf8a339d599927348d
a0edabe81e6a874e891e3e38e92da4d371816ea9c031c3a6e3830dfc92649cda
b20271624c3e527f88bcb8813e9dd266da7fd798e2419b7b2e3865fdc1e18162
17763f01c3d25f7cfe66e9f9bea0d8588eef647f85e6c85928aec175ff7b37c2
7f17737e371ee272292a19cc1c08f85f37c06390a8296b019fde1d9557da7774
080cd69a11fb2c4f0cb3c0d8932b890954cfe517ad7781c05581bfb2185102e0
9f1c7b66da0083812e5b725ea4584e66dbc4ff233f810efc635f6f7f0fbd03a1
3be2ad81d1db51d217424f6028444f7cbd81dcdbcc882263d4d3098799f43ca7
c118565b984e853f60c93eb3e9235b2348f0677f36b32835b6eec0c7a6dbde81
b16a49bce250267f207f00ed97a9e9680ac33d8981826291486f5db76bc062dc
47950f0226167f4c8ef2ff461b554c359553bd7919242983939406ed84f0f412
930ce38123a12af7f4d95f107c7f5f4415d2487fcdec0f1e70e5845b969f1cd4
811ae87f9f005209f5c41b73f905a703984f5e675647e31bb681195eec98f37b
fc0d0acf17e815090bb60db0e358bb17a8b9509f128bc8fe9840092e534e6e99
26a07ef54b4e928d9d2ab04be6aa65a132a2b3dfb600f3ba4e1757a81fa27957
277d8119c3c35f6500d6eb29637cd91fa96d4565d796b4041dc7429283c9fd4c
34caf3e948482c273c0720641c7a247f34006d324810bbe466a47e1fe8527e87
7f4d41e9cc304760cc081709a25a7f81c026646a81f9fbcb1092878d08e57b4f
e30e287f56bac2c1ce810438c5cb3ca885bc5d187b279e2ab9e019214e5898db
19547992d788ee2bb4864dbe8c152a9d07a210058174391d50f258301a11fd1e
6e7aa5fec8a1cbaec7921d6ccf3d81b7ae4c8f74441fea19a5812aedf6d692b8
ea81b614da9a3b087f554d78b337777a2c225c49498f85a306566b2d23dc4484
c39e51e8e80744b90c2881140789388bcbef4c6782887ec84c873827bb83f792
826f7621b856e42428fee50d9ed736bcad3022bae37f5a23e9eb5b43ea1f2a6e
bda79ed14f17ea64ca819fdba66423bb1aa02a13b0020aed7f3e1076f8edd8b2
0bcb365ae5eb97b03926e6ea09301f3f81e4ba221906ff6085cd968b35648d69
71d92bb3d0401bab263d75fa63f5291b6441e70f31db907d23757f7f144ff9ce
c97881479e9e7e73e67e0be4a481437f2efb02f61326ab94737aef538b81e789
b05b9e64197713969881e1f8c9371e7f9a1b978a140b96af28d02a25430b4cfc
9ea1375681642e8d9bcc7f5ca0812181160fe6bf39c01b3870336b02d714e68e
225f9cf916e1af71c32a4c33b6b0c414fd225ccb2653e3f99fb9a0b91460f32d
cd94244c8652d8101262a65efa0a6e1725f981f1600d81346a3c5362d6147f3f
ce9d347750a76df1eb48cc427f04483605b50c27f5e70cf90e392a92829e1373
57df7f116e91754cdb423fa81e9f822aafb283c328c5a59c64bcc2c7d8b8d8d4
268a1611a0463a690dadb72e5a727f103f7d920acf2aec97a0cdcb8930bf6c4a
ec24004e5de3754e878aeb7b7f28730951c2863881dbe67f697fff4fe7442337
fa24c05be47f014f173e2f38965dc167950e90a159e0a82cb00c56742a02e830
aaead0816d1489951fa05018819e37dae79d677f5328c6e0ba718aa337410089
47722a4fcca8fe481eebb32996dcca656f84ab8ac9816242b643aab41972079b
4fc239d44f187fc895edc4531a4556362d2e175228f7176a7fb59297af347d89
541c864d814281557fb9c21797178d1f758fc90ddff191635bc27f6c137eee48
0c84269e81cce80f04e2c36fb489077f5cf851817390c221c833b8727f7f818a
9a3cff6473aeb783be0c0fa5811c460136bac0a0d23a7f5fd20cea3b6539cfa6
09b99502b745a70f8c5221ff989bb11d7d9b7bddb694c56866c715a8e7ed8619
f74b7508f6b2e0408122bbc3a0487f6f7f7cdb0d9d8e3c2e8e01cfe8c2835443
aee7d8b2fdfd6701a5a81e9d97a1c57f05447f72e44bab2db74836c8d648a5ec
05b8f29ce2babeaf1f7fbab51d0df2c57581c1e1c2c4bb817fd21aaf893bbc48
2f3a5d7f45289d7fe4a235be33b59da3682100e344925a948d978e0cdb046d25
01fd94fc1b857e7f7e5cd7bdf6d1bbd89b51e44a28c8de667ab0a8b52e70b7b6
3b46ef257fc8104d9dbcc2e6b19c1c3a3802f14d8243f3505d3dae12fbb2e763
7babe5815ab5d451de33ff1fe6819568353dd53bdb5beb912ab30365d727c77e
fa8a30f19b1a023715eb1e14898dd2bf103d67a3d468c3a9d68f20cf2989cd4f
67be69817117465d383c34df73415e3087694cd78cfaf190eb32f0fa40ff9683
3bcf0a4fed592bd1fd571de37ed906c38af9a27a0262b4bdc8dc3381ba8c3033
c59c7fd6df927e4e4f38111f55fca12a7055228888ac7fa7255d6fe5a5d0816b
76a74b072cf6565d7d228165c6207876fa2a86c20d74cb915e6e4f0d7ff0f695
1b8f4d7f7f47010cf48f1d9481e62985ac1e7f7fe5e255a6e3514e852f1567d2
9f635d3c593f8e1f09d6747bab59adb9938f6c13e01ad679b87e12351534edfe
f5369113eeea737c61fd0407fc9951527f37f986c51e003ef1a0e618a28625cd
4690637cfb1f3dbfa8a4b4ec62f5ed3f447363db047d05f8088dcdab1864beac
b1c0a7483892649a10ef7efb15f40a9f701ca4f6ce5b07cfa9ce5820c171fea5
0ed052e69f3028eed02ff8b61445c34fbd92fed72e2cd8eecfe64a81afd287af
7e2fbd65e03b7a57a9f969d5eed6df7f5b5cbedfe20fab76c352558614e17d3c
6dcc9aec9ebd7f5fe4a7d2f96a5efcba7fbb6ffb018f71ac9addf9a60ffd8550
83b0814e1e0e77fa4410f8767fa9512d3aaa00fa8b586523b3d216f9b0e6884d
243cd0a184824ae6380bfbfd34ffca203c77535158e2a9edef8958e2875b5861
24815886812c5bd1771c891d697dbd39025b93841bf9e5db44c250192ee10ecc
e17f81488a7f39266849e4c4700c81b1f9a242d5fb7766a781271d5aeaccaae0
91299fb1904e9527d64c0e1747581d991c77c20b8f689172cb0761b260f9d607
d89726e44b6c4596d4ae6d79d05f3a3b4ca1bd94e7a3dfa5b006aac86785812d
06edf145dad2b9719a72a0c607d64f9d1afe7308976ecf302fb8746d38985ee0
4090ec8cd737350e95cb2670c3a551572338aa4b9c302d31b461a2bc69fd7c4d
66a741ed5f7df366a9cf76dfc6cd5f2c8d5bdb81a7dfb48a6fab258dbdb788ff
b6df304f08402c1c7f4a67259ad15d90538177b34f1e6e157fe6f97f5af10fe7
c2b3542629c3fc813998d9c681dee9f22a7486138b2f490636917ff9bef32f8c
666c81f23fc7c13f973232099c9517f7c6b6e2eb9f41b034d3a896f9f584031c
6c6f950a01f9c7a7f7970c3725263ff85aaf1661d6c70b2234685a8be9a285c3
717716287f12697c69a50749cc9a2157c11286f70186eda5563128bd3b5e5e57
137a97278a767ebf63f471019b1d14d00cef8134a4cc517c422db5877fce8581
f2aa1874813b2ddc834a11d700f417f476ccd4357474587360025323817f7b7e
cbc72734d7f231a00b1111befb9a1d0c4991f360fa752179a539b5dc5ee06ec0
b1343481556c3e48d834f610f6785ed82e9f94b1f189fc183cb3751c907f6cad
dceb70c383c4d619ec18e3af525c3e7516134dba3afb12f91007d71b6b413b65
0e033336f55225e5fcb60b9642408108bfc80cbd70eb38a0d2fe9b63f3ea277a
713d891607f895b360c0d157322968c241d5b1ef2ce32991fe9632f97f8eb190
b203f4238ce9bdd6f0dfd24a8ec1f3f5a2b8ffaa51b83a91ab50043f112c76db
25861a517ff6394901496f20b988d147373898e0de7739206b83cc2b07818634
f0811fc54a1c34cc879187bb4664c4525b4aef9fd696793663d4b13aae10e35c
a8f229769ee08352c727d444597fff20db883542a50f8d52d122b9948dc077ec
40811aba42b034e4f8d3b4caeabe81812235c9e21acc11f2457a12d08a7f9490
3492643fb94d59178b81b3072093f26475b26f5ea24d9062448fc7e96b7f7081
81df06137eb6c5819104ff6ec649735e3740e72ece7d71075f3ca6768da1100c
7bcebdfeef7fdaaa861346145efe4f47b2d20c1cc821b736167f8a22e11f6176
c593fef8fc3def90a8de4285677ff5d58f7454687ac783d7e881a7f53f73ebd7
7fc5ecb81881567f04ca4d0e5871cc9547bf2128e1ae987f3d8c0dfbfd7ed170
7f0f37505ed88f7ecaf04f1b9c26d4c73a21ba6919a09a1a7fbd8c3b18438cf8
b866047ab87f0e8629a605bdb9a4e57f1ff4787f0476737ff86ecae0d8a57e09
9e991b0ac5bad9157b487fa42aec9da9c235598163d72593930ffe3d95f79a36
3bdde221758b2c8a34c4d90009f0a02616541713d76d47aaad72bea47907b801
d25eb37fdd3c6a6232dc4213b34472837fbed8dd671291935f95840fdab27d44
ee24815eb281150251dfba26ff562ccf46d7e2973bffb67f66a768bd0bfdfe99
b9a0071b4d86aff8bcdcbeaddd01af8123fa7a0bd9d32aac8760389965adc481
3082f05d01ec49817f16b5896bbb5e78279fb5315def98dbc03c29fdc225d3ab
27aa3eaf367702da3f40eb7a6c733b5e61a1faede9819a5e1bb549d6c69181d8
2f13a1d70ced2aa8d5b12eb1b89b562dd7ca1e8d8b818e7c8ea871770ece7f21
7b5beb9bcb08d26652aefdbda81eca732302f947bf7fa8f97116947f4a2381ce
9c1433949981fd750102109794ab1571ea8951b791abd868fab64b9890b758ac
f6eb2a3d3794b8ae34157310990c4069d62e147b92634ac86ba9393093e4e489
e41c00037bfcad11e0c04d7e419eb09908f3b76481ef8ce56382f17ff7fc1931
23dd0b395e1c3f146a7d7f8ba5fada32761237dc2e9c4c5d8154dc3d925c81bd
810be4d56af340d6a4b8f2486cc2a41e9e91591a0fc9b9c63694ee61bd9f4747
87231357c9051fb240922ed43d3a657f20d48942f83e819f4d61a50d7a5cc64c
81cbb9d0391b34adbad729e97f21511bcb7fbc22db81b62c4bfbe4b13e5b487f
e748910d81bed2814ea9751a49ca83c45dbe537a27eda0d179c9b584cc9fb926
740c4d7fb18b0897601e2e8343df0d82a1817704302a6234f456f5c9526d1023
2649aebb21615724c77791aadf811eaf242974c71f937bb3d82a50c9b5747f4b
bec97090421e81a69ce9bbf3e384e812960b477220acd8d8a8512f842270fb76
45327157a7e11ff906ca727dd4a68a596e6cd7a29af446e43a407f963fb8cf77
d467308c81a02e5cc144367b91680c685b77a9f3dc5977aaa2d13eb3a47b0d8f
811197de8df5e323ab40ac7ffb99f7add15d8ed38bf03b4b72fe0294e8788e4e
8101fdcaebc2fc2cac6f39e11a68fc321940502ffd293d1e0421d3db83dc42d7
0ba68276a2b9c9f956d50f55259bbf7aa5bf98937f8172e7bb60284e799cfc19
401c81ef3c97c5a47f185f54d5620f2c817ed033cac250f8fe68e594ad0c9dee
9781176aabceebf2a295a7057d0f1a5a811ac934673debacdd27ed4eda89abac
a4dd21f67fd76cece5cfb062e748685da72711d560201aca20112a1bd37fecc6
c0cf8752d2eb325df7e702766817014f97e4f2e838035395159eafdc455ade6a
23a70b81ea023dba81e126da81902783bef507b1e7edf04866459d3f450ebae4
3958fd3a1bdf257ffd17bc0b93dc3c9d3a8eb3a1e037a342a90bdbe438116da3
3261e3b181ffeef7d24d2a7f3f0cc62a785e69477781f0276d435b4c01a37a45
eed00a39823cbb81810a267fffb49c2ba3819e27bf335d3c02457f6840f46a9b
39ca6fb5f1d11541d6c6743e0ec2fade1b93b277ab846f5221ff3d5a1c88c5e0
5de87d81d56c043b81347224e30489818f843dd16111a65198858e05cbcb6fef
5d983a6d7fad5765988a3bb562aa811f79242b5d0182c629851cfb5e9775b4d4
24a020610c4840056aa8c3a644812a50769136b304a841ca301ff2e31b16b98a
be4ac07fe33181f85bcbbc104995ebadd32193c7c8fe50003bf202df75ecdcf2
99cc580c427f168ea227fbc4e8fc0fc0598a89af0fdd4d6494bd661340855a6f
feeae22381fd3325fcf78dd7ab7f6894ec307be36e4f558852ec61002801710b
1dae0557098465d1b7254dd7819b449ce879a4779095551813cf151c52a05e2b
ceffada2124aa09e5704f4737f4108d8fd17bfe5b8c9d2f39484281818472bfe
f6107f7522a34d43742381f4590e412e4d894b1962e8c815797fa8167ffbb078
2ce89521774e56ef860641f7f397a37fb4c231ba3e6f4fb734792a84e1dbe110
90e45f97516bb6833643c7aca4bfe3ab81d35c8723e078f03afc4a5daed703b4
3a75547a2736d5645578133d861ceaacfcb5302bfd7005b5d7927755262ab2b9
a02779ffe7944a3d6b10c023a90d6f69b90db384dcc79ed44b7f54059aa4cc5e
fdfc81193c55c1b17ca03b68b1d8e58a94f6d5faa7323b1ea9f43d647ca813e4
b38a592e1631a650ba7fdf54cbcbe93e8177def9430e9577c15d23a4742ad348
0000000000210cd00000000000027ae100000000002745860000000000027ae1
0000000000000000000000000000000000000000000000000000000000000000
0000000000000000000000000000000000000000000000000000000000000000
0000000000000000000000000000000000000000000000000000000000000000
00000000ffe2cca60000000000027ae1000000000019d5b60000000000027ae1
0000000000000000000000000000000000000000000000000000000000000000
0000000000000000000000000000000000000000000000000000000000000000
0000000000000000000000000000000000000000000000000000000000000000
00000000ffeab3260000000000027ae1000000000020bc0a0000000000027ae1
0000000000000000000000000000000000000000000000000000000000000000
0000000000000000000000000000000000000000000000000000000000000000
0000000000000000000000000000000000000000000000000000000000000000
000000000012fcff0000000000027ae100000000001860500000000000027ae1
0000000000000000000000000000000000000000000000000000000000000000
0000000000000000000000000000000000000000000000000000000000000000
0000000000000000000000000000000000000000000000000000000000000000
00000000ffd2885c0000000000027ae100000000ffefc7b90000000000027ae1
0000000000000000000000000000000000000000000000000000000000000000
0000000000000000000000000000000000000000000000000000000000000000
0000000000000000000000000000000000000000000000000000000000000000
0000000000182b6e0000000000027ae100000000000968050000000000027ae1
0000000000000000000000000000000000000000000000000000000000000000
0000000000000000000000000000000000000000000000000000000000000000
0000000000000000000000000000000000000000000000000000000000000000
00000000ffe842d40000000000027ae100000000001437be0000000000027ae1
0000000000000000000000000000000000000000000000000000000000000000
0000000000000000000000000000000000000000000000000000000000000000
0000000000000000000000000000000000000000000000000000000000000000
00000000ffdaf67c0000000000027ae1000000000003364c0000000000027ae1
0000000000000000000000000000000000000000000000000000000000000000
0000000000000000000000000000000000000000000000000000000000000000
0000000000000000000000000000000000000000000000000000000000000000
00000000001270740000000000027ae100000000ffe397750000000000027ae1
0000000000000000000000000000000000000000000000000000000000000000
0000000000000000000000000000000000000000000000000000000000000000
0000000000000000000000000000000000000000000000000000000000000000
00000000ffde8c0c0000000000027ae100000000fff4738f0000000000027ae1
0000000000000000000000000000000000000000000000000000000000000000
0000000000000000000000000000000000000000000000000000000000000000
0000000000000000000000000000000000000000000000000000000000000000
000000000017fe0e0000000000027ae100000000ffe1e1cb0000000000027ae1
0000000000000000000000000000000000000000000000000000000000000000
0000000000000000000000000000000000000000000000000000000000000000
0000000000000000000000000000000000000000000000000000000000000000
000000000032cf230000000000027ae100000000ffeaef750000000000027ae1
0000000000000000000000000000000000000000000000000000000000000000
0000000000000000000000000000000000000000000000000000000000000000
0000000000000000000000000000000000000000000000000000000000000000
00000000ffd35f540000000000027ae100000000000063900000000000027ae1
0000000000000000000000000000000000000000000000000000000000000000
0000000000000000000000000000000000000000000000000000000000000000
0000000000000000000000000000000000000000000000000000000000000000
000000000026e0c30000000000027ae10000000000221a4f0000000000027ae1
0000000000000000000000000000000000000000000000000000000000000000
0000000000000000000000000000000000000000000000000000000000000000
0000000000000000000000000000000000000000000000000000000000000000
00000000002514e80000000000027ae100000000fffef8ff0000000000027ae1
0000000000000000000000000000000000000000000000000000000000000000
0000000000000000000000000000000000000000000000000000000000000000
0000000000000000000000000000000000000000000000000000000000000000
00000000fffe97aa0000000000027ae1000000000020bf0e0000000000027ae1
0000000000000000000000000000000000000000000000000000000000000000
0000000000000000000000000000000000000000000000000000000000000000
0000000000000000000000000000000000000000000000000000000000000000
040e0804040108fbfa05faf80203f80cfdfefd08f7f70e0d0e06f505f8f80cff
f1f00d0ef01009f80607f1ff0c0605f204ff05f30afbfdfdf10808f308f2f507
fa0e02fdfefdfa09eff70dfcfe10f609f9020d0103fff80cf503040afcf4ff03
0df3070cfe070df908f7080c0ff007040300f00807fff3f4020203fef4f10606
0a0af5f801090902fef10bf0f106fbf40e0cf4f303f90ff6fc080df10ef4f0fb
090bfef205eff9fdf70e07effbf6f000f3030f0d05fa080407f009020cf7fb10
03f3f9f1f0f4090d0aff0210fbf9fd10f608f5fafe0ff2fa000e040000f0f408
0df9f304fa0bf9f0f7f5f40df20901f1ef0505f8fef604fafd0b10f60606f1fd
f3f3f0f3f9fb0a0110000ff5f1fc0f030ffe07050cff0a0806fd0ef009100810
0b0e0af7f404f4f1f809fb0afd00ff09f6ef10f408fffaf30bfcf3f8fe09f10a
0a000df8fbfa07010808f7fe00f7f0f40ef6f4f4fe0c0bf004f0fb0efafcfc0e
030f10f5f30e0b0a0f0f080a05f210ef0b07030f0efe0cf30ff601050510f9fb
f1f00f0106fafc0104f004f8fe10f700f70df40f0ef0ff0cfcf1f30b08fb0901
fbf9090b0dfdf60bfc01f401fbeffef4fbf608040ef30dfaff02fbf2fd0f05fc
080e09f7f7fbef080208f3f5faf40b0cf4eff7fc08f40a01010c060e0c03f6fb
080df1060b06f6f70a0afefcf9fff3fc07010afdf4f905faf0f7f90e0a01f308
0ef4f6ff040a1004f0f1fc0307f3faf70f0bfcf7ff070af60607020ef6010e01
ff010ff9f8050cfdf0070cfcf6040ffa0efe03f3060b06f709f709fd031002fe
0ff3f00a06f4fdfc0b04f704f402fc02fcfc0af30df0f2070ef40e060a0e0af3
0e01ff080301fe01fe060505f609020b020008faf3f0020fefff0bff0e000709
f6f9f31005f9fdfc01fdf9fbfbf806f8f3fdf709ff10f908fa0904f9f809070e
060df208070c04f100f90e0dfff4f30bf2f80b0f0506f2f5f2f30feffc0c0409
ef000a08f9f30a0b0f04f80904f2f9f1f600f0fa0c0007fbf308ef05f3f0000f
f8020bf308f2fdf50ffa0af70bf4f8070df7f1f1f80a02f3fcf8f409fb000900
0103fa0bfcf9f8effb04fcf20d0f0304ffff02f0f1faf8f405f207fb0d0d04f0
fff1050fef08f510fef104f3f9f8f8f10d0f07fb10f0fcf00e050cfa1000fb06
00f1fbfaf5f0050efafe08fbf30d0ef3f0faf906f904f30bf4f80f070a0104fa
060ff2f1f30904f1fc04f207fb080ffcfffe050d05f10df1ff01f9f80efa060c
f1090106f0fdfe0b01fef3f6ff0ff20c10f1f8f2f5f604fbfefff003080ff5f2
00f207fe03fcf401fef404f2f60404fe040f00ff0bf70ceff7fd08fe0af3f5fe
0d0bf103f803f507f103ef08070f0a0805f7000f06020908f30503ef02f80601
fc080ffdf2f6f40509040dfa0afc0ffff9f90405f5fef7f60e0eeff1f807f8f7
0404f2f103fcf10d0d0f0007fbf400020c0d0a00f802f3f6f4fdf20210f703f3
f509f9f700f4f203f200050c05f3090d00f7f401fcf6f6f406f1ff0105f307fc
f5060b0df20bfbfffcf5f2f3f100070f0c0d0c0808f3fe0309f808f0fef00706
01f8f1f30d0dfff107f7fbfefcf70c0bfcfdf10b090e0308fb05f4f90a00fdf7
fcf9fa0108f5f1fa0a0b08f6f20008f5fbf407f4f0f3fe0207f9f6060ff2f6f4
f00a06041009f40500f4ef0ff0f80e0e0af8fe09f307f0040d08ef010df0010b
f10d08f5f707f2f00c08f9f5f005030df310f3f8f010fafb0cf90910f0040910
0106030e0ceff4fcf301f8f801fbfe04f1050cf9f401f9fcfe09fffbfefd0105
08fe090efdf7fef1fb10fb010e02f706f804f60800f404fbfd060609f0f601ef
f104f50af7fc06f10d050d000d0102fcf5ff060d00f8fb0df70206fafcf00808
01090a09f20df8fff3fb050af2010bf2fff4f6fa04fd0207f8f4fcfb09f8090a
0bf80c06f2070cf1fc00f70506f9feeff80d0af0f6f9fbfaf50e0cf4f5f80405
0c020a03fc00fe00fc06eff1fe000710020d030df2f10af9f0f10a0b100e0b03
fcf2ff0a02090205f9f1f1f308fb0ff6f00b06f7f4f607fbfbf4fa0010f403f5
f00c06ef0cfaf3fcfef4f9fe01f3f3fc04fc05f9fc01eff807fd0df405f20ffd
0bfd0cf6020b01f70a000bfc020bf1f606f3fdf40fef0609f8ff08020e0c0f00
f8fa04ff0cfbf506f2f304fb0400fd09ff0bfef0020a0a090203fdf5f905f907
0ffdf8f7f4fb09f6f20504f3fc0706000e05ef04fffa0600f809f901f3faf0ff
0af7f00efe03fcf201f7f90cf1f803f4f3fffefafb070bf8f80b00ff08f5f00d
04090508eff7f0f1f01001f3ff0d04f406ff060e0f01fe00050c0d0cef07ef0a
050804f601f1f001fa0eff0cfa0f030cf70d02fc06f80a0106f5010500f3fe04
f60b06f301ffff0700faf3f6f7050107010fff070606f0f9060b0101fcf201fa
0809f3f0f0f7f90009fd09f305f6f501f10506ff03f5f4fa04fdf9f1ff0bfffa
04f705fe0df1fdf4fef4fcf601effef6fa090204f5f8faf2fe0103f008f40e0a
f30e04fc07f30cf8f4fff1040f0f01010c060b05f30307080dffff10f30efbff
fbfbf8f30afa0b04f80cf7f7fe10f907fcf9060504f303f2f70906f902f101fe
f506f50b0210fbf6f407f70010f8fcf104000afb10040e01f4f60b09f8f40801
08f5fe08f1f5020b05f503f7fbef0dfffe0405fdf0f8f40c04030d030cfbf7f4
f10306ff0f0ff80ef30304f4f3fa0108f310080eeff6f903f1ff0a0e09fffdff
fdf5f3000106f5f3f207080b0af808faf6f8060afef607fcfdf1fe0e0cfa0c06
0f020f01f20d0d05f4f5fa090c0df210040402040af3040e000b0c0502f9050f
10fafe030f0403f2fff3ff010bfbf0f90808f8fcf5000a0eff05f7070c0bf1f8
06faf604fffffafafaf5f7f6f2f8ffeff4000cfa08f40afaf900f1fc00070806
1004fafb0005fef0f709faf306f70203ef03fdf80500ff06070cf30dfe08fdf8
fc0afb0a09050f0300f0fc0d0b06030c09fd01f9f210fbfdfcf8f70cfe0a0904
07f2f7fcfafef20e0904100dfcf4fc0c000d01f4f6f40c0a0508f50207030803
f9f2f3000d090cf6f5f1fcf40f00f5f207fe080e05f103f4fcf201f6fa0ff40d
05f8fffdf20d0bf8f902f10e0609f90d0703f40e0305fa0befff07f5021001f0
0d09f910f8f7ff05ff020e060f0c0704fefa0900fc080ef3f0f2fe0a0afe0e0a
07f803f608f90203f3f50cf706fef70cff0bf7f9faf9fe0efff4080b0a0f0bf6
f903f307f10210f500100607f6fb05080cfef707faf1f7fe0a07080900f4f3fd
06fe0c0f0e0f03ff060cfff0f403020e08fc06f90e0df4f0f803f407f1050dfc
f1f0050c03f2f9f61007eff60104f9fafcf5f309fcfd000d07ff02070ff60d00
0c1008f6090a05f309f902fb01f2fef8f1fff90b0f0d04eff2100c0af8fa0fff
eff3fb060301fe0ef0090005090706ff0606f9fbf010faf60af2070b04060afc
0c0ef9f102ef06f0fbfc0c08f2fefceff806f3f3fb0f09fef809faf70ff90e01
00fff6f10ff209f8f9090008070df6f0f509fef0f1fef5f70a03020bf9f4f0f1
f8f5080d0a01f7f3efef08ffeff209f8faf205f00bf4f108f70405100c01f1fc
0df9f8fb0cf005f5fdf0effbfcfa0e09f50c0efdf2fb0ef7faef0f04f80bff0b
f2f9fe0cfbf407030bf7eff2f70df802f30df205f00602060efff4f000fc040f
f90a0cf1f00208f00ff10f0d000a0cfdf10210fefe030e0ff5fc04f4fb0405fb
fc0e0d040bf5fcf20502f704f90d09000af30303fcf0060005f6f3040df10ef3
fd090d0b10080bfcf70af9030808fe070900f8fb0810070dfdf7f9f6fffb06f6
0f09f90f00f80b0feff9ef0500f9eff00b01fdf8030f08f910fc1001f705f7f6
09f70502f90b00fcfc0308fe00f1f90d03020c040502f700020af70e0bfef30a
0f0e00fef3fbf5010bf3050609060507fd04fd0ef308fe0af2fa0e000cf40afc
eff5f5f4f2f40e06f2faf6fcf30c0bf8fcf1f7f2fffb0205fa00fc0a0710fe05
0c00f404fdf61002090bf10dfefd0006fbfaf400f7f10c09f3f008f10bf4f006
05efffff0f070bf30c080dfefe03010ef20f0a0afa0b0800f902fc02050804f2
060dff0afcf8ef02030df8070ff9fd0409f4fc0e0e06f003fd0d0004010cfffb
f6fdfef6f50f0ffc10f8060a00040af9030d0ffceff7faf0f5f8f1fc0aef05f5
fc020c0f05f8fff80b0cef0901fe030ff6f7fbeff8f0f4f10f03f0f9fff0090f
f40a01f6f1f900fc0606f3f10f0f0404fe0cfe0b0a08070e09f50e06fb0ffefc
03ef0ef1fe07f8090bf007f6f0fe06ffeffcfff20707fff5fe04f4050ff5fafa
0ef8f704fdf1fcfa050c00f8f1fb02f000f1f8fbfdfb0d03f4f0f6ef100d0007
030f0ff208fff0f9f7fa010ffef00f0bf909fb03fa00010e0e0505f4f1f5f70a
05f7f6f6070cf0f5fffa0bf1f8f80bfc060bf701f7f40cfbfa02020ef910f3ff
f4f1f8f3f2f2fa050ef7f801f706effefcfa060bf0fe05050afc0206fcf20207
0b06f1fafafe03faf7ff080c0305f9f60ef5f6f0f1f3f6f908f20c02f1f5f9fb
0efff806f5f9060a03f8f700f4f5fc0c04080a090706fff4040ef00a0302f808
fdf9fc0dfaf7fff8020808fffd0502fcf4020c0e06f110f307f00d0301f3fc03
0004faf6f20b0010010ffd0409f7fa0401f6f50a05fef80a0af203f00704f010
0a0503f90c03020ffcfef90c0408f8100b0af6060cf50d09f0f305fb100ff909
0cf9f4f1f70803f5f209f8fc0f0ef10a020104fefbf102f3fb0b0c0903040bf1
f70907fbf0f3f8f8061003f40204f000f2f40f0205f6f3f30405f8030ff905fa
09f9f106fd07060ff406080d0efb0d08f9f9050703ef09f4fbf307faf8f4f1fd
06061008fd10fcf0fd0ff4fe0c08f80c00f800070f09f3fef9fdfe0a101009f3
faf10bf8fa0001f5f403f70dfe09060c0df7f10ff2f7f1060002faf8f1f8fdf0
080108f30508fc10f710fcf90cfcf50807fbf3f606f9f304f0fa03f609050ef5
f1f9100905100e05f2f1020df5f0f1f7ff06f60809f6fef001f9f50504f7ff08
fbf6fff80c0f0b0f0ff0f0fff3f20c100303f40bf402f50b0dfaf60809fe0cfa
01f9f8f0f008f80b05fa0dfafdf4f906fcf10404f4020e07f30c05f5fbf5030b
06fff7f3f6f9f20400f9f6100e050006fc10f6fafb070df80300ff0ef1f80607
ff01f1f309ef05fff80bfff907f2fc05fe0ffb09f5f1fef906f80d0c0cfdf400
f3f6f407010506f5090e0c0a0b0bf4f8fb0ef6f80cf30f0ff8fc0ff9f7ff0909
f4020b08f3f4f9faf810fc02ff0508eff20e03f60804f801f0fc100c10f1f800
0503060cfefe0a07fbeff104fc020cf60bfafd040e00f0070106f30ef5060a00
f5f9030efc0afcef0f0205f7070ff0f8040a0709011007f20dff090b0d08fdf6
0e07f9f7f4fbf4fff4fefbfafff7f00bf60e09f6f9f5020c0d01fc0e0cf10c05
f4f3f7f80c09fe0cef060802fcf609eff5f70ffdfff8ef0403f9f005040ef9fe
04fef80507f8f9f8f1f60bf40afdf804f410f704ff0a02faf4080ef706fbfa07
05f3030802100c0ffaf9f506ef09fcf10cf30b02f6fc0202ff07f409f704fcf8
f904eff5fb1009f3010c00f4f600f3f507f2f7f205060bfd0809f5ef06f0ff00
f40cfcf4fcf8fb0f04fdfffa0009f400f0f60a060d0a0ff405f6f00ffb03effe
040fff000df4f9fcfbf9f9f307f808fc0cfa07fffcf8fcfaf804f10708f202f2
f206fdfbf9f7fbf2fd0b030bfb0bf50e06f6f4fdf0050501f506f408f50cfafd
f4f504eff307fdf00bf3f10f00f8fb0008fdf0f60bfa0107090ef90cfcfd0ef9
010e020c01f1f4f807f30efffafa0d0cf20ef0f307fdf5fa01070d05f1f7f9f2
f004fef2f8f610080df90ffe0bfceffe09faf1eff005faf4fffcf1fbfa08eff6
07f705f4f4090408fe0b06fb0df10ef5fcf710f40801f20f0ff50cf50d0d090c
0dfef7f40504fff5030f0e0c0af80ef80df4f8fefef204f10ffa0404fd030ef2
01f0f70bf2f208fd0e06fa10f40f0d0a0afb0a0908fef9fdf510fff3f7fcfef3
fa07000d0af2ef1005f6020c0802f2f204f0f202f01001faf8fdf0f30ff9fdf7
08f1ef0dfffaf0effb03f9f30efd01100f07000ff90dfff1f5f9f602f6080cf4
fcfff7f309f50bf5000c1007020f0b020f03f9fbf0f4f00afd010209f1f5f3fe
02fff3f80df0f7030a06f9f8f70efffbfbff0b03f2fef0f80e060fff06fa090d
fe0cfbf80c09f4020e0d0c090cf2f9faf60002f00ffb01ef09f60f080bfcfc02
050ff80ef705f0ff09f5050901fdf0fb02f6060e0bf3f70cf9f3f4f610f6f0fd
f600f2ff0500fe0df1fdfaf901fe0fef10fc060210fefffef4f6040cf7fe04f8
fef306f3fefbfa06f7f3fb04050f0b0ff307f7fd08f3070ef8f0eff5f607f60b
0afb0b0a0d0c050505f3fcf7fef20b02011001f90af704fd07050c0204faf70b
fd03fef4f50ff0fef5fef9fffbf0ef0af1f2020d080a100e0c0bfcf104f80506
0200020f10fdf10c050ef1fb090c0210f80ef4fe04080cfe10000c0efbff1002
f8faf60a01050cf50e0b0408fffff8f307fbfb05fcfaf2f20cf7fbef0af907f2
0ef003020f04ef030406fffa0203f1f4fbf0050dfc01f3f40d0efff1fa01f904
fd0708f0020bf102f0f1f7fafdfa000efbf10e01020f0a0efd0cf2fe0a050bef
f1f9f40a040bf8f40dff00f200f5f4f60f0deff2f0f401f9f9f20c08fff6f202
fdf2f7f0f2fe0cf0fdf5f909f90b10f9010cfa090ffeff0302fb090cfa050810
0e000400f905f9f5f5f00006f1080d070ef4f90cf10e0a0f0efcf00ef20ef60f
f203fafff907fa04f5f2f105090bfc0901f90cf905f1fcf70ceffbfef1fa0c09
fbf00ff50afe0f02ef09fbf509fe0ff30209faf30fef0c0cf6fefdf802fc0ef9
f7efef04f7050bfff40b09fc0906f9f500060bf70a01f10dfaf90df3f506fff2
06fdf4000000faf00e0d0206ff0bf10e0af701f5060cf40905ef0df4fdfcf8f3
080907f90007fa0a09f8ef030b01f907f505fdf2f304fe0afef1fe0c040c0601
080606faff04080df402fb0909ff0802010cfaffff050806faf0f70209f60f04
0bf406fb060106f6f10cfcfefa0a0dfef1fdf1f00ef110faef090401f8fafefb
fff106f3f7fe0000fb080e03f304f40cf503060e01efef0b0a070d0ef6f10e09
f9090000fc0200f0f90bf4fd0308f2fb010b0505f20b0ff904fe0bf2f5f0090e
0b02f6030df6070f0bf60402f60202f3f10efcfb08f9f006f90b09f6f7f7030c
05f3f0f9f90b0d0d09080601f906fb000b0610fdfcf10b0100fcf7f6f4f5f1fe
0107000c02f30ef410050cfef00505060ff810030d0b0508040d090f0cf5f80e
08050f0904f30afdf6f00bfb1006faf6f2fbf70bf7fcf9f10f08f5f1f906f301
f00d01fdf2fdfd08f50ef90d05ff06f7051007f4ef00fe05050707f5ff020bf3
f00b0a000efe0b0ff00106f0f106f1f103040bfb0d01f4f7f8fe02fdf107f404
07f007fb00f0f7fefc020ef7f20b0c070e08fc07fa030802f1f60df308fbfa00
0df903f3f1f7f6f5010d01fe0bfdf009f20bf6f20c06f30805f8070b09f00909
0901f80a05f903fcfbf80508fbf2000ffbf803010507fff510f200fefd020fef
0a0801000b00fbff08fef7eff504f50507fff50a0606050df60109faef0500f5
fdf7faf9070908f1f80805f90a0dfef3f904eff700f60b030105f7fbfef0f4f4
03f6f3f901f710f5f3fcf600f50df707fa08f20c07f2040df00104f203fcf6f4
01fe0afc0df00dfd04ef0507fd100908f30df807f6fffdf5f9f70107040e080a
fffef9f1f1f5020e090e10f20cfcfafbf6eff008fd01ef0806f00df3f2f30a0d
0b06f3f604f20a090b0d030f0dfb0df708f3f5fc030906f5f0fbf1faf7fc0803
010c010d10fbfc0ef4fff706fbf9f1f40e0f01fd00f90408f1f20d0f0e0ffc0f
0ff80dffef090b0708f9f40709fdfffff1fe0304fff9fb0b01f7ff0602f8080e
fa04f50bf40e0a04f0f810000cf50b0afc02f3fc0cfefffb0df00902f100f400
fe0e03f8fafef9080ff8fb06fcf6f206f406effe0bf608f9f8fd05f30a08f802
f107fcf10306fdfc1002f509f6f90bff0b040df3f5f0f50c07f2f1fffd0ef7fd
030b07f006f109f9fafaf0fdfff6f30c090f0c0bfcff040705f7030ff60d03f0
0002030c0af8f50b03040610f007f3ef010f0d05fbef0dfd0c0eff0702fd09f7
03070806f8f6080c00f9f602fef80efbfdfaf90efa00f1f00e0dfa080406f6fb
fd050e100b0a0df6fa0e05f70806f90cfc0cfcf8f5f40204f8090d0af8f4f502
0df4f0fd06fdffff0b05f60a0ff507f90e0610f3f004f10af20f030b00fb05fe
fffd030f00f905f10202f7020bfe0a07000f02f2fcf40109f1fdf6f6f60b05fd
0dfdfaf2f4fafbf4f90704010b0ff301fdf9f906fb040006fb09090302060ff5
f710030d0a01fefb09fbf50e04fc070005f70e10f3100d030c00fcf2f8f00a0b
f7f90607f5f3f5fe06fcfdfb06040703fef8fa09fd05060cfeef0df4f9f701f1
f9fef3f70dfcfb02f2fcf905f1fbf308f3080f09f904060af5040bfafcf60cf5
10f1090efe0cf707f0f7f8f504f30af60cff07f2fd0804fb0b01100b0906fefe
0cf9010a0bf2000bf50c05f4f2fd00fc0f0300fa060c0a10f1fc0a060a0c0ef9
feefff0a100cfa100d0106f7eff4f6060bf5f910f500ff08f20df1fb050702f5
08020a020c06090101fa030b0df90efc08f7f802f7fcfef20203f500f3f4050b
f0080afbfe0b04f1f2f7f7f9060df1040bfafaf0fbf7fdfcfaf1100f030c09fd
0601fd0507fb040ff3f2f402fefdfaf10f0bf50ff60a090503fe0304f2fb080d
fb03fa0308090602f70bf80d03f9f5f5f607fd050c080606fef1100d0002f507
f4f6f2000bf20d10fffe01eff2020f070807fa0efdf8f60efff3010a0df31004
fd05f702f2f3f20310f0030af10af2fbf0f60dfdfdfe010306f9fd060308fb01
0b0604fcf6fb05f0000a07f70bfef1fa020bfa0efc00fdf810f401f1010efdf7
02ef0102f7f3f1f700ff06f706f2040b05effd0df9090902f30dfbfdf20bfd08
05f0fe00f4fb0ff9f801000908040b0ff6050af506f8ff00fe0c07010ef50707
fff507010900f7f7f5f2fbf4f80ef4ff07fef4f2080afbf6f901010cfa0a02f1
090601f9f201f8fd0ffc00fb0cfd09f3fd08f1f0fafdf6f205f1fd09f7040302
05fb04f9f9f1080203f103faf409011006fef90ef60efd09f7f20dfff6f4f00f
0ff60eef09fbfdfffa08f204f8f30cf7ff07030cf802f7fd0d090f08020c0007
01fef8f0f0fffff9f4f1f2f9f5100203020c04fef70e06f1fa0c0b07f5f110f1
0005fa0cf4f701020904fff8f1f0fbfa03010000fe0d0509f706f8f4030a0ef2
f6f6fc01fa07fef7fbef0c020eef04050404f60e0908ef040eff03f7fefbf50a
02fd0409fcfafef4f90b0e0f0a04070d0d03f60604100e090d0809fc0bf9fc0a
030a050a0607ef040c0104000606effa060bfb04020d0ef5f7f3f60f0e0cf30f
0208eff0060c00fe080e040ffd0e08f708f6f40309ef10fdfd0d0008070ff7f6
f206fdf2f906f7f0f1010dff001004fa00030cfdff000703000df5f6100b00f0
f2f401f70e0e04f209f50d04f7fbf2f4f7fd0610fa0cf801f0f1f4000b0505fc
f30afaf3f1fd09010d0b090af0fefe030d011007050afe0af200f7060ef00df6
0af602f7f2f20afef1060a00f3f3000e05fe0dfc08f5f4f90a05fafe04f8ff0c
0310f3080cfaf204f803f70201f1fd08080f06f6f50bfcf502080c060dfff3f7
f8f7fb030bf808f50cfdf4f30e0af609fdf60710fc07f9fcf10b0df6f9f4fdf6
f4ef0201f5f0f5fef5f9020f0efbf7fd0d0ffd0ef902f2fffbf90004050af40f
fa0309fff8f800fdf7ef060dfaf10308f9f90ef2f4f70a0cfcf5feff00fdf1f0
f306ff05030607070a0e02010e070cf7f30cf809f7f5fff405080b05fbf4f107
fafa03030709fdf2fc09fe0ef60509fef80804f2f50c04fbfbf10300f80b02f3
03f20c0bfb02fbeffff203eff2f2f3010e0209fd09f00ffbfaf20cf80ffc0efe
0c02f40402fdf40cf507030bf703f5f60d10f7f70e0706fc0ffbfa0bf7fffe0a
f70f0d0af505fbf7fff8effe06fd04fcffef0b10f40ffbff07fb0009f910f5f4
00f7f0f80fff08f40d08010a04030904f3f9f309fd08fb030a05eff4f40d02f1
0afd01f8fb09f709f5fa080904060503fb04f2fd02fa0c04fc010f03f301f40e
f9fa04fef309fbff0df00104f5070d040af2100f0803effaf60a000af6f30afc
0301f30b0df8fa080af0fdfe03f1fb030500f00d050a07f0fcf4fafdfbf90104
10f0f307fe020403f20a0ff5050001f5f5090cfef60cf80bfbfd01f70c0a00fc
0e0d090b0e0f0c10f8fefe01f010eff9f20bf2f6f701fcf6f7f1f809f9f2fc0d
09ff060ef709f1050901f7f9f1f4fef102f509f106effc0408ef0b0beff9f504
f0f9f50310f60dfe0df8fc0206f30ef41009f402f20905f406ff030f0cfbff0b
f60107f1f20bfcfe05020e090cf1f900f6f2100ef8f4fa0ef5f50101f3090f07
f8f2ef0ff410f00b020ff2f2f908fa01f3f4fb0905f5ff04fa02effaf400040e
f00903fcef0005f503f504f6fe0f0f0b0307fb0801fcfb0cf7100d07f2f80510
0e0ff70af6fd09f0f1fe0c05fefeef01f110020101f70a030efc040ffb03020c
0007fcfdf200f0070b0afb07f80b06fa01fff80301f4050df8fa0108f408f708
07fcf6f3f30003f40ff7f60002f20d0502f508f1f5f8f7f20b0cf50afa02ff0a
fcf80bfaf0f707fc07f8f3fbf6fc0310fa0bf3f3fe0bf4f505f1ef0ef305000c
0afdf400f310f3fef4fb07fd0c0efa0404f70e0afd050dfd0ef003f2fefd00f9
01080202f8040bfefff410fffffbf0f90afafb0cf500fbfe05f6fdf10c01efef
f201f20ffb030cf904f104f0f1ff0f05f304f70a0efc0bf6020c000ffffcfbfb
01f00dfcfd050ffdff09f2f0fef2f1f9f0f2010e0700fdf404f907070df60ffa
fc0af803f601f0f2fa0b0102080d06ff02f20bfdf8ef03f4f1fe00f60902030e
080ffef8fb0ff001f8fcf9020e0f03f603f10c0e0f0701f5f0100ffd0c050afb
f5f10df2f509f1080504f305f0f7fcfbf7f80df40cff07feff0def0203fcfd0f
f7faf7f5f0f7fbf0fef201f50dfcffef0bf1f0f20b01f3f00d09f3f5fe000f02
0cf10ff9080bf2f9fdf604fc02fa000af4fbf806fd0106f00d09faf5f8f509ff
effd0cf706050af1f9fc00f7f0f4f1faf50b0ef90909fffd050e02f410010e07
fa0600fd02f9fafe0c0afdf3010bf4fdf9f400f7fcfb00eff804f60ff60af9f0
fbf70bf3f2020c0a0b0f0ff8fd00f70a0f01f9ff0f0df1ff07fb05f70ff909f0
01fefe10f703f50df5fe0dfe04effdfbeff8fe1004f510f80ef50805faf305fa
02f8f404f1f7fefa070b0b040ff00110f1f4fe080b0fff00f60c050009010a05
faf5fd070ef200f5f7f8fe07f2f00303f8f4040a10f707fff9ff08fe0703f7fd
0d07fdfa0408f00afcf3fa0404000cfd0902f400fffc050a0b08ff0f0b07fcf7
0ff3fa05f9f4f2f60f0fff02faf002f7f80af8f000fcf5000d0801f609f90dfc
0cfb000c0b101000fffc0700f3f3000006f910010209060b0bf2fef405f8fd03
fcf602f00e04f3fe07010e01fe02f303f7fbf2f406f6f2f008f50cf1100e02f8
05ef0ff8fdf4f6f7060cf506fc05f10c0afdf60206f0f8fd0cf3fbf5fcfcfa0a
f6f803fd0505f4f4f407030d06010efafef9f6f101f102fa02f400ff0c090009
f00e0a09040e0d040c10fb0a07f1f80e09effff0fd0bf905fdf2fdf2f3f70af3
fbf5080810fdfdf0f2f804f50307fb05f903f6f8f00a0afbfcfd0ff101f60301
0810f2f4f3030dfd0a10f000fc080301f5000af0040cfaf30def0d0c0902ff0f
0ef30bfc00f0f90afef90af9fc05eff70b0c09ef10f9f003080ff3071006fb0c
0b0900f70cfef5ff01f80305f0060ef2010f0c0d0d06fefeeff5f4f3f8f30ff7
f910f8f90af809070903fc0b0d070d0cfb00f610080403f3f906020b0e000b0a
0a06070dff09020f0cfdf8f10bfbfb0600f80bfefc020af6f50efbf002fe070d
f8f4fff203040aef070608040cfafa0c0ef2fb040e02f2ff030dfd0302020bf4
fc0b0f0ef6f308fd06030bf1f6fb0af20c0f0efe080f05fe040cf5f204f4f408
f50110050cf30ef60efaf605fb0d09090b0903f40cff0dfc04f10b0402f6030d
0d01f9ef0ff50200f5f5fe000e0200f70306020efdfcf100f001f208f20c0ffa
f3f00bf10d09f60f01f4f9f602f6f2f80109090b070e0cf80cfff904f3ff0b00
0306f7f4fdef010500fc010107f407090e0a0cf30dfff9000cfa00fc040cfcf7
fdfafbf806f0faf9000bf5fb0af408f6f7faf9070ef7f10efd0af50c0bfefe08
00fff6080cf5080af70c05f7f2070e0001fa0d000a0bf003f10b0b040bf20306
080cf4f8fbf304fe0ef40ffafbf90b0f090b0709f903fc0405fe0509f9f6fe00
f5f7031007f7f6f2f6f30ef6f10b05f80bf606f304f60b050902f3060710f3ef
ff01080e05f2000df305f20af9fd0cf806f3f9f90ef10cfaf4f102ff0df40af7
f3000001fafff9fcf9f00bf00f0cf408080700fcf1f207f8f2000df7f9070df7
f10e05f60dff0406fff6fef80500f1fcf204fbfa0df7000af5f9f1fe0605060b
050ef209fdfc0303f003f7f8f70610fbfc0d01fb0a0ff1f201080f0a010a02f2
060cf3020df708f3fc0bef0d0ef00e03000804050a0309fcf7f304fc0007f4fd
ff0def020e06ff0301ff06070c040b04f904f1faf2fff6f90e040f0c0000f7f5
f1f4ff0b0f04010a07f207fd0601ef00fd0e0509f7f00aef0ef102050bfff702
fbff060af1f6fef80409fc090efdf4f30df7f4ff0e010bf30805f5fb0afd0403
f507fcfcf2fef2fb0af7f1fa05fafef7f206f9f0f7fef60efd080c0209050e06
051004f4fe0303fc0cfe0f04f30e0af6f4040406080e01ff0bf4f1ff0cf4fa08
fff903fd100408f509fb0bfaf10cf40f020ef008f20802f8f8000e08ef03f6f2
0c010bf4fe0e08010af40cf905fa040d08020bf0f1080cf00feff5f0fb0cff08
f502f0f0f401fdf007fffb0cf5fefbfe10fe10fcfb0c0df8f0010003f3fc0204
020107010304f501fdfe010cfe000bf1f0fef3f509f2fdf8fdfff8f70b010907
f6f7ff05f10e0bf4f409010ffbf7f506030900f60a02fe06050d09f308f5f1f7
f0f4fcf2060608f606f20b0aff10f6f708f0f7070600060d10fb01f3000c03f8
0effeff9f9f9f3fff80b0feff0f010fe07eff7ef0f0a05060e02fc0202050ff2
f4f3f705f5f0f8fbff0307fd0d0501fd0102f100fb0b0efe0dfa06f3fb0cf7f3
05f20efcf40af70b07fa0204f5f909eff007fefbfafffc05f70a0b0aff0ff6ff
f3f30310fa0b02010ef70f0ff2f0fa0d02fe0ff1020b00f507fa0110f1f30302
0c06fdf60afa03000cf91002ff04effbf40706fbfefb0bf40af4fb07f10001fa
faf60709f802f50efc04f100f1f10affff01f40301f6f705fd000d0ff30d0e0a
f0fe100bfef3f3fafc0b07080ef2f10dfbfbf40ef9fff4ef01f204f706f706f8
f90c06f60b04f2faf8f1080605090f10f5f8f40df9f9f5f3fef7fcf3f5f1070e
fa050afafef104f0060107fbeff4f90bf30201eff400f80f0406f0f90ff6f007
0600f002fb0ff3f7fdfc0f00f10a0f0f020001f7f5f6f4060702f7fd0106f0f8
030bfc05fd01f20b06fffff405f40bf6f5f90702f0040af3fcf20ff004f5f9ef
0ffcf0fc0ef907f6fefd04ff05020003f0f104fb000cfa040a0af70afc0705f6
f8f2f0f6fc03eff60df10dfcfbfdef02f9feff0dfa0607f6f405030110fef1ef
f5f007f4fe01f7060108ef08f6040a04030f0ef6faf1f20af90b03eff1f00c0e
0d0b06f0effa0d0407fcff0905090d05100bfc01f40df6fb00f0fbef0dfffcf1
f307f3fdf60206fd04f404ef00f8fbfff5ff0afef6f30409f50cfe06f0f2f2f6
0af801f706f50f0dfdeffe10f009f9f10bf6fcf7fbfafffc0ff9f8eff8f4090d
f8fef10efbfef0faf000000bfafbfaf7f5f5090ef0fa020c0c0a0af9f7f9040b
0008fe0ffef2fa04f2f3faf7080ef3f60ff6050e060000fdfb0ef00ff30cf708
07010af807030d060afff60c0ff70e0cfcf80405000c0df909f0fc04050ff008
fe08fdfcfaf9fa08f50905f705fd09fb0510f003f3f7090d0e02f4080800f80d
06f40f01f507fff3fb060d0602f20207fb06fb0c0d0dfef902fffd0505f50bfb
07fdf0f3ef01f0f6f5010cf408fe0b09fff3f1f0fafefcfaf005f4fef30df9ef
fcfefa03030bf9f8f0f40fff0bfb0c02fbf7fe03fb0df3faf006000a04fefefb
060c060c0610050100010ef306f90b0906f0050af7f1fe0cf20bfdf1ef040105
0504f301fef6f1f2f7f80ef503f702f2f80cf5ef04f809fb0207f20afffffbf1
03fcf2020002f9090001f2f5090ffffb03f1fbeff0f8f1040a06fd000a0208fd
f5f2f4f50f040f050502f00c0afdf004f3fef9070df402f20801fcfc0bf2fbfc
f6fcf80a09fcf2f500f2f40c02feff00fd0003fef5fff404fbf3fbf9fefd0b0c
f2f500fefdf4fb100907050ff1fa05f90407000bfdf80c0efeffff0c090e0c0f
0905fefa0703040f0a010d0e070e01fdfdfdf007f909fffc0700f1fa02f70502
f9f7f20c0ffa02f001f40bf405fafa09f00c0a0bf2fbfdfc0dfaf50403fa0f0d
f50bfef2eff0eff8f20ef2020cf8fcf9020df7f30d10f1fdf10a080ffbfe0c10
f6f8040a08090b0c10f00fefffef0a08f300fd0a080a040e09070c0cf5061000
0b04f1f9080af2f4f70609f1fcf404ff0306f00706f3f50a0bfaf8fa0b090e0a
030cfc0efdf0f10603020905f610f10dfbf80a00070afeef10f90df90710f700
0ef010f90cf0f5fffafd0d060b05f9fcf00f09fa07fbf7fdfc06080107fe0f0d
f00ef90f010f0ef809090205f7f6fa0a08fefef4f4f00af00c0efe0df409f101
f5f103f6f301020af20af30b0c0609f90e09f8fd01f7f90b0102010b10f0f105
f2010003f00e07f110ff02f3fd100bfb07f9f1060ef1f2070802f606fb0ff805
f70eff020ffefa01f5f90410f7fcfe04f9f703f4f604fa0e050b0dfef0090308
09fcf90b04f7fdf106f8f404fc06fc02f8080204f3fef10ff2f3050d0c0d07f9
0c02fdf00a08f6070df00f09fef60bf9f9fd0df0fe02f9f3f302f6f50efdf8fe
03fd02080dfaf80b0d060ff910f9fbfff2f1f202fe0b01fffcfbfcfefb0e0704
f2f6fdf8f4fe0903f70ff6ff01effafefcfaf801f3f2f8090d0e0df70f0f0f02
00f108100d090b0d0702010bfc09fd0605f00cfbf20f0e00f202f00efbf7090a
0a0205f60e0efd09f2f509ef0804f3080e0c00f0f2f3070c050f0bf4020905f5
08f7000303f910fcf5f6050306090402f8010d0402ff06fef1f002f8f007fefc
f0fa0f00f2f0f3f30705040e0f0303ef040e09f4fff8000a08f6f60a03f208fb
f210f90c030808040c0cf8fefe0ffd000af20b0107fd0801f8090af2070a0d0d
fafff9fd07fe06f5f2f0fb01f4fd050e0b08fbfcfe0b05f90e01f904ff0d0903
fb0a00f1f6080109f40dfd0cfbfffa040c07030a03f3f2ff10fef80a0bf30e07
f508090f08f2fd02f80700faf407020ff00407fdfafc0503f4f8080107ff0f02
fbf1fcfff0fa03fd10080403060c09ef020f000ff6f6faf4f4f2fe0d0afcf40e
ff0e0001f20a06f5fcf2060afe0a040ef70708fb0701f805f8f4fe01070afbf8
fb0cfb030310f2f0f7f20c0ef4f30c0309f5030dff0c0301f8faf50af8070704
02080efc000210fb09eff3ef03f4fdfd040afff3fcf60f0dfcf7fc090b0d0f10
050a08f10a0505090ff9020b040802fff60a09fcf5f0f500fb000ffc0df30ffe
06fbff00fef6070af8f40eeff0050afb0207fff7f409fafef9fff70c03eff5f1
f20ef7f1f8f2090df5f7fc100b01f7fefc10fdfafb0bf2fc0e0f1003f6f6fef3
0af9f901fefdf3fd05fbf30b01f1f50402f9f2fbff030701f7f409f9f808fff6
07f60b08090e000cf8f700f5f70609f1050deff40f0f06f609030b09fbf50f10
f4fcf5f00cff0a03f5f9fef7fcf2f302050bf8040cf1fd09fdf701f7f00bff08
020505f8ff07010a07fe07f3f3080104100bf90702060101f706000b00f20605
04f701fd0df3f3fb00f3f60af8f2f1f908f6eff6f0fdf704fceff5030bf4fbff
0af5f30005f8070c01f3f1fcfd060df2f5faf1f90808f210fbf8fcfceff2f8f4
05f2fd0ef5fffbf6fff3fa08fb0402f8f6000e00f3f0f80409fa03f80d0a03ff
070a04f305fc0efaf500050d02f7f00c0901fb0204f8040df1f9f10f0c060ffa
09fa0f09f3f406f6f70ffa0900f70df1f7f90c0b03100b0df7fa09f40f040df9
1007f4f3f5f1f2f4030bf6faf60e0efcff0a0cf70df0fffa0ffb0c100dfcf7fa
02f40507fe0e0902f30bf20b03f905fd000b05fd04fa09f0040feffa06f10009
050bfa0709f20a0205fe090e0e08f90fff030100f80a07f8eff9fdf505f0f205
f004fcfa0dfcf0100705fe0e0ffb0c04f3f5060e08fdf80d08000701fe00f70a
0409eff9f40f0afb0f0a05fb01ff09fd06f507f0060bfafdfd08f8fa10f90af8
03f20efbf307fe03f3f40df1000c0ff5f50008f5060d0bf0ef0e0e080f0f05ff
ff0ef7f2060201f60402faf6070204f7ef09fefefff800f305f506f1f40804f3
05f6fcfd08f901080ef6f4fa0410fbf1f0f9060ef1f8f4f30001fcfcfb03fdf6
060405f702090f0e04f80dfe0ff70b0b050f040ef80b02faf60d0ef6fff30c0c
f6fe05f3f1100afdf106fa0a0808f9fb00f7f1fa0bf4f60af40e0af5f1f8fffe
0ef0f4f80a0a0dfefcf0fd04f3ff0bf6fff50f0ef5fffc04f20af50ff9f4f909
f7ef090e0ffdfeff07010ef80ffaef04f3f2f9030309040c04f702fa07f7f002
fb00030e0b0909f5fc0d040afcfcfefd100ff6f40a030705fc06f800010e0f0c
060b0bf1fe100bf400eff70810f502f3f901fa00030503f5f8030506f30c000d
fdf90210f3070a0f06fb000f080afc060d0bff0cf704f7fa070efcf604f6f706
0e0ef6f20afd06ff010b05fe0af8f50efd0903feff02f7090ff705f7f7f30902
fc0705fd0ff4f410f2f0f60608040e0c0402fe00fe07f108f2f902f1f3fe100a
02f9f5f6f702f80af80af10a02fef1fcfdf8f809f7fd05ef06ff0d040d0aeffa
f0f50f0206fff70205fc0309020201f7f8faf90405fe0b0d06f80cef09fd07f0
f4fa0504f4fdfefa05f9f50b0004fdfdef0cf8040506f7040beff7fa09f20708
fd000cef060e0100f3f4f70a0ff50608f00afffc0dff0d080dfaf1f1f4f7f0fb
0dfef4fe0b10f1f201f0f4f3f80df1ff07f6fe08fffe00f604ff09f30d010900
05060ef20cfbf6080d080d0af7fff60ff300f000f30304f0040df1fe09f8fcf4
09fe0402f4f008ff0506fd0df10010fafb04f70c0109faf009f904050afff1f2
050ef3040f05f9f6fcfcfbf7f8fe09f3fafbfa03f6fb0a09f2fcf2fb030103fb
0509fefb06f204000b07f008fdf708fdf4f002ff07090bf7f9f504090efcf0f2
0001ef0efb0b0c07faef02000309f1f20ff2f20dff0a0608fa0ef40f04f000f1
0bf209100ff6fbf90af308000809f8020f0cfefafe0e0ef8f00200ef06fef0ff
f703ef09f30afcf1f0f20cf4f7f5f30dff09f9f80bf30cf60bef0cf00b09f50b
04070cfaf30a0b060110fb00f608f2f00bfefc0bfcf6f1020806f4fafb0af70e
f80ef40f0ffcfbfcf7f200f9f1f30cf7f5000d02f20efb040b0f0df1050bf110
fef903fefaf1f405fdfdf8f7010b07fef2f7f4f40f05f4f9f4fe01f6f30af910
fa0f07060ef4f7000af5f8fc100bf1090509fd090206f30b0b09f8fb09f3ef04
f0fcf5f606020209f7f00b0904000d010604070c080cf60001080bf0f80bf5f8
0b10fe0902fb00f505fc0cf10cf902f60df505100203fcf1f2f90e06f80710ef
0b0cff040cf2f7f6040605faf4f10f03010e05f7fd0e0bfdf7030f0df0fe0bfe
fc0104fff5f906f804fb0403100cfd0400fd0bf7f8fe0cef0f0cfa100afdf5f7
000003fbfff307faf204f5050ef2f7effbef04f3f8040b070600f20af1fd00f5
f4f20e0af008f10904f70cf8f60bf2fbf4f80500f50c0df1fdf00d04f50e0cf5
f3090902f70a04f4030705f4f7f60a0b0efa0fef0c0502f1fdef0a03100a07ef
f5f1fa0a00090e0bf9f50a0104f40f090107f8f5ff0cf60df40c090807f8f103
090c04030c04fa08f210f7f70bf3fdfc00f40ffffa01ff0afc0b040b0ef20e04
f7f3f6f506fd01f501f20706f7fdf2f6f40efafafff901f100f2060e0e03fdf1
0d07000ffcf3f1fff40bf70e0af1f1fc0d0c0d06f0f30dfcf80d0bf2fafdf5fb
fefafdf2f30604f70601fefaf003f901fc0ffb0f0908f900f506f509fb0af70e
0c0a0efb03f207f102f309f60bf40c04fdfb07f30dfafcef03f6fa04fbf00ffa
0c040e0d0d0101fd08eff20a04f90510f9080e0503f903f3f2fb000008000f0c
0d08090c05f605fbf70ffe0afaf50d0805f910f6f7020afefc0e03f4f307040e
ff05f705f9f507fa05f2f105fbf8f3ef0cf20afa0f04fa040cef0c07f90a0d0b
f600f8f0f70005f40f0b0400040dfc00f7fdf00ef90102f60f0bf1fef5f9f501
02000e01f1f2fefc04fe0c08faf4ff01f9f0feefef010b0ff90af50306fdfdfe
f8080ffb0109effcf0fafeeff60e030208ef0d0c01fef2fff7fa040af902fffb
fe0508fbfef30df8f50300fef2fd000700fe00f4090404fe0df7fdf5f903fdf4
f310f500f705fe09fdf4f3080afdfcefeff0faf3ff03fd0b04fe0a0ffc0e0602
fff3fd02fdfefb06f105f5fbf800faf4f80bfa0df20cf1fbf9fc06050d0c050d
fe0e04f10b070008f90b03f7fbfffc0a04fdfb08f10601fe0108f5f5ef070f05
10000af7100a0f0600fdf803060c01fb10000c07fc0cfc03080df210f805fd06
09f3ff0b080ef508ef0a0c0dfe000ef5f9fef8ff030007fffcf2f808f8fb0b05
f70af9f5f2fef6fb0400060cf0090601f3f9fafff3f50fff000f0cfa0a02fbfc
07f10c06fe0a0101f30af6f30efaf4f9f7f7f90cff00ff00f10cfcf3f30f0d0d
f50902f1f703f10d0c0106040ef40af9f202f20b070bf5fc04f1f70608fdf8f7
0109f3f40708f90bfb09f8f60dfbf8f505fff001f5fc05f20feff805f8f30d02
f100050a0ffef801fefa02f708090504f10af304f90bf70b0ff80c040c0ef704
f3f4f4040f03f807fc01f50bf2f908fefb03ff05fa031004f4f5040ffffbff00
f106f702f7f6010a030503fff50e02fb09f2f5ef00f010fcfefe0cfaf6f7f801
0801f3f9070efd0a08f5fc05f6fe0ef3fff1f7f0020f0f0ef2f8ff0f0603f300
fcf10b050afefbf3effdfcfd0b0cf4ef05ef050b04f010fbfffb0e100b0c060d
f802ff0d0af7f909f5f6040ff70b01f310fdf7f0f0fa01fbf1050f06f30cff0e
fa0b09f3f3f201050d0c0efdf0fd0ff0fa030810f808f4f3f2f5f3fa0feff801
0b0df4f001060c08f4f70efff50ffefa0dff10f705fdfe0afeeff3080af5f106
ef09fff9f70c090807f30507060afbf0f510effc0bf907090403f7ff06fa0807
080f060b07fdff03f7f002ef0a080a030d0c02f6fb0b040405090c01fff8eff7
09f9100ef600f2f706f50409f1f2020dfb05100ef7eff6f2f1fc0d01f3f3040a
f20708f5f8f100fbf6fa00070bf905f2f3080dfbf7090e01010e0e0ff1f500fd
f4f30d0708fef6f40007fc09fdf70aef080cf6f60008f407f702f301f1f0f8fe
f803fb0bfbfc0509f5fc0900f3fc02f70ef101fcf6f9f204f3f907080a10f7f7
0d0106fafaf3fafbfcf60603fc080306fd04060005f4f0ef000ef503fc00f6f4
10f2faf2f106f304fbf3f310f90700f50203f6f00b0afa09fc0afb0204fdf90a
fd0dfefff10604faf40def0b0bf0f9f60503f507fff80bf808f9020e0b060bfb
fef9fe020dfc0600fb0df410030bf0ff0908fb0806fdfafb0ff1f4fbf5f00803
eff9040106fa03fc0e06f8f104f4effafe030301100706090bf607f1f8f9f9fd
f3eff3f40cf2fef6fefbf710f5fdf2fbf605fef7fbf3060801faf4fefef104f9
0603f3eff4f0f2fe00f0f9fcf8fbf50cf0050bff08fcf80a0feff0090ff5f901
fef906f50302f30e0008f4faf607060a0df807f6f7f3f60800060ef3011001f0
fd0ff502f40c060e05050608fff6ff0b0402fa0f03f904fc10020bf2f9f4fd06
f90a0efc0cf70906040f0404fc0d0d0af0f805f7f5f204f1f606f9fe09f0f60c
f503ef0109f8fafe010903f702f704f20600ef0ef9fd0e04f30f0c01eff6f9f2
fbf2fcf1f1f10d05fdfafdff07020309eff9f9f90b05fcf60af3040c06040afd
070dfaf70bff020c0d01f30900f00601070b00f1f907f2ff0ffd06f70ffaf306
080c04fef7f00702f4faf2faf30cf2f0f00bfe06011005fa040ff6050afcf4f4
fdf6f7f107fa01f2fc0df2f3f90f0701fcfaf80b010b020f070f0bf7fa050c09
08fefaff100903f90910010cfd03f006fdfa02f50c02020bfdfbf8f80ff90d08
f307f3f5fe0cf5f6f80df1f205050007f20a0f020ff00dfb0900fc08100309fe
f1070e080bf7040204ef01f4f604090b000208f7f70210f6f7f2f1fb08ef0cf3
f6031001f5f100f10c0f0503f4fe0b05f8fe01ff0cf20700fef8ff00f4f80005
ff0606fcf6fb0af80afbff0c06ff05fdf5f1f90b02fcf0f4fdf407fc0cfef5fd
fef0070b03f2f0f60afd07fcf7010bf7f00a0c06f405f80bf50f05f2f706ff0f
03f3fef206040efe0f08030cfe000c00f0f5fdf5f3f8f707000702fc01040b0b
fbf206fbef0c0f0500f8f8f90f0a050203f402f50803fdfb04f50f05fa0709fd
070df103fe0f0ef00cf5f50cf7f2f90508f10f00f4f7ef060b0500f7f303f8fb
0afdfbf5f80ff2eff8f4fc050bf2f60405080e04f70c0bf8f20e02fcf004f2f2
f8fa09f6fff50509030007fdf605f101fd09f70407f30906f6f600ff09f103fd
06050c0a05050bf503010aff0ffafaf10d0dfafa0df2091004f70105090d0afa
f3ff0ef10c04f8f9f30003fefa0e030808f3f90d010bfbf406f0fa0d0cf3f2f5
f40205f6f9f6fcf1f50307f40af90c0002fc10fef3f4f9f8050d0d080afa03ef
effcfb1001f8fd07f5040af20efefe0308f50afc0a04f5f8fef40af8f5f5fcff
000bf60c0e0cf1f80a0af3000e0806ef08fd09ff0f0eeffd0a0df105040c0df8
fbf1f403fbf0fe08f5fdfbf1f20d0a0afdfaf902010efbfefbf2f2fff7070e05
f407f2f5fd050e0cf8fcfb0f0e0503f7fbeff30201f4fe0707fdff010ef4f1f5
f5f9f7f501fcf8fcf607f408ff0bf206080f0bf5f4f7fffbf7ff08070cf5f30e
fff9f410f5f6fb05f2fe0409f7fb0101020b04f4010ef705f2f0f103fd010d02
fe0a08f10ff60ff70000050e0aef04fe0cfc0bff0b0e0cf70e0f0af5f8f20af4
f9fcfbfb0afc04f800f9ff0c100bf3070509f60b06040d0af60cfa02f2efef0e
09ff0cfcf5fdfdfd04f60df2f4fd0007f0f800f60cfbf508f404f900fe0c10f5
f702f20601f50ffafe04ff0f08fff1021006f4ff000f040c07effef9f3f60206
f9f6f307f0ff020906f5f70b0d09f610f900fc0e0bf0f2fc0aff09fe0706f20f
f10df508fd0e0b0d04050ff6f705ff100607100bf010fc08f10cf9f4f60a02fb
0af30c09f5f6f10c05f2f90cf10efa040c09fcff03061004060610fdf40007f0
0dfef107f9f9f1f0000df4fc06f7f3fe0d0f0af9fef90f0f01f70d040ff105f8
f3f00c0bfef8f00ef5fd00ff0ff20d0304f6f8060006020dfa0cf204fb0cfff2
0810f309040800fa0ffc0bfaf20cf60af106080e0def0209fdfaf5fa08fa02fa
fc0502f8f705f50808f7fc01eff7040bf602f309fe10f3fa08f5020c0af2f3fc
f3f8fc090e06ef01f305f0ef0ff4ff0c0407fff9f9ef02fcf1090601f30ef6f3
fafb030efd0e0407070b0f0d0702f203f30c0f0902f80f100f0cf70df4f80e01
0cfaf603f9fd0b080efbfdf0f6070407f80b00f00bf9f2f6f804fa0cff0bfc0c
100200000bfc0e00f0f605f702fff9f210fe0f080d000e0b0af5f30606070409
0cf3f1f606f50cf90af3f3050006f9f7f9030403f20905f80df504f5fe0bf2ff
f4faf3fbf50efa0804f107ff0207f5fff4ef0bf7f4f3f5effd0707f80c080405
0af0f60dfd02f706fe090cf8f20607f1f0fb0dfcf8030b00fefe1004070ffefa
04f50cf9f4fdfef6f601fd0ffd07f1f00efbfd0bfdfb09070bf80ff9f206f6ff
0603f306f2fef507fa0cf1f0f3f1f5fafb0e040bf007f0f50407f8f8f00d04f6
09f401000bf501f4f0fdfcf80ef2ef080901f1f9f3f9f210020af5f7040bf206
0703040e0c01ef0b04ff08f5f00b080ef0fdff080ef2f3f60a0600090ef2f9fb
010cfbf0f9f0f60b0f0a07f6f00f0bfe0ff2f807faf9f00df6f3020b08090505
f60b03fd08f40a0200fdf3fef5fc0cf80cfdf2f10ff50af80cf3fbfc0dfaf809
03080ffc0008f903f9fa04f7f0f90afef4080bf2f0faf50efc0dff08090cf1f1
0a040605fe0efafdf90a0d01fe0b03ef060707f20406f006100ef7fcf5f409f0
07f605fa0afa0c00ff0cf70402070c0d05fc0afe030c0103f7fdf10e04f104fe
ff000b090ff50bf6fff509fef7fe0e0c0e05f50b00f6060605f0fe0b04fcf4ff
07f6f0fafaf4050c03f4000e0a0bfc0ff0f0effb08010b05f30af8fdf4ef0a0e
0a0708040000fff9fbf106010609ef0007fd08faf10410040006fbf8fc0bfb07
000e06fcf4f90910f6faf5fdf9f8f0f105f60804f1080bf40807f0fcf00fff00
f5fe0ff2f5f2fffa05090d02f40f0406f0f7f0fd09f604fef7020105f80bfa0c
06070308fbfafd05f40e02fdfb0a000cf9010ff005fbf6fb0304f5f3100e050d
03f0f40f09f4f0f601fb05fefc08fd0b09f70e0009f907000cf20f0af2fafd06
fcff04f2f7f20ffdfb0b0a01f6060003ef06f70bf502f60707f0fef6faf4f5f8
f60f100404090602f3ef0beff8f7070e02ff040df3f40cf20bfdf60af4f4f5f2
f70df4000cf4f60f1010f40104f3f40606060df20d01eff709030df3f50e1007
060f01f20f04fcf909f5fef7f3f10e10fd01f9f9f9fbf8f904f2f501fe0bfaf2
03000b0a0d101010faf9030004f4f00708f4fe01f0f8100f0c00f6fc0cf602f1
f7f4fcf7f910f30efbfe0c04fd0a03fcfdf6fffdf3f40aff01f2f60d0df4f510
0d0a0c09f1f1f30bf409f2f7ff03fff6fd070f03ff08f7f209fdf707faf60a07
08fb100bf6fcf5f7f801020dfafb060605f60cfb02f80afbf5070cf8fa0e100e
fbf7fdff08000cfe030c0ef6fcf209fd04fdf70cf800f7f50dfaf1f0ef09fdf5
06f3f40b05ff0bf4f80700f50b080a08fff3f1f3050df8fe08f8f4fb07ef08f0
f90efdf40903f90706f1090ff106f700020c01fd00f7f006f40c050dfaf70afc
fd0ff3f30203f00efff205f20406faf1f8f708faf00b0afceff5f207030402f2
f9f206f50809f7f60709f00701f6f7f1fc0f060c09f5fa030c01f8f00202fdf5
02f308070bf5f40a01ff070ffaf1f7f20ffc0103f10203f110f2f4faf7f0fb06
06f5f4fb0efd0c01fe0a03fc0af5f2f30df907f40b06ef07f0f10808fbf90f05
f80508fd10000cf8f9f40803fc04100af9f0fc10f00efc09090df1f6f30e02f5
f30df7f9f30bf0fe05fa07f409ef10f1fd1008fdf3f60a02f4050008010a03f7
fc0c0b03f501f80d020c0afa08f706efff0ef6f9f4ef0a03f9f8fff6f0020a0f
09040ff4fafdfa0afe0a0dfdfd0c0f050306fcf5fa0bf6f6090ef1eff9f20d09
f8fc02f3f90feff0f40909fb0f0bf3081010010504fc07faf9070f0ff30d06fd
fff40c0307fef4f502f9f30bfbf90d09f5f306fdfc02f905fc00faf0080ef202
ef0cf2f3fb04f20b0b100506fd0efef8fbf50d00fc05f80006f800f60404f5fb
f4fcf2f6f90a0f0a0c0504f100f50bf6f60a02f309fc06fef0080bf6f8fff600
07fa0004f00df90c03f7030f0e010f030806ff0dfdf50e0308fc0e09eff506fa
0f0bf0f103f910fbf80df1f407f0fb070cfc0dfa0803f3030a100bf3f40df6f3
08f1fd05fa0f0008f9fa0f0f0b1008fc0f0e01fffcf20b00f50804ff010df8f8
fc07faf1050eeff00f06fef20cf80cf80c0ceff8f00d0908ef0af9fd0a00f5f3
0407f908060b0c0b0a05f401f701f8f7020505050df8fe0507fff4ff0afb020c
0d01f30d04eff70af7f0f2faf306f5f7fb0507fa040efb01f3f408070b0e0102
05f8f005f9fb0a0a06f1f707f6f2fc00fdf20c0bf901f2f8fb04f304fdf60a0c
f003f90b0510fbf3f30afe0305fa0803f8f60efbf9fafb01ff0708f6fa0c0a04
0701f90002f400feff0b04fcf9010af4ff0ef10cf30e0102010b0101f80500f9
0e020909070afafdfb0cf3f208100f0c100500f6effbf8f0050e08f401010c0e
f50f0a000bf20df4000df70afdfe050df1f20ffb08060d04040d0002fbf0faf7
05fdfdef100904fd0ffb0b01f5010f020b0101f00c0eeff2f50bef0d0a06fff4
100d10f0fafa08f304f7080109010ef50df0f70ef204100af6f002f5f6f90300
f005ff0e0af8ff0ef6fef7fff60cfafd08fff90806f9100af9f6000bf70bf9f8
0df3f9080d04f2f5f3fbff0103f510f50c01f80006f8fc080ef50df80cfd02f7
0dff0df403f0f10b0bfa02fc0af6f2fcfdf904f0ef06f504f00ff9fbeffe0af7
f7f90c0df00a0205f8f6f60bef0003f40df0050f00fa020cfe090a03fefff306
f50c0df4f0f1070d0b05010ff7f81000f9f50902f50e000cff100f0a0a0ffcf1
080bfdfcf0f1080809fa0b070909f40ef205f50cf1f8080b0bf8fff705f30507
f9fbf6f4f4fc0efaf805f1f4010d10f1fff5fef00bfcfafffa03f81002fbf1f8
f70dfdf8f3080bf4fdfd0bfafcf7f7fffbf1f0fd09f9faf7f20901f0fc0ff8f6
0e09f2f9f7fd06f2f6020cf0fa0b0df70df208f60f04f4f6f1f7fcfaf8fb0609
f7f9010902f60e0802f00f0b0b06f7fcff0a04fe0ffdff08f8f8fb0df3020ff9
0a0e010f09fff9070ff307f7f4f21004f1f2f010f7070400000410f4fa0bfc0c
f8040efa0bfb08f601f8030ef9f70100f9f00201030aef0afdff0d0efafc0df3
070ff7f6ff031004f403f4f106030206f30a0ef50ef2f3f50c0af3f7020a0e10
07f0051006f20af1f7010ef4f2f8f3f300070efdfcf6fc0003ef06f6f8fafc0d
f80309000bfb0609f50cff100f0ff9fa0506080ff308f8f40108060af1f40bfc
f9090cf4030ef7f8f30806fc06f60f07f808f8f20809020d0309f7f80efbfa00
f8f5f0f4060ffe0cf10c09f20bf70507010afaf10908fc0ff2fefd0cfdfffcfa
ff0bf3f6fdfb0a0c00fbf0f3020409f307f8fc0702fb05fc000307fef2ef0b01
f0fb0c05fbf4f210fc0dfaf109070703070df906fc07fa08f40deffffefdfd00
f8f00602f5f9100ffaf3f1fdfb0a0010f8f907fcfafff9fb0f0bf4f403f1fe09
070e0eeffafa0008faf0fa01f4f703f90904fe02f009fff601f209f80af7f605
f7f9effcf7f6fa0c05fd0b02040308fc0810020cf8f30ef10b0f05010803f4f6
ff0cf6050f070d04ef100bfe0c04f004f90af702f1f30c07010800060d08050d
0a0e02f90afbff0afaf4f609fd050df7f90808f60afff9f1f80107f109040afb
0dfaf00e06f2fafef90a07fcfb0509fb0e01fb0f07f90af90e00f8fe0d030cf9
03f30afd06fc02080006020efb0e0d020503f30701effdf903f502ff0dfbfafc
0aff0d03060af7f207f109f804fbfe030bfc06ef0ffb0b070afe090af8fdfa08
080bf5fe10fc0e06ff0cf0f30b0806100405f5090a0d04fdf7fdf100fe06f40c
0a070ef50e00060af70f0a0bfb0f0106f1f910effd0bef0cf008040cf5faf0f6
f0060209fcfbf70a080205f009f7f002fe0feff5f308f305f0ef05ff0af110f8
0f0807f1fe06fd05f9f6070f0007f009fb00fe05fb0d06eff50907030c070e05
06fd0304f80f02050d0b0a00f6fcff02000809fbf2f6faf1eff1f50a0ff50a05
08fd030c03f2ff090704fcf0030cfd02ff1008040a060efaef01f40ff6f9f104
0404fefaf80df7f70a0ffaf104fcfd0df1f1ff0f0feff5f4f70005ffff020110
080003fe04f904f108f1040afdf1040efaf7f6f10407fdfcfcfe04f2fbf704f4
0203fdf807f910f80ff902f4f6f2fc0feffbfef8fc0af1fe0710faf20c0d02f8
07fff108fd040cfafa060a04ffeff203f4ff0f0504fb0afcf9f7f0f2f8f60cfa
05f6f80af4f5040dfc02fb03f50504f0f003f9f9fb0407f8f90907050a0af209
f0f3f50cfdfb0f06f606fff100ff0a0a04fa0010f805f90a0c0b0808fdf510f5
090dfd0a04fef4f807fefef2f6f3f8f1f402f5f8040bfaf4000b0aeffbfef9f3
09f3050f090700faf10c0bfe0c0ffff8ef0dffeffb06f8020df6040406fe0d02
04fa090909fef908f7f702f6f8fd04f60c0800fa020ff20e02ef02020efdf409
030b0ff2fb0df9f90f0c0405f610ef0df1070e070d100af009f602fdf503f90f
f0fef0fffd0def0af2010b0001f010fa040608021007f708f60ffe06fe0d0304
0810f80c0b0df5fa03f90c0afff801f9060b030af7f0fa03f506040e0a0805f9
05f40ef6f0f6f10af9f601f5fdf8fa0af9f90cf500f2ef0504fb0b0e00f00a10
f8f20b0bffef0df6fdf40e030dfff802fb04f2fc03faf306fc0afcf0f7f805f2
03fb090e06f4f0f7fcf8030d01f505f5fc090a08f9fff70ff1f0000305f8faf7
f5f4f1fb1005fdfbfbf7050b0bf1030af1080a060b060907090a0103f607f700
fb0108fafa0308f301020c0df7fd0c0f07faf1f2090ef1fc0b06f2ff0905ef00
06fdf501f7f3f701f7fdf7f104fff3f504fd08f0fff3f803f9fbfb0b0af7f603
f70302f7080109f2080609ff08f608f107090b0007fbfff0f20006f30808fef9
f4ef0ef503f9fd080c0104fd0706f20806f0f6fff1f5f1f9080b0dfa0d070df0
0f0a020af102f30cf10400f9f40e0b0e0f0703fc0cf1090d0503f302fc0efd0e
0c0ff61001050ef0f9f4f7f803f7f0fcfb07050ef80c0ff40d040907fb09ff0e
f4f60b060503fbf4fd04020d02fbf4f501f4fe0ff7fc04f2fb00000ff0fd05f2
06fb0cf6f003fb090ef1f6fbfcf20cf7f1fc0df709060ef90c03f7f60ef0ff0b
0df603ef0408f4eff3f2f0f3f50703fff201fd05f906f4f5f7fd08fff3f2f5fa
f7fa00040bfc0a0ff6050f00f9ef0efbf20603effd0afbf1fff4f5f9f20af402
0303fb0b060b01f60ffc00f1f305f3fef4090ffefa03fa10020afcf4f1fef202
07fcf3f8f6fd0cfc00fbf905effe090d0bff0f05fefafaf5f70af503f503fb0c
fe0206fd01f6fceff8ff08f6f9f30903fbf0fe00faf00c04f10bf8feff02090a
0d0bfdf30bf502fe0008ef09fbfff90700f7fb0cf6f4fa060af9ff01030f07ff
07f800f400f6f1fc0ffd06f200fb0204fb0505f30001fc0cf008f0f809fffe08
ff00fff90410f9f4f8fb09fc01070d0ffe010c050df6f1fff304f5fcf302f40e
08fe0300030a03f3f0f0f1ff03fff0010c0e0a0009f1fe08fe100607f801effd
09f7f5fbf40df30b08f408f905fa0d0907f8030304070ef2f7100e09fafcfaf7
0a0e020d0afb0bfef00efb040e0703f206f9f5fbf403f5f5f4f6faf4040ef404
0dff0503f5f3f405ff000cf5f102fffffa060b04fcf50f05fd080209ef03f8ef
0705070c0f07f8f5fff902fd0f040c07f3f9050806090208faff0210040b01f1
07fb1003f3f7f2f70106040bfe03f702fcfe0cf20d090ef20e0cfdfa08f6f504
fd0dffef06fd09fbf0f8f0f4f2f2f90110fe020ef6f9f90107f10c0ff0fd10ff
08f306f11002ff03f1f0fbfe09fb0e0d0cfafb08f9f8050b0d03f90f06090e07
03fef705050600070b02f310fafaf80af0030c0df80906f90a02080efefc0d03
f40a0afe01f80f06ff09f9f5fbfefb0bf30bf0fe04fcf4f8f200090afaf1eff1
fdf2f6080400f90802fb090cfa00f3f203f0f9f50ff7f8010202050d05f90dff
01fb02f10f09f80cfa0f050df10efb0bf3f50301f6f902fdf4fe0409f30c0e0b
020ef7f5fd04040aeffaf700f60400f6f004050af5f00f01fffe0100fff8f908
000f06ff0ef7f30904100a0af80908f80af40bf00ff90e0bf2f5f6ffef0d06f7
020802f20b04f60ff5020909f80df6f50800f2eff50905fffbfa03f3030006f6
0bf4f5fd06f90ef7fd08f5020c100b00f1fefafe0704f1ff10ef03fcfbf20009
f4f6030101ff0305080cf508fb0e02f60bf6f1f7f5f30bfffdfa08f00c03f8f1
000a080510f3fbf7f80c06f401f90708f6f40d10fbf3fffdf70c0a00f3f1f504
0afe0900f3f1fc030bf7f900f60006100410ef0af6f40302f2f007fbef0310fd
feff0dfd0f010a04f405f2f0f20b0ef9f10807f705f60501f2010d01f8ff0e0c
f7010cf2080d09f20706fa0ef5f00bfe07f3020bfa0bfefd040b0cfdfcfdf6f3
f8f6fef4080904030d0ffef5f60efc02fef508f30d0ffcfb03080d000e0ffaf9
f805070800f605fff70ff4eff7070e0d0010070bf710fc0cfc0f0610f6f4fd01
f10afa020e0101f30afd051009fc00020703f4f402f9f6fc0e090e06fb070c04
f7030b07fe0805f0fb0bfc08fd0cf20a0b0603faf40504f4f309070f10f4fc04
f1020dfe0afaf205fdf801f509f2fc0c0efa0df404fc0804080ef1080a0509fd
080c03fcf8fe07f50c10fa1005f1f2f5f6fcfbf210f809f8fa04fbf60dfe0304
fe0feff6faf90f0f0b040b010d0bff01f401ef0e0904f7f404ff080e0dfff610
f9f302010df702100b07fdf90c0cf9fbf7f4020d07fdfa0f0e0bfaf803080607
0af60307f3f7fffdfcfb0dfff3fcf5f4fefefe0a0c0d0feffaf7fb01fe0af503
0203f410f6fd000f030df8fff70906f5f20efc0af90ffb050108eff6f408fe09
0704080805ef05ff04f8f9f007f6fcf4fafe02f7080606f8f5ff08f3fb0c0ffe
07f6ff02f8f4f4f50cfdf5f30f00fcfffef4000bff0809f20a1006f202fbf3fd
efff0a0804f4f1090af1040a00f2fd02fb07080dfe0f0bf00900f4f20a07fdf4
fcfdfb08fb0a0701f408f10f02fcef0406efeffafe0bf7050300f1f2fe09fdf5
fef509030810f0fbf3fffd0905f2f503f90ff80cf30109f21004fc0ff001f30d
fc0004ef00f3f70e0e0afef1050405f60105f5f70ef8f5f2f6f9fef5100603f3
0af8f9f10ffdf8fafcfa03f0fb0e0d0bfc02fff0f703f110f5fdff010e06000e
0d0aff02f60802f809f9f20cf504090501f6fbf2fe07010bf2f4090306060402
0d0ffb080b03fdf80dfbfb03f2080df6faf40f0df30106f703f110fa0e07f2f5
fb03f505ff0af30610040505fff1f9020d010300fc0f030600f0fe030209f001
f80410fefff20cf5f2f7f704f30904ff0f0df806fd00eff503eff0fa01f1f2f0
0efd08070610fff7020803f90af7050c0cfef9f70901010f06020303f20bf9f7
fcf6f300f0fc0b07fb07f60efdf0070ff3ff080d05090e0c02fbf4f204f4fc02
040d06f2faf3f70e07f6090bef10f4fdf8f3f60a02f00b02fdf4f7f9f0f30bf5
ef0a030b0f0000ef03fff902f0f9060d0603f0f70cff07f4fdf3fdfb0dfe030c
08030a0a0ffa0503f0ff0bf509f90dff0510f806f0f9f1f40a010cef1009eff0
ef0df9f7fdf200fcf8f10b0402fbf9faf7100a02fb0306ef0e0a0408f007040d
0409f3fd0cf2f20bf7fdfbf30b02f006fcf4f7f9f5fa0bf40af6f801f800ef09
fd0e09010204f10dfffd090104ef0af3ef0a0503030207f7f40efaf505f10af1
f30bfb04f0fdfff9f6f7020a04f7f1fe06fa0a02f4fc05f3f7eff5fd0ff9f103
02f00ff80600ff10f1f70001fffaf606f90bf70e0501effeef0bf30903f2090a
0b0606f8f80405f2070bf9f410f20ff308f80ff704f5040e060e0c0eef0ef3f0
0003f80d02f60ef40d0cf3f001f90f03fff604f60af8f4fd07f9f2fb0e050f02
fc05f2fbfdf10df002f4fe0bf305effd0bf2100409fdfef6f4f1f5030400ff05
0e080ff60b0e05030e0cfcef0908fa060410060d0002f9f20ef106090ff10a0f
f1f70af4f9f3fd01fff4f4f4fafaf8f5f0080400f5ef0408ef0707fb0df3f0f5
fbf7ef01fef700f4020a04f4f50affef0af1f002fcff06f2f8030df90e01f0f3
08f808070cf5100ff7f5f7fa02f7030604fc04f8f3fd0e05fafc08f60cf40cf0
070a0f0f05fa0afa09060c0403fc01fef80e0106f2f5faff0d0d0cef0ff1f309
0f0c0af5f8fbf8f105f50001f00d0305fef303f8010c05f0f210080f100004fe
f0ef0c0b0df8f5fe10f3f8070903f0ff080ff0060006f2fe04f9f610f7f608fa
f2fb040008fbfb07fcf7f3f8f00efff2f210fcf3f7fafc0df00df60710f110f2
02f6060afc0503ff0e0f0e040d08fbf2fafd01f30807f5f3f8f7100bf90ffd09
0c02f3080109f3f0f60c05f3fc00030102000507f1f9f7f10cf902eff4f4fd0d
0902fefe05f40302f5f6f90c08f9fbfaff00fe0d10f1f70df90e080c00f9ef0f
fe04fdf8f0f1f30702ff0cf80f0107f9ff070605fb0608100cfc0bfa0beff3ff
f1f4f5f3f3fc09f4effe0510060efdf50e1001080df50402f3f70af00b0fff0c
f1f2fcfc020a0dff10020f0d0ff003f90ffb0a0d0804f00aef0b0cf0fc0306fd
f2fff7f60b040f0cfdf4fd07f0fd050303f1f5ff08f4ff0bf00dfffbfc09f4fc
f503fa090806f60dfd080800f105f00905f5fd03f7ef06faf80e030a03f2100b
fff60601f10a01f20ffafa06f3f6f8f1f608060a07000cfcf2f90f0f000cf405
0603f001fdf30dfdff0f0efffaf0ff030cf4f002fff5f30904fff90402f80f04
000c070cf1f6040af9fefaf70cf00dfe090ff403020503f305f5f4090b0bf0fd
0a10fdf007fb0f0607fa02f301f809020e07f805ef0204080af60def09fefe00
080c0804f3f40e0510f404f401fffe0d0e0def03ff0108f80c06f9f9f5fefff3
fb0d0dfbf20107fc0cfcf00105eff8f7040807f60e03f8f0030210f0010af5ef
f70bf70bfdfdf6f90910fe08fc02fffffe05f0fa070afaff08f908f90005f508
08f7effd0f05fdfcfc0c05090908ff01fdfaf90d0e05f20cf5fb0ffc0d04faf8
fff303fef7ff0a03fb10f0060d040ff401040bfd0a0ef0f509f4f2fb01f8f204
0af4f6f4f6f0020cf6060ff5010e0ef7f20cfcf20c04f6030bfaf3f6fdfc0301
f6fb0ef4fd06f4f2100e0dfef7f7fdf5f5fbf2fcfb00f0f1000a0cfafa09f801
04ef0afaf7f5070e070cfa09f1f9fd050010f403f6f6f9f1f4f6f4f40d0d0d0b
f608f4f6faf30cfc00100f0f09f001fffc03f5030409f7f7f4f0fb030dfc0fff
f6f8f20501050df70901f1f408fdfffff3f2ff0bf10df0f70bf4f9fd0e0cfef0
fa050307fafff501f510fff3fdfe03f605f90cffff0bef0a08010af9010bf8f1
f7f40110f9f2f1fcf402f5f900fa0a080902fb0c03f5f80ff21004f50af80b07
f1fd08eff0f2f7f000fffaf1fdfaf209ff04f3f0f80c0b1008fa000ffaf30af4
f8fdf002fb08fe010e03040e08f3f20c0a0efe07000a0ffbfd03f6080d0c04fd
0d02fb0cfd03fff40cf0f4f90dfe0bf10a0f08fdf20b03eff1f40b02000ef4f4
08fcf9f20c090df9f50c03100104fd06fa00feef0ef2f310fdfd070afffe0e0f
fd03f80c03f410070f0205090ef002f7080bf50e05f1f9f4fe030e020cf10100
000110f8f6fd04060af4fe0ffff403eff9f9f30303f2f8fefb06f000fef5030d
09faf1fe0efb0b040cfdf500f80cf809f0fbeff5f60b02f30309f8fbfb0e01ff
f4fbfbf7f410fa0bf20c0dfffe000df4f80e02f508f00709f005080bf3effbfc
f202100ff8f007f40f05f3070006fe08f6f10d090b07f604f80506eff3f4f3f9
f6f3fafef408f70bfb09fa0a06ef04030c0f0501fd08f20207f708f00309fffb
0110040e0eef0dffeff30a0d0f0df103f3f7f30b0c06f00802f310fa0df9f5f4
01fd0cf701f7fa070f040efa0b07f0020af308fb090510f2f2f2f2f8f504f5fa
f60cf6f4f60efe06fe00030208fc0f00f80f05f20dff0b0604f0f9030e050802
040c02080c06f0f8fa0007fa0f05f2f5080f00080df0f0f605f0020df4f0fd0c
000109000d01fe03fdf6f610fcf0f2fc0501f8fd04f1f40eef10070005fef5f8
03060bfe000cfcf9f8f01001fafbfbf4fcfbfd0bf1fd00f00210f80ff8f9ef10
f6f9f90a0f000afbfdf3fafa090a0e0c0001fefdf2100e00fcf50d0beffa0a0d
0df0fb0f0c090b0afbfaef03f5f8fdf503fb020df2fd030901faeffe07f9fcf1
f410f70dfdf803fbf5f5fcf40a02fafcf00305f710ef020ff90af9fe0e00fef9
0203f0f4030a0bfa070afc08f0f509f4020e0a0805fdf1090a07fff404fff4f4
f6080cf3fa0df50b0d05f4fef3fffcf00efd01020b03060a050701f109080cf7
0df5faf2f40bfaf80d05f2fb0efcf607fe01fb0f1004f7f30cf9040007f6060c
f70005090209070bfe01f70cf104f2fffff20b06fcf9fa0ffbf2f9f00c08f90d
01f810fcfdf0030f08fffbf5f1f100fb100e01f2f10e040cfd02f6f8fdf50efe
0df60e00fa07040dfafe000afbf907f10f07f0f8f609fa080af20bf205f2f304
f70bfefaf2f40df3f2f107eff7fb0bfa0cfcf908080cf9f00510ff0e0bf7f6f6
0c0afff6f3fe0bf71001f90400010010f30cfa09f903f9fbf10ffcef0b0c09f9
0609030ef7f80d0ef8ff04f9f9f502fb0efb0c100af4fbf3fffb060509f9f4fe
fef4fc010ef4fbf804fe0d0af0070b07fff0f10af40a0ef5000b07f7fafc0af5
09fff10df104f6f7fc0508f7f903f1f7080001f7fef0fc0b050ffbfaef0104f8
f00af2080102fc0f09020c0d08fcff070ffd0f0e0cfafef0f50209fcf1fb0200
f5f9fc0c0606f0fef406f3f7f2f30609f8f3f10d0e0d010cf7ff0a0c0d0af201
03f50efc01060ff80109fc0c0e0ff5fd0f0700fa0bfcefef0bf001021000f7f0
fff2040f0f0afdf50eef05fa0cfdf4f4f80f0103fa03f0f0f40506f9f0fb0ffd
fef7f1fff60cfefe0a0f04fbf5fd0fff09f80af7eff110f0ef0ffb06f4fcf1ff
0f070ffff40e02fc0ff7f9f2fff9fff0f405f8f10b05f2f9000302f70bfe0a07
f8f2fd02faf8fb0404f6f90f07f909fe0200fbf705fefcf505faf50df10505f5
09030e04f8f604f5f9020efc07f501040dfb01020cf80606020802fef7fe0d00
0aeffa0ff007f507070009fbfa08f7f8eff30e0a050d100ff5f600f3fdff09ef
f00009fdf6ff030dfffdf0fcfb0af3f7080e02f0fe06fdf90bf90cf308f303f0
fb03030407fa0df209f60a0a050ceff80402fcf7090303f2fcf9feff0e0cf6fe
050bf9fd0b0feffd0b020301fd0cf009fef20efdfb0107f7f4040dfcf5f307f8
fb10fb09ff04f2f90008f3f5f8fa0a02010b0df71006f3f0fa02f7f004f30f01
0df5fbff03f4f7fefc0d02f10f0df5f50a0bfb00f7f20104f9050ff808f40ff6
0beff60b08000d06f903f7f9020e0007fffd080afb05f600fa0f0dfefe05f3fd
03030b08f509fef8060df20ef5f10bfb0e06fe01ff10fcf8f9f40def08030908
0ef5f00706efeffdfbf2effa0af3f4fdef0b0d0b0d00faf7fa04fd0efe090d0d
03fe0b07f00503f602f0f60f10090af30207f002030910fcfbfaf7effc070802
05fa0a000108fd1003f1fffe0c0d02f206f5060b010ff0f6fef6f8f3f8f6f909
eff609ef06eff2f408fc03fc070400070c05020605fc0109fcfa0bff09f007fb
f9fdf510000b00fafb0810f3f4fbf50e100d030dfafd04f606f6020f0d02fbf6
f3f70e04faf509f410f2f2f3fa0efa060e090d0ff20702f9fef6f702fcf8f710
02f50efdf9eff0f9f20907fa0beffffa0400f103fbfcf6f0030ef0fdfcf1f8f8
0b0209f509f80a03f408feff0a06f40df805ef0bf30503f603fe0efe0e00f501
f407fdf808f605eff20706fd0107fe00fb02f101fb10f3faf8f80506fdf20702
fc07ff01f30f0709f003fffef604f1f30ff7fbfef90ff509fdf0fd0c00fe00fe
0cf1f2fa040809f60ef8030803ffef020ef40ff7060d0f030bf5f3f6fc0b0908
09f4f6fffdf5080eff080e08f8f8080e07fe0e07060608f5f2f400fd09f400f0
0507f5070300fa02031004fff70d04fafdeff809f5fcff0cf3f9f1f606ff0ff2
00fb0efaeffb070e050efbfaf0f4010100fa0dfd01fa09faf5fc00fcfefdf0f6
0b10fefcf8fefd08f30feff40c0603ef03faf9ff0705f9f3f8eff6040907f700
f0f1f6fa080f01fcff1001010df6fffbf50bf00005ff0bfff5f00d0800100b0c
06fd060df1fa02f1fa050ff7ef05fef0fff8fcf5ff0f05f0fef710f100f506f0
05070af7091010f9f3fcfd02f60c08f8feef07030d03f8fd0007fdf20b04f2f5
0c0e05f0f00303000cf610eff0f5f4fdfd0ef8fb07f0f20f090cf40205fbf6f3
0bff0802f3f408f10ff3f3fcf6fefc05fcf0fbf0f40ef0f2f10cfa0bf2f109f3
ef10f9f105fbfc05000f010bfa0cfdfb0af7f5f1fbfdfa07fdfff2f708070709
010ffd08f308070f01f70010f61004f503f50108f1ff000ef30407f8f9f7f2f5
f40bf505f90b0c0ef10b0504040efb0208effcf20dfefe0d0b09010f01fef1f7
f30df9f8fff4ff0b0afdeff40cf000f407f3fc0d0a0cf309f40ef4f609feefef
f6f80300fb0103f10300f6030ffff2ef0c0b00100fff0ff50c0ff2fe0b05030f
0506f4fe0ef4f1f90a02100c06f0fc0efe000e0cfe0c01f60af001fdf70c01ff
08fff304f3fefa00f6f7f1fa0cfdf6f3fcfef10b000cf2fc0c02fdf00c01f4ef
f7f1f2f90807f60ff30afef5fbfc0af3010f0bf0f4fff1f7f5fd0e0106090f0d
09fbfefa030002f0f5f903fd0cfc0fff0c0ef8fcfd0ef90e09ffff01fbfc050b
020007f4fc07f30a0ef7eff4f80209fa0b0c0809f908f2f6fa0bfbf7f1fd0b0e
0cf6030b100c0a04f3fd0d090cf6f3f50ef2f7f8fa0f0def10f00a00f9fbfdfc
0ffff506f0fd0f090707f40f0004fa0d06fe00ff000eef0b01fffaf90006fa10
f40bf3fd06faef0dfafa0e03fcf0020ef3f7f9f5fa08fef8f2efff0afd04fdfa
f50107f7f204f6faf10601040dfd02f00701f40ff8f500fcf7060af008fcf1f3
fbfaf2f8f9f8fe0a0202f9f80f0afef907ef01f20d09fd01f00c04f5f5060705
f8fdfef4fef0f2f00afc07f10b08f800fcf405f807fc09fefbf4f6f4fcf3f5fd
fb0405fe0d010df4080b040ef50f0afdfc03f5030e06f708f00cfffcf2070108
ef0aef040efd06f502f200000dfcf8f10d03fc0307fbf9010008f6f60c0c0f0f
f60feff7fcf90bf706f00af2f3fb06fcfdfa02f90a000bfbf400f70cf6fe0e03
02faf3fcff0cf402fdf9fd050bf7f109f810f80a06f4fd0f090200f3f20af0f0
04f3fcfc0205050b0cef0502f50cf0fcf001f60cf904010ef5ff03efefff0504
fd0e0306fe0201fb06f9f5040ff9fc06f3f8fa041007f106f907f90ef50ef401
0ef3010701090f0f03f30d050a0506f8f3f503f4050af2f3f508f60e0dfa0610
09100d01f6f6fc060202081002080e05f7f3f4f902f6fe0df4eff0fefef60105
0af90003fdff0a06f409fafd0bf3fcf40209000d100d080dfaf80f06fc0cfef3
fd020201f401f71007fb09fdfffffa0a0bf105f90af5f3fa0cf60e02fdf3010b
fa08f3f8030a0b0ff00d000f0cf1fc06f9f2ff00fb050207f1f10a08f0f6fa0e
10f9f301020000f909f910050f0b0405fbfe0cf7f80bf0f80908f3060cfe0703
fdf5f0f7f5f20efcfdf0f202fb0bf406fafffffa01f3fef609f710f5fe0707ff
0d0110f8f60c06f705fa0b0510f5f3090df607f5fa09fffdfaf6fff30aff02f0
f804fcef0efe0e03f6feff090ff509f20bf1f00010eff2effbf70bf6ff0ef1ef
f40e070ff4f0f009f4ff08f1fa0b03f110f306020404f9effff7fb0602f9f200
f0f7f903fd0505f010f7f70806fdfb0108f702fc0a0f0403fdf8fdf50800f8fd
0b010df1fbeff1f7f70407050505fc020001f700f707f6f8fa0efef7f1f6ff01
f0f2faf4f90803f4ef0404fafcf9f7ff040bfd01f4f5f1f10df4010507f0f701
0001f8fb0e0bf809f106f4100f03f401fe0e0f07fdf60b030d0607ffefef04f5
03f5fbf90bfa01fafe020302080e0202f00a0706fa0510fdf10204fbff090df9
feff07f5faf60d070509000008faf802f2fdf5fef8f70209f0f8f4f402f2fffb
0b09f8f0f6f8010709090806f310eff20bfaf9f90cfef2f600f5fcf2fefa02f6
f9070ff10c0a0cfb03000ff3fbf6fd010ff003f4f50bf3020f0504fef9f6fe0e
0bf60f0909fafcf1f201f20d08f6eff3f7f2f101f80ef610030004f5fc05f501
0805f40a06fe05f403050c060a07fc04f10400f00d10f0f0f2fd070df701f009
01040cfef0f6f209f3040c08ff09000df00b01fdf30ef0fd060df00d00f7f30e
050309f70e0f0e070a0c0c10fd02f50d0e0d080501fdfcfef103fef9ef0906f7
f4fc010f0d09f8f4f307f6fcf3fb09fef40ffb0bf2f30dfdf70601f6f6ff0c10
070b0afe0c02f0fb1007f60bff0d0ffcf40ef901f2ff1009f10afd060d0bf009
0f0c0cf9f80e0c080001fef503f9fc070cfb0bfa030cf609fafbf70e0b070005
040df307f30c02fcff0aff09eff804f8f4f8ff05fcfc07030208090f02060109
f5eff80900fb070a02051006f60610030f0506f709f8fefa09f704f6f1070c06
f606f20af202faf00802fffcf7f10405f2f7f8050f0af8fe0b06f205020d05f5
0ff2f0f70701f80009f9f9fbf2f806eff3070406f5fc0c0a10f107f3f20af80e
0b0701fb0cf41006f6fffb0bfefd0af1fb0a03fd0c0df0f503060c05f40301fe
0d0b0efbfefe04f7f4f30810f507f5f10204f7f707ff0bf10b05030efafc01f6
09f80ff4f1f109fe03ff0b00fff70ff90e040ef80f070cfa0ff2f6fd05080af3
0df2f5090cf4fdf1f3fb05f1ff0df60e0c04fbf7f5f601fc0e09090401080a07
00f305fb10ff07f910080ef1ef10ef0d06ef0e01f1f90a0205f0fc0bf1f70009
fd0a0b0900f9fdf1fe0202f907f00f0afd020f0df3f001fa0efbfbf60d0bf1f6
ffff030a07fbf80503f9f506f60e0301fa000ff20009f105fd0d100900fa020c
05f6f009f5080c0507ff04fa03f80efa0603fdf5f10fef0b03f5fe0f05f2fa0a
f700faf80108f805000ef9f8faf90d0503f800f80ff6fbfdf700fe0efaff0904
0cf3fd0104f3090af3fefbf30702f0070e10fd01f402f809050003f203f7f1ef
faf203f0f3ff03f20305efeff2f0f1fe07f0070900fc05f2f20403fafdf6f505
f0f9fd02fef0fb06f20ff5ff0d0610f7f902020e0205fdf2f4f20205f3040110
080f06fdf8ff02fd0c0b080a090df3f400f101f0fb05f4f405f90903f5f50b08
fef0faf2ef00030909f2fa08f3f803100cf10f0405f8fa0cfb0af4f4f2feff0e
fb020dfe0404030bf40af6ff08fef5f1f50df406f7050afe05fe0709f6f600f7
080afbf2f105efff0308ff10fa0e0ffbf5ef02090610f706ff0aff0cf3fa0fff
0e10fe06f6fd07000af7f90efaf50501010b060704100302f2f805050bfef4f0
04f1f40bfffffaf30e0b05050ef905f9f3f9f2fef107f70d0cfd0300ef0103fc
f11003070e010dfdf900f4f2fbf706f3f6fcfafefd01f3f1fcfbf20f0801f00a
f10b0e03000b0709f50af102f3f200010e0b01fbef0e0103f8ff08fa04fbeffc
0bfb0601050af80801f20bfefb0a0704f2f8fb10f1010ff2f8f70bf5030af20d
01ef04f602f7f500050bfa03f8fe080009f20c0ef9090af6f7fef40710fe02f6
08f00b03f1fcf9f5f5f1f9f5040106f3f60b0d0b02060a0bfdfcf10c0bf0f3f3
f5f1f6fd00010ef50502effa090d0cef0b000500faf9f60c030ef7f1fcfdf2f5
fb0df70cf2030103f0020b0e0402fffb100ef40c07040303f9f7f5f00c040909
00f90b030f0307060b0605050ff40bfaf5fefcfef004f005fafa090c00ffeff7
0d090afc00f9050308feef09f6f4f5f0f50001f70801fdf7f404000af7fefb09
0dfd0ef30ffd0bf5f4fb0806fef3f002fb08ff0c00fcfafffcf8fdf6fa0f03f3
f6f6f60bf0f6faf3f103000407f7080afdf80b100a0dfa100400fcf90400f5f9
f0f5fef1fa0c070c00000c0408fafbfafd00f707fefb09f7000a0bfa0707fd00
f50bf5faf20bf910010f02f2fcfb0affef0ff7f3f70dfcfef906040704f903fa
050001f1f1f80902f308ef0b0b000ef8f7f5effa07020ffaf30cef0100f2f104
fe0806ff060df2f3f9f808faf90bfd030cfb03fb0304050e0bfefff4f2f20b09
0b03f703f6f10504f7fbeff4050ff707fa0003f300ff06fffdf2fcf2f3f70a05
f4f8f403f0fdf90804f4f5fb0df80afb0f0d0307fefef80c06fc060ef4fc0ff0
f7f40af80dff09f9ff07fe0b080bf6f701040cf5f705f3f1fb0deffb0001f308
f3f2ef0a06f5f2020408faf0faf8f109fb0907f5f7f009fffefaf0ef0b0cf10b
00f808040f01f8f20f0a00f8f1060ff2fa00ff070ff3f00c020500fff7fa0d0f
0e0cff0706060fff0509f1030402f9100cf8fb04fdf2f000f3f6010607f9fd01
f6f8f0f402f5fe0f03f103040e0efc0dfcfff0f7ff0b03fb030efef3f1f30a03
0a0209f30006f0f00c04ef03f0f5fa020707f1f601070a04f609f5040e080608
f5fc04f5fef20d0bf0020c02fef80bf30bfdf809f90c040efbf1fcf20cf90ef3
fffbf90f0bf5fefff002f103050e04f20409f60ef008f8060a02fc0dfc04050f
0a06fffa090f09f300fbfdf4fdf0fa0e0f030405ef00f909f1f603080d0dfcf3
fef7ff05f10307fa0afdfe0bfafb0705f5f202f0f40401f10dfd0310f3020af2
030ff310f6f10f03000409030e07fdf80d0000faf6fcfe00f106f2f0fdf00f00
f10f04f6010bf50502000ef2f30af308ff00f6010e01030afbff09f7f40a0cf5
f0fbf8fcf602f4fcf9070201f3f6f9fa09faf50d04f0f10005f1f1fd0dfe100e
f102f3f90010fbf4f20d00f1fdfa08fef5f502f8f9f60f0d03fd0f08fef8fa01
03fc0cfbf109030cf60cfd0bf7f2faf10510fc0eef0501faf903f6ef0e03040a
0e0bf1fa03f5f0fef3fa020805ff0efaf7f00df20ef7fa00f00df7f60eef0304
0afc04faf0f7f0f2f4fdf304fb0003f4f206f0fff60d0a0cfbfc0010fdf7f60f
f7f0f7f3f70b050d07f7060afdff0004f7f8f0f604f1040909fe10ef0d0cff0b
00fd01f0fefcfcf9f80e0c0e00080800f9fff5070afa0a1008fcfdf3f701f9f8
04f3040eeffdf7fb0bf107fa05fdf3f3fdf2f200000700fbf507f2050906faef
f2f410000bf7f3f3f0fef5030d02f1f40f0802f2070f0dfefd04f8f8f90bf7f1
070af7000e0dfcfdef0602f2fe06f103f6f10ffd00f3ef0c02f10d030601f0fb
0af7fa0f02f10ffd0ef7fd0101f50dff06f107fd060b0006070307fbfef9fbff
f5050af9ff020b0908070500010d100b080f09fe0c100cf1fc0a0d00f80003ff
f900f8f309fe0a0df8f2ff0a090f080610f1f601f7fef4f70e09fef60af50dfc
0302f005f510f209eff10a0bf5fcfcfafbfe0d0df006f1090800ef08f10200fb
feff0107fb01fdf008020c07fdf90701fbf7ef050ff4fbf60ff10af4f8040b06
f4f7ff04fcf009050302ff090900fb05030ef6f302eff80e0dfb0ff6fd07040a
0ff9f50408f40a0405ef0df5fef9f5fff9f206090ef8f20a0810f003010403f3
faf10b0fffeff3f3effc0b0bf60ef810f8070801f20b0700f4f0faf9fff60c05
050a05f9f8050a0905f7050d09ff07f20b02f700f4f7f40ff6eff8f9f6030dff
fdf9f601f9f906010b0e040e08f3050e0cf2f5fff90a0f02020f02f2eff508fb
ff0607fcfef50f0ff1080cf1f5030c0200f4f8f5f50c0c0ef1030bf70d04faf4
05fdfc01f7fa02f409f6f8fcf80309fa0908f4f1f50af0fcf109f40af0080306
f104010cfafd01f110f9060502f8060c1005080a030208fdfffb10f308f10ef7
f602f70e06f60900100107fef901f5fefb0608ef0f03f4f2f5f7fbfcef08f006
070def0bf30c0fff0efbf7f1f90ef80607ef00fbfffa07f101f4f8f6fd0004f7
f70bfdff0feff2fd05f9fdfb03070101010bf70d04f6f2f8f907fd00080d0a03
050b05faf9f2fa09fa040d0c0d0309f2f7f4f9f4f2f9f0fd07010e00fe0104f6
0a07f7f1fbf4f705f4f5f8fdf8faf71003fff0f8f60f00f309f2fcff0ff3060d
fb0f0ffd02fc10f30afdf1090901f7fe03f310fe02fffd0700f4f60cf0f30408
01f4f0ef07fef7f7fa0dfa08f8fcf3fb04f20df0f3f7fdf60b050a04f30f04f3
f6f90df70bf5fc0bf9f803f2fd0e0a010cfdf3f30e05050af00708faf7f80906
10f7f10bf3070a0610fef60805f809f701f20f080c01010e070bf6020306fd04
070108f70500030e03040901fafcfc0a05f4f50e0ff8f00ffdf1f5ff040905f4
fdf9f80bfdf00dfa0801ff0c10f4f40bf1f60c01f0effbf2fef8fa050e0601f6
0e000a050f0b06050af8fa08f00300fcf2f5f60603fdf9070efaf8fb030f0cef
02100906fbfff7effcfc0004f7fe010a0804fe0105f5f6f10708f206fff9070c
04f403070c0df20203faff04fc00100007f808f70d040b01090ff110fa070d0d
0cfc03f50bf1f80009f509000a0ffa0df00408f70c06fe0302f6fd0bf308050b
0c070c050606f50df9080102f80df5f0fef8fb0603020709f70cf1fef3fcfc0e
fafdfb0cf7f50c0a10fb0d08f7fe09f0f3f1f40d05fcfc090c0a060a0b00f910
0f04030d0bf503fbf1fe0903f7000df40bfd0c020ff107f4fbfaf0f10208fcf4
03050506fb01f9f80dfff5f50f0c0200f20b0f07fff4f007f3f5f407f4f4f6f4
03f9fa01fc020c05f8f1f30ff3f2f3f9fa020d08fff2fdf8040bfd0bf60305ef
fdfb0b00f8f50e0c0e0ef505f705f3ef09fe03f0fbf7f7f90d03ef07f60f0a0a
0df002f9f6faf202f8fe08f2040ef60df60b0d08f600f6fd0f0ff2fa050f0409
fa100504fcfb08fe0c080ef40403f500f3071002f5f910000dfcf8ff0bf50103
f5f8f50a0ffb05fdf90e0b0f000ffefe0508feff080b07fefc0bf1fe0410ef02
0d10f8f7f206f406f10209f607f4f1fc08f10ff6fa0b02000d020cfe010e0af9
0a0a0c0efef5f2f00e09100c0c06f7fc02fa02f4030df9010efcf1ff0af60f02
fe0b000efcf0f40dfff70c0010030c0efcf5f8f0f0f10ff10505f103f803f303
f509fdfdfff30bf8f20bf6fd03f3f9ff01f7f3f7faf102faf802f304fd0c0308
fc090cf7f609fdf507f30bf909f6f5f9f505fbf40d070c0afa100b0cfd0e0702
0cfc0403090cf9fcfff50404f8f1f9f20b0a0a0f040bf2050afb00f7100af9fe
040cf7f5f1f6fe020e060501f40efcf30ff8f106fb05fcf905f9faf2f00df2f0
f3f50ef3fc0af010f4fbf80809070cfd0701f203fcf9f6ff0010f0fff70e01ff
fcf6f504ff020afef90509f506f7f2f40df90c0ff0fafb0c00fffefdfd060bf0
0f050ffb0f0d070d09f804fb0bf30e0b0cf30a08f3f400f100060ef0f6fc0205
fb0a0f0ff8ef05fc0df3f4fe0efd02030df9efff0dfa03f60508f0fff801fff1
10f90907f90d0506fa06f4fbfbf9f1f2fefff6fe07f2fcfffb0ffb08f20cf605
0d0b0cf9fafbfeff0207fcf8f306fcfcfdf6ff0df0040602f6f206fcf60f08fe
0407f50807f00d0b070afe0ef90dfffef903fcf1f4fc0203020f02f10300fefa
0af50d00f6ff0bef08f2f8fc010604ef100303effd02f90af3ef03f6f7020c00
f802fd05f0f6fff4fbf5000b0aef07ff0cf1fe06010800f80202fd01f7f1f204
0cf0fc0103fd03f3fc030dfb060b050bf0faf1ff030a0406f5ff09f10df205f8
000e0ff30901fef3fa07f1ff060aff01fa00010cf4f30bfcfc0c02f1fa0909ff
f0f8f5f104f3060200fcf2f503fef4fa0910f10ef9f6fa08f90b08fcf2fe0000
02faf70208f90e0f01f50504f6fbf802ef06f1fdf5fcf20dfa01f1f2fc050400
f30cfbf2f7ff0609fc0dfd0300fc0107fefdfa02081008faef00eff705ef0403
0305fff9f3f2000603080ef8f30a0b0a0ff0f8f4f1f71008fdf20a0eff06ef05
00f4f50b00f7f20a010909fef00df509f60a08f901fc0cfef1f803f9ef09f0f9
0bf4060d0afdf5fd0806f605f4f9f80c00fdf109fa0a0bfbf3fafb00f6effaf8
0dfcf4f6fcf90af502fd0ceffbfef10e09fff2f10f060af6f2f80ef40b0406f6
fd0bf1040e0dfc03fa050500100701f5f90009f101f7f707f0fff9f8f504050a
0f0aeff8eff003f3f2f1f4fffc0bf40aef0d0507f603f2000d04f0f90a0cf807
09fff003f1f502fbf6fcfdfa03f3f3fbf8f90ff3faf50efaf809f70bef0309ef
f806fafcfdff0bf90103fff40cf60cf101fd0bfe0a0f0afb01000af10b0afef8
fefc070f0bf0fafdff0907f40afaf2040bf9fb0700010e020a0b08f904f8f8f6
f1f40eff09f1fd040904fcfa00f000f2f1fef1fef80bf3f40a0402f8f409f2fe
0508fa0ef306fc00fc0a09010304fb07f20610f2f5f5090df4f2f9f0ef0af20e
f30a050d010901f50af5f203f20ff9030302fb0efe02fdf7fcf30e0c0406f2f5
ef0a01fdfdf6f106f100f9f4090e02f308f4fb02fe040b05f5fd0005f6f80203
fc0800f0fd0afffdf30d080a050a0503faf4f3fcf902eff409070206ef09fef3
faf70ef1f6060110f21005f60ff704f403fefb070d06f501f000ef020def0606
08f30e04f9f2f1f2fff1fc04100c05fefefaf40f00f6ff0ef1fffe01030b090f
fef0fd0f07faf5f8f0f5f010fdeff1ff0c0a0c0c000ef70f01f5f50600ff03f5
f3f0070f0e01f2f3060b08fa0bf3f3fd08f8f70603fc0c07fdf2f3f8ff080907
05f1f5040202f90604ff0c0106f3fffa07fd04fcf1faff0dfcf400f5fe0afeef
f9faf7090f0509f502fcf7080506090f07f8fd0b080dfef60cf1f70d00f60df3
0dfb0fff04070cf3f0040a07fc0ff90f1006f8f40bf007f40ff80f0709030d0e
09fc0f08f604080bf1f30a000406fc01080f0e00f1f6f4f5f702f704f509f10e
f90cf3040b0509fdf209fffdfaf7070ff3fe080601f80f0df4f4fbf7000a0810
0a08f9040b07f208f40bfbf70903f201f1f505f6effff5f3070b08f6f60a0cf3
0ff5fb07ff0605100ffdf700ef0dfbf8f00d0004ef03fd0ff2f708f0fd10fffa
f0faeff3f50207ff010c0701f00cfe0df906f90a0ef9effef505ff0df00d03ff
ef0b08f3f207f20a0e060c070cf30b0a0e03ef0efaf40c06050af2f5f4f800f1
f1fd0201fff70c020cfb0af0f606f3f1fef903f8f4f70bf9020af0f606f5060d
fbeff10cfbf3fffaf6010503f40f0cf20af3ff0e0af0f90cf1f3060ff201010e
fdf50a01fff60cfe0aff0bfbfd0c040c01f806f3eff50ef8f0eff5f4eff3eff6
0cf4fefcfdfa0108f6f2f3fff20ff3f10902fbf605fcff0af80107fb0d0c0d00
f9eff80af9f50c08f91008f000faf4fbfd03000e04f208fbf90df407f80c02f0
f1fd0af3fe0810f40b050602070c0705ff0705fcf207fafaf705f5070c03f7ff
10f101f70cf1f20501f3f5fa0a0407f7f6fb0cf5f3f50bfe0d0af70307f80efb
06fc090e0e0afffe0707f1f50afe06060700000dfb0ff9f0f6f400f80cf7f209
04f3f8ef10fbfef409fc0404f7f60bfef8f4f4faf502050a0002f80604fbfa04
f7fffd02030c07f800f60af10df3f6f3f6f906f405060cfc0101f0f9f8fbfdf0
0300fbfaf10503f8faf2100b0e04f70e0bf90203fb02fb0c0105effb02fb0905
fa090c011005ef03f9f30e090b0d01fe01fdf10d0e06080f07f3f7faf40506fd
fcf10af30cfbf3fdfcf9f0fafafff5f7100e09040006fafef000f3f305030bef
02070f06f2f91003010f06f6f20f010503fefd02fe0f000507f403fe090af0f6
f60802f4090ceff6f20a000f0dfafb04f00202f8f9ff0c0efaf6090905fbfb01
f8f7f0fcfe0d03f5f105f3fe0a0ef8f20407081006fffbef080702fd0604fd02
0c03f8f5f4f9fb01100af10a09f0f4f20b1006fd070e0e03fdf5f9f909070df9
0a0eff0007f305f5f010f210fbf2f810f90e07f40704fa050f0bf3f8f3f500f2
fffe000dfafffcfefaf5070dfb02f4060c0a0f0c02fcfe0dfd02f7f60a04f806
fdeff60b080d080c020a09ef07f4ef0e080efa0709f30af702f5fff9f8fc0303
00f406f8f6010af0f602f3070cf3f40df9feeff506f307f9f2f3f20afd000c0a
07fff3ef0bfb0b070df909f901f005020f0810effbfcf6ef050c040ff70f08f0
060c0805f10df004f5f1fbf5f306f3f2fef400f700fc04060501f6fb05fc0404
0e0d0a0b0f0801080f020efbf9fa000f0cf6fc0409f5fd100c0909f610f00604
f0070afe0f050a0401f307f5040e0b08fc09fdf000100af80cf4010efaf8fe0d
ef06f0f10105ff0beffb0d03f5f40af90af10bf6010a050b0308faf7f0fb0efe
fb03f5f3020406f3f6fff4f2f3f908f3fb0d030e05f8ef02f008f708f30b05f4
f8faf30d0f05100c0c080afff0eff503f9f9fef3fa0408f90af2040b0df50efc
fd0104f110fdfef6faf9fdf50901fafafeff060efaff07fb05fdf0fcfff1fb08
fbf6050205ef03fff0f4ef04fc030cf6ef09f3f60fef0001f7fdf60df90c06f0
f5f207f3fbf0f70802f7100c070ff50102fc0ef2f3fdeffc04f9f8f70a060207
ff02090600fbf5100afa040f0a0e0d0f050cfaf40a010cff0b00f8010d000a0b
0208fd0703fc0102fefdf9f9fd03070701ff0cfa030b0a010205f1010dfd020c
070fff0f10080900040401f3f106f4f0fcfa0b0f0c03fd000ef00102f8fe01f7
00f5f7f90ef3030af0efff00f7fff40101fb04fc0c03f8fa0df70701fd06f7f7
f208f2fcfbf20bf6f9f7f30f02f9fa09f0f50ffbf90bf90cf1effa0af3f80309
fa02f80c07f403f5f10cf60c030cf7011007f6f6010a0710f10b0e04fbf8f4f5
ef090af606fef3f10f050a1007f4f0f7fafe0b05f00308f3f2f20f05f4050dfa
0508f6fbfa0510eff003010c06f3fdf5f9f40df30b0a08f2f504fb0cf6f9f40e
050df3080b05fc0d0f0e07010df608fa09f0f6f7f20d03faf5fef907f9f80df7
f504f406effc0b0ef5f5090a0703f809f1f710f0050a0af107f3f3f30cf610f1
f1f807fefdf3eff7f910ff07f80c09060b0d1008fff204f60ff507f20801f0fd
f9f4faf8fbf4050506070c020b0e0a0c02030cf3fa00f700fdeff1fef3f7000c
10fff2fff1020bf908f003f106f9fb10fbfdf2fb0c0606f609f010fbf1f000f0
0efd0101f4f1fff1f207f9fc080405fbf5f4fd0604f707f10707fffcfb0606fb
0a0001f4fbefeffdf8010507010b05f500fa0e01eff9fc0eff0f09fcf30101ef
0e10f607ff07f20310050ffe00000bfd09fa0b02000a00f900f10f0f0e0c0400
0010f605fb030ff901f7040ff80d0f09f6fe0803f60e01f7f4fbfd0cfe08ef08
0cf2020801f9f4f0faf5f1f2f30a0ef5f7f6f5fffbf00eff0302ff0efdf40604
ffffefff0df30509f8f0f4f3f907060bf7ff040d09f7f905f20605090cff0dfd
00060df30bf000070dfcfdf70f10f5f8fbf3f40c0cfbfbf6f40303f2fe01ff0c
fbeff50a0bf7f1020a0e0a04f6fb03f60d05fafff5030efeff06fbf4fcfffdfd
fbfef6f1fc03f50bfd00f4f70e0c0605fb0cf20cf706f0f0f101f90f0707f1f5
0f0c0af7000904f60df00e04fd00ef0ef5100c050f0009f50306020a0c0400f6
f902f7f8ff0c05f20bfc07f005fdfff4f0f9fa08ef08f9f3f7fe00fe0203f10b
fe0904f3f00eff010609f3040e0f0207f6fd00f3f9f3070af701f00efc020af4
0209fef10ff9080ff510f5ff0108f70ff8fff7f10408fcf6feef0af40f00f310
f40c10f0faf8f8f00ffe03090cfd07060cfb060cf20205f3f80d06faf2f60602
0803f309f5ff0efdf4fd0a0b0f0a030809fdf2fbfbfcf6fd10080905fb100105
07f8fd0d0b0cfafff2f3f109fdf6fbf00c0cf4f3faef080cfe0f0805f1f8f2f2
fb02f307fa0ff50706f20905f8fa0d04fd1004fd01f50004fbf7f0f20d0908ff
060506fdfa0508f200000d0f000a0df20ffafffbfc0001ff05f808f2faf702f5
0906feef0405f8040810f90003f9f3f90ff806fe0b0c0503f206fef208ff030f
0df6f20900f7fb0df30efe0ef2eff50b00fd0e0afd10fe100e0e04020f030010
050808050601f6f4fff9080000fe0600fb0b05f0f1fd0efcf005f20a07fe06f4
ff010105100405f2f00b07f9f7f7fcf20c0b050300f2f40bfdf608f70404f408
f1fdfafffa0807f2f20dfa060cef0df2fafa0bf4f104fbf10709010df00203fd
f7fe0702fd0f07ff070104f4f007f5100604fd00f40e0ff3fa03f2f6ef020106
09060d080103f70e03fa09f507f8f9ff07f3fd09f9fcfd06fa070c0f010110f2