b4e71237ad7c7f740d7681afdbd30378bb488ebbcaf6290e3c5fc1aee4817fe3
d10c8365cf05c3f0bd650eb83cac2d81c301a1646a87d82a4dde58067886f53e
aceb8b4875915ed3acf95efe3f5caf10cf360801cfd9a1e4329607add93b21ef
583cd3f3a7f132ffaab2dee6bf1c810f50a9d90de55ef9522748d6ee88f22f41
585f6303b6d4ad572daf322daecc55aa29b16e8107818a11fa36512bf5bcc82a
63f61614f58d65317ffcd19d3f35828ae99d81677f4fd65aafc3d4299add1800
318c81ab5e3e583129beb681f0156b8b9a0257adfe61956596b0094965618ecb
a95447ffac093f9d627f094ea6594725104abd50938bfce7a6fc3dabee226370
dec3d19e977f1230eaa170866faa3d4fbbd2eecd97c2620b81103bdc56bdfa81
22e83e73d3e59d8a12981339c5fedfff406add96de27816d79164a01f05d3c01
bf198fa846dac4b255de7c1b7f0c3a9e0e4ad92a1823c749793b13dad2c672b1
1f9784a4e884a10555f7451c51fea803f7622e6709bc2444cda91e6f3b3d3422
73c8faf2be3ab7b1d181b1d257884c93ce3320b4c9db56379aca6ee287d8fcd7
c18196e2a64236b99ba714727108622c5f2b923a4df4749ec3ee237cffbcaf11
b72bb7b5d8da52bb3f466a11f85ed5d65fcce71268d677c573239b56ee4720a0
3d5d7d133b5e0762eb62d97f5e83d90e28f5fff141ff043a99360474dca76318
361345666f5f2bcffcc9593205894154394e783b92a71d895c3f773b90ba41d4
f91b847733317978730881b5e9ceb59d0b7fad2b602277b97d941d70d56bcddb
e89e3fe2f4ce00a2f2733d5d07d272814df68957733d989ad8538e35905e5233
a3ef26d3901fd033cbb5d95765fe7f52812e606a79022231d676c2a84b7485be
7de47c000c3cc8a7d71822d65edcdb2bbacd2759cbb4c994b942609aafd4fffa
78580112e5e6c67f3a37452a7a2f31cd6570e7c86dcbdb423d0a4d22414eac08
b2ed89e0486eda45bf4395dc9dedef7fe2039010a2812ef52fdaf8cb6edbfa08
f8cb59b93e38e04a7c61a139ebb2c2b44f2ff672384dbfdd399b50064df57f00
1e5a394c68dfe9865a3e6a5ae2ee557f5b6aa489f731fbf9caca7d4d4a3cb7b9
ac86444466b22f88e36e5e5dd1f9749031de81e85c61810ed54fb2d1ba29a0b1
3eab72de81015f686c844bc5fd708109f8a7d867bd1995587e79a9fd5db37ffc
d65f94e299e77f8ce4278f86ae961c526e817654f6177223e02bf569823f811f
ad8b9fa47a24818b4f735a6f737f9781eaef0ce6f522b302a77aa092e0133432
ef32666da16560f2ce81de43b6da81b06f17cae3b4926e1fd19b7cbcaeb3fd7f
82ce4567e3b6a9813621f6efe0e416f5627971f0c9f53a0006af95606b6aff7f
d378bda08151142f6caf8106fcfa70bf5c396c721ac7e1dd1d7d6d7ce354a69a
78af966c8f8333588ce5e68be17e10267f94cd10e2e9d81b0c04b56de17dab5d
1a2c3abac9f5be064039859db246cc478397b95e7b2b819f2c819a1b56267cac
d9086db1c94f231b57c79c45a5f22c0810a6e8c017dddf99e9c78644b5fb6779
7753b0ea1545899dc72c8198dec5eaf9db358108127f051e39ae2441ae2f627f
9c8801c545ef8bbfe116661f86d485e729589c979cfc39638ff90db38c0587fb
271d8541658367bffc4767c3687f4ff550d2e73722932057ffa054bfe357a985
51efaed959d5edc9227f70faecea7d7feda6187fb4c967862eb24086cfa3e9aa
66cab9fbb7aa6ca8a4d7614ee0b0453421ab283f7a3e6e28ea234544cc5b250d
42b4be8438917f1775dc7b81b0bcd98a6cfb4fbf14ffb28babcd85931caf180a
c6d7c4a5f67f26a42535de2d7ae37b7deb2781fecae67781ef7f4c6159eba671
6b7e0d2aff84c157b98150af0fc1e3a3477c10c46e5e0657537e7cd985154b7f
ce66af2f9c6394e6a6f51f7c55c294b05f0d49a1213fb066733b571714c7578c
5b9bf6b06c0c10e847c6e165adcbef96e39b7f7fce6c8d0a9c5f4f19a8fe8aa5
52172014dd4b4296cf8c9e6b767bf681b9464a049f87c06cfe9e34e1d881c6c3
667cb3f6e97f32b3f6accc7f09b1a752c8d5d7daa7603e2c6dd511fecfa90373
ddc9058dbe5fbb2dbd753903edc5ea16679e6fbc6acfbed944052f47365f5421
24efd6f9787ec93a81109436ede94fc15de1cad0ea37223bb0c3ef85124d1ffb
b0c8989f17e7f5c5755798526c877c83157f74777feeeb0ecbe5a6fcd1cc336c
fc9cefc502233843ca104920c9eb66087f52487d355d7ff56edb41b2ecd90acc
9f4afb22e2f6fd3626be6f7d1904d3f34a975d65ebe2178cb547d4c81c25d881
e987a5c73881335053dbf4acdfbc9b449cda43c3666c108197ecd84696f6e908
f67897fff6d5f7c0589b2ac4f62e8891af8dac53ab327129d3bb28e174be21ee
4aed09687d72e05530f2eac39101a6d7fc95947bd4dba8a83aa09d27ae7f5399
2698d616d86968d1bab576457e435a62dc81ccd1f4c03cba74eb58086cdc4038
71cf056f6dc6e96fa4042557bcf17fafd65b89e608e4c936de39fbaa2ef96e77
c7cc8d5097d32f78b1c5313a6b5bd8a08197f415f8b3de7e56cc7e6ec2218584
7ad08379e4fff25e0f770fd70db490ff53a8da82229ad7687ad96eb339b9dba8
d36b8fd385e992cc8a0d75a7bc5e9adff8cbba986c112942169f7106754f45f7
bbff8bd9756bd578225b465aaabfb88a713e10783f2df7ac2cdad376bbfc88f4
7dd104ebe6867181cb763b0d9d055087ecfbfbc34c74bf8f8eaf5caa8bb1934c
e26fcaad2efddd77d747d07b9f591556ade9e1348f1996e4b99e6dac736d64e1
9eebcd4d5cd7b700c8844ea420d60733521ce436ebf0654987076c56aea87e37
2a7f6c1267bb799a5d9ebbe194c985a0ab0a40fed0ab13ac699f4b472e2223c5
39fa00ec7f3320f1eb3ac12e8fc79412d3ba6b81bb0fbfabafbfb613f5650134
24987abbedcc5b9972a0a375ae9c073099b41dcab8ebafed01d60e3b83fe8b28
d2697f982c63436c5e67af8c2e57caf68b1fe59b3f812f61f1f41368431fa281
4fcb0033e4b6780be3223cf7becc8c5e86efbc9a3979282f0dd4e0e3edc69685
5e99c9bcc7b3faae18d5d516b7364a6d829aea0ef32e97cffbfd41ba6cbd631d
00df022c79882c4e3decda3000a10a38a0e5278f180f8a3495fa1fdf0005c323
6bb9369c7f8e5577eb558103b8ee687fbb96e3d83713dedbfce63ea47dd2aab2
6d3b59268df5c6cef7d58cc67d7f93433336811f2df35edbe8a09a7584281f4f
6bf05dbba604b99d5577f77f535ea42fdce9d10e786eddf8eae69b08351e2e30
3afaea0b701cb1ad819ea2172dd73b67f37141e829b7543a3396a3bcd75aa57f
b662efccb5b6454cf70c94b6512a781988aa6f2ed8b7355d946b1f2ddf6c3f3e
3f7a3cbf6f9f9baa33bd04e573f1abb88cd5f54b5dc0acc8acaf8d6eb6e6f116
9cdd3f742f72edc04181d618de3c0b495b3e7b70a8f1fe170f8153e1a6e752f9
5d817f44ad769bd16347429d11d6f7e15ef77c99dad59cd39967ae2f0a7f5966
a181d58af043a4115bcdb66b3d5e71cd2b06503181be3d1229ef0e60fab93c71
ed8e8ca165f066730adc85506b7aed81ed5542cc0397db4601f809cefc5acc0f
b9c429810ffa6270a400941e7a2d5b59b316cb81de65110739c62eb06aee1524
b8906b8102ddec85337d992c657f7f15e5460f717cdec6a358df3d4d29a1cda9
7177527f7d8e989e20508a6d88ff18a51fc7b3975b6a15145eb57feef46dfc4b
e4e2d97f9ed6f1210fef3c95d3cb315b6963e82d738f2725d0535072362b09ca
5de8a9899901811135f9a6088b2bb4451712ddb2dd018c9aeb473734169ce836
7a5e327f99fb1da137c2d8b143bf8d455f9621fc9a4c81e24e1e966ae78e390d
1e7a142395be253e04e811cd76f407dc37ba200f72faae7f0278d42821d0bbca
1279f32a93e6e7f8f0af5b74cb89aaeb60a4aa86d5ea267fbbe4f0d697fed3e3
c9ee1139f11b88dfc38af943ee1d2b125ed6dee38d9f8de4993f7837eb9ae4db
4d6f6f253ba790b45133e19a815f64669adccb4ce774f4fb930b1391c717364b
4b4d81abb4affcbcfb45ba1f6c590d544b491be9fc3569dee32ffc6ccd3b8159
64fd4421bee4941938b19a0bc3d71e2a6cf34d4010cf814cb55c817edb2e9a20
e5c8cdec74ddd5b1c1f06407833115dbfdaefca5e39dbd8b81ee81a668316819
4ae868ffd0fc44a0993f95db9cb97e1c106ee6caa94be6e3fd917b1050558a2f
5d8fd6e3389310b54f5120e568fd5b3ec76b99fc70dab36d59e9f2137d53ebc8
7b65e7d73d97e0a60a71fa8b7fc841580af11dbb7be133330b3f8fc967818165
264b53322e9fdb7fed743ac0add699aafe6511d0c184ed68757a0d5d6bbabf67
763deab54052127f3fe8ce19a6cf671d757cbfbd905e7a823b4247bdbf465a8c
81acb252747764a3e28ad9d2a8bb83ede0b9646472f93fe303005def9fcfa33e
61a81c07321d897f73e5d07875537a420aea3e692d25628159f300648dc677fb
b4ed279563b23347718e557f77ccb4ba5b3e1216964c81d78da8fe67e8f33c9e
eed536c75e9b041045c98d2aab5f3f7f810939eb1fba2aa596fba33bda8fdc7f
30de86c2abd0386279d685ac5727a524cc06ead305bec5c79d37335597376633
e69ebc357b6aeab8c9791fab8fcb00026db58111c768a137bee80581b0fb5312
b2b05a8717fa9a96bf3fd6e67f9cb7e29d599927bbf09ed171eaf04f4b642749
1ccb51a9e67915881cef979d56795eb5b9d78141bf87a1763cf53b744f575dbf
56de9df481cf798bb5fe20201b7b132fab5b81a9c0c3a6e30d929cda5ee51e43
62f3d060ef8caa2814aaf3841d85f5e0a5f6d692e3ecda7fd7e2412e38658162
7fa5148beaf47f0beceae06c009d9d817f85e6c85928ae758e5f4c74441fea19
175f7311ea3a343a258d7e46b6ced885fb2c5c498f06566b2d234484d0df8eef
23f738f42f7a757355c727c8fa86814b8727bbf7993f6390a8296b019f955774
9b02c13b64937f79bd3ad92630c24286ad81c05581bfb251dacecbef82887e4c
7e53c40ad9e85545107fb5acd7962371f2e5ad30227f23e9eb5b432af45bcf17
fc7f23af9cdbe89c9270c0fc58fccacff8edd8b2eba5dbff81fc635f6f0f03a1
20161a819ffb59467e2ea09ce9aa761fdc22d4d30999f4a7cfc91aa0b0ed7f3e
71dd4b81f605a451dff985c49b76927bce2fba1906ff6085cd35648dede2bd81
c488e0aa1fe31a075e7f81e113c0cf187f7f14f92e77f0677fb32835c0a6dbde
3b167e37fbc07824671f19e4f65728aa3d8981626fb76bc03abb64e70f31907d
7b6c90813d2f3c72c9a18a5b67d912723ef12efb02f694ef538b81e75cfa0ac3
883176ebdb4781367359d44e7f6eedb8250b4cfcdab395bd7929839394ed84f4
cae31cecd268c2f5979bfc447a460d8eec0f1e70e5845b9f37571b8a0b96af2a
9a77f774c67829bb0bbc0216cf357bb2ae3ee6bf39c01b706bd714e6f437487f
94368be7bc6bc1c83c3d412a64db345eb914f32dae5e4f675647e3b619ec98f3
1c3b7ab5234ff20ec0ff075fd7d1ac00509f9840092e4e6e1baffd5c2653e3f9
f68b8e25b0d544c3f8c073aa7bb4a3d869bb2581f16081343c53d63ff6f0a8b9
66ce61629f99f7f0eb4a650668331445829e1373aff032a2b3df4e571fa27957
a990e3dba1d37172ebc36ac9e8ac54649604429283c9fd4c3f2b0cf50cf92a92
2ef55102331f5bacfbe2d201775c9712be3683c3c5a564c2c7d8b8d83fc5a96d
6cd5bb4e775a81e0bc2bb42dea083c5acd896c4a739e00324810bba47e1f7e87
7f95c00e88fb7064d7a60c7f1722eec0f9cb109287e57b4fd3ad3f92cf2a97a0
c4fe8c0097aa176be1328d16f4d660ee9f74c28638db694fe7442337e72d6481
3ae04f434e7dea6ebe83946c947410a72a02e830c72f5d7b279e2ab9e05898db
8bcaac9c81aefd16f6f0afd857ee23f681743958301a111e2fae959059e0a856
97c75181ee023edbaa2a1476e1ee630039ede79d675328e08aa337893d9e0705
6458147f5dda8cd1582152a9edbac7dca65167d24fb96fab8ac942431972079b
04d61f1316b97e7f8aefe9a081a4271252f7176ab592347d437f1e7f7fe5e255
e32f146d224bbdedc933bbfeec6e9076db5c8f13e01ab87e3515edfe66d72d2e
5f65d654dd9cf14ab851d6d9888cad3d18a2862596af75c9dff191635b6c7eee
0f8dd48edb6bd5c459ddf166acdf4b0e817390c833b87f8afe4c37c51ef1a0e6
b66ea03b5fa5f85959bacb3d8d5ff7d6da6e7363047d05088dab18bee9bc5c51
05393047d7d8c1c3f37359a420a0f39cce71fea5b71da0d23a5fd2ea3b39cfa6
77ab685de354fc16667e441781fe50c1946866c7a8e7ed19c7b670a4f65b07a9
6f5548f57ad0b82bc144a3a8527f19538b6f92fe2e2cd8eecfaf87afdda57d7b
f103cc9f7e8e5cacabb7a292099494bb5514e13c975d7c0d9d8e2e8ee8835443
217f8320b0d7599c5d6d3f13c60e718b72e4abb7c8d648a56d5e5cdfe20fab52
cfa5815fe1c60ddd7543bb829f177fb0b7937ffb71ac9af9a6fd85509eba057f
badec381f566d56a23e8106162eef21623b0e6881f3dc1e1c2c481af893bbc48
fedbedc83581dedb39bb7fb6f2024814e3448d978e046d250efb3aaa00fa8b65
f4dc509ed11fab11e05acb4993fa13f136fc3c77535158e258e25b58e7d86821
7ae6047953b7aba16cd961ab8de80947192ee10e5cdb9b514a28de66b0b52e70
8b669fae15946681d4db2ce4601cebcef18243503dfbb2635ed6025b84f9e5c2
5eb61f2c6d120af61961810eafd4afb95e8ff9fb7766a7275aeaccaa4ded3802
9bac59d8be6aac207fb889e93f9e36d560f9d607ccf9353dd53bdb912ab3d727
f97f8137997fe81d5f5cc7d6f0c9ce30d4c3a98f2029894fafcc1c778f68cb61
d64f81efa51b08ba153e6710a3b75fcdb8eb4ca1bde7dfa5b0aac8676dab1067
448a7ff7d23fba9cc9b88e23190718976d985ee07f4669faf132f0fa40ff9683
667fd7de67e2344c37d61dcd410a37c8a27a02b4c8dc3333379e1a08976ecf74
9be97f96993f8bdeb0124f4ae5ec3d29d1ee2338aa9c302db461bc4de1fa8af9
74b37c73d2f3257e032f2e25337715746f25b7ff9c7d55228888aca725e5a5d0
8295b858ad8c2823d3dc32e6d3b0a9d2cb915e4f0df0f695a5db8d5b81a7b48a
edd40f07a36b5873dcc2a1a4f1b57ff897ec5381774f1e7f7ff10fe7b717c274
8d9222adf8ce73c52c7ca77fc37fa94122e16176de8e2a8b2f493691f9bef32f
409488168a5a7979ecf8cc7914938f6fe2eb9f4134f584033baeb20cc821b78a
f0b7f3e2af6fefa1894c70125ceded446d375468c783d781a73f73d70efdc6b6
1f980bcc9fd8f5e3a7109fc3b99ae502fbfdd170b7c55aafc722345a8ba285c3
e6b2e781cc383b92d73a98c8a6095f7f86f7ed5631bd3b5ebb5abf28e1983d0d
37975dbe10c1d7124e397bd9ccbbe62e6f39ba69191abd8c18438cf8daf2c112
94dbc8ed65d7a8afd5a0a226ca88aa86f86ea509eb3a8134a451422db57f8581
ed46fa1960632fe9d78b7b19ad7f593ad43574587360027bc5db1ff47f04737f
f3d4576effe191e0bf1c2d566dbc106dfec1c23593930ffe3d95f79ac2fb76cc
bc7ff7957d532f6b9795a2a6167afb6b7907b801d1db499160fa2179a539dcc0
98ed247a12dfcb8b15fd79ae480a15aa94fc3c75907f6cad7f0ed76d4772bea4
7937695346be3197c4b7ba5a4e5fc55bf24fbe671291935f95840f7dafe22e9f
8b5a4ea741ffbc94cd1fbf81ed70857e68fdfe99575e13ba3afb12071b413b65
55d40852ebb3590b1fdcc9ddd5a3d7fc0c70eb38d2ea277a277ed7e2973bffb6
df68484859e879baabd6f204aadd29caed53fa0b2aac87603865ad8187eebfc8
e5597fc236de0c55876b81fcb074649ec03cc2ab3a7dd5b1ef2ce39132f97fb1
73c5aae0a7a15fc4f237baed555ba0b6aa3a915004112c76c9fc279fb5315def
db553950dd4b38e88124a543a73b8d8117dd61a1ede9815ed69181d86e73b8ff
c99e27bcbd5c1145e7d4d91586920f33770ece219ceb373898de39206b2b0781
d13458b7d48fb631756e089876ea5e5d9f96793663b1ae10dd47ca818e7c8ea8
9f633f6f4411213726f87b7ed597050df99c2347bf7f7116947f4aceacb75bef
70159f5ef49da9bf81aa255b69a8f89ab698b7acf1badb3542a58dd122b994ec
3f2a788109df7674b7c5301b177f0638c9e21a11457a8a94d5cdea8991ab68fa
ee1e6e15f6349f7f441a3a10fa2e644533ded62e7b92634a3930e489cafa2235
84cbb8ad6af5d579b16e7fd86ad58eb163f1f731a39f755ea24d906244c77081
65bf359b83dd5a86e9375e44a23a023a2e715fa6768d100ca9e708f3b7ef8ce5
df62afd6ff547fc1d8ab19aaccb7cddcff21375d8154dc3d925c81bdbbd23740
2d875a2ce77468ec5303446160a7a4f443a37a453cfc9e91591a0fc9ee61bd9f
58f55d63aa952281da3ed71d10d96b388942f83ea50dc64c47d7785e4781f027
d8ed182b003639fd5b6fb1967ce3b6dfa67e819e27bf335d027ff46a33fc20d4
0a5816f18bf9aa3f953cce9e2a662f21ff3d88c543efcb7fbcdb81b62cfb487f
e3027497bb8106d71b3f7f1b6d04d9c6537a27eda0d184cc66de1b9377ab846f
d15ff278564b3dd2be764feed1bbeb0e96f68f843dd111a69805cb6f18ff5dbe
5b6da6b2e27e859c1b755a09701602a51c75b4d4ba5781042a6234f4f5c95210
b9e79d2a794319effe0b0359ff610ba4c7b3d82a50c9744bc7ad792b01822985
6c5fe97578e837f0a96683b5df6242b83af6769136b3a841f2e31bb9f5b12474
aa817a45f8c7069c3849b8810f3bd10450f275dc2f730b4772d8d82f2270fb76
79d02d5cfbb197785de62b5502d484c19af4e43a7f3fb8774afed32193c7c8fe
af6905e8f82609bab4142d34d49f0119d4bd5989af0fdd6494bd1385ad3dd7a2
930f8a9ff4e3ff94832c7fc97ffaa640ec612871cfa35ba977aaa2d1a47b0d8f
b8cc2924d203bfd83ebcd5356e1c22df8b4b720294e8784e6afcec307b006e4f
63bd762340539defd604311ae1bdbe3cbe567977955513151c52a05ebdc9d15d
de68404e7aeceee0db7f5d9817a14f67841847feb3dc19402ffd2904d3db42d7
1f7f0b81570ad28c67ec2c0e1f6052b57f72e7bb604e9c19d5d3fd17e5d2f394
5f471270441994d99b6646e55e3d4e46375e891962e8c8a816fbb078d5aba598
4f620a5d7e699af3b43d681e1cb964e43484e1103b37d033c250f8e594ad9dee
cc2569c3a26ab3fc95f650c53e8597d6c9343ddd274edaac93eeb4c2313e6f4f
e27eb7cbba5350b4b01e04adf5e248f88fd681d387e0783aaed703b4d9f4811a
dad63edae67ad122e445f312a1b5f0dc77262ab2327f2711d560201aca2a1bec
d524f3adad7fbe74bd4d8e81cbd91a7b0353159edc5ade6a6ecdfcb5fd70b592
773914fc0c7ce08c9d4c7fa3277d6a4af3d2b90d849e4b7f5405cc5ed756e4e8
3c413a111f73d66182228c824e60f9dd7ca813e4cf3c07b1e7ed6645450ebae4
583e12b8547f6d5ab76c7f3d87f77581a1370bdbe43811a38fb994d5faa71ea9
ea4ff381a7f96338afa2f709fda4e9307e6677de0e955d23a4742ad37d748eb3
4a6586c71feaa9d0f486a19de772cc184e024bae2f76f4651acf31fb48c9b764
73ce814c8170b89d1edebbdd149481fbbde1658f4d755bfc9d3db5f3b3a66783
dcf4fc00f2e77fa761b2298c4f9ec0b37f8ae233350fd6d0f44719cdd4be0d8c
7f64aca75f8e02626671c2bd5ad70c7fdbd10e71f16dd98d9dafa9b8d9ef0aa9
f3b7600aa3e3c9ad3be58954edd245becd13b7cbe7f952c66797bd9634c7c3ad
91fd3a47656f3ed7858c8e0cfb16f4c92cf7f1494ef6036b23d071bcb0f75fd4
03dec57fec3d7f94478b3b9a33c7b537c3766343f16d68cb3483637fc27e7f4a
bb58fef6412c39ba5adb734be130368115f654fee9045bb9d1edbec19ff9b3ea
8d7b013186e55020817fd2f0559f0f1cdf519a1c64e60448f0b3e3cffe92c63d
ac175826397be460a181a43fd67fd24bfefe3867b3e6319769c346e3a4745388
21f159192f30da2ad49f32811945363886115b549681087cb2fce3e59abedc30
77ca034d81cb08e5525193eabec6e6acf5877aec7ce4d45d4c5b68076d1f3939
5e55018a92ef38391bd7ee38ab6a5a18a41a5ebe34df81fefc75ea66e896015d
a47ffe0c8bfa3ce05bb5b4df8766658ee37f628dcb444132dc6e63e40c85c318
eb56d1dd7d3f7fd9c403c948bd3c6447f369c469ef1b89c16b8a0b7a3bc71611
d8340c81faa62cc440c1efa8fd89759059a7448972eeaa842f1e8eec77d45413
2114c49264a558a0f374f56dc17b2091229ed824f36d23daaeb51f10a2ff8d1a
cda72aca414af4cc8172acea9bf4bfc774edf293fa7a1ab1170412d4aa7b7fdf
451fc4b4fb519a6725060b01e9b8dd19b5236896f26e1c64b01e3009af229f9f
bb6e6715cc5b0f7e1e7771c4c2cf3091850c2c16fbaec5dc763d35b4e8cd75fb
7e4e65c1d265717fee607f0c1afb247fcd3bf56a7fa4a9b8ba577faff4d6e6f7
4901ebd77b69ebcf72165276c30883a5c4c892dda36fb1fd59506ae38f7f8c81
69ec815b93294454336f5c270816b6e0c5ca6132a71256dff9ac12818766d292
6b6e1df0e88e54f9f33379e2bae9fd22ad5781c141c02693e65651f6babaf2f0
11769279f237ae909675bf4799799648e99a7007dba5d18a8ed4f6ee1a6eeb74
2a93bb998a81ce2f6ddae86b408e4b5278f68bd5ba7f563afa2ec7c693e2739c
ceea17cf2f83affdb7fdc487e53e8f2aaee37d315e20a78f7e1161a70ffa308b
03589e627e5578332626691565107003b26597edf4b64e424d1b573c1dbff23f
f5c47f32a09a9d9bdd95217c86815c7cdb9e50e13e812365ff42bcc581f70c78
9a77709a437f729c454d997baabdd97f667b4b9011dbc23581f90995c6bda67d
ba523b53fa33d0b9b0bc1ad7c72810375074a304e55eeef14f76e2314f09c91a
5370a1e7b0f31081ee7153e736702f5317989db442b47366adaec90f73b62d02
f4a7db764d2a35dd9f5c4e0fa73ef0a8f3877a4233872f06d23fc20c35f51141
e69f4903c75ec948f89b01a40f11980ee08c4187baabe46552c98104a2105128
2afb4a5517b6f1e06fb4ccfbd4e9a875fe2247c3a873261e75cd15693fee0234
38febd351bc81e4278aba06009ffba9bdd8eaad7096615571bf61ee5d15f6107
ee43452bddd260d7c9b5e911a9dd257ca55481e17dca68a374d9d69c81970be0
61e138545eda5dd2e78dce6f8aff470bf96d507cd50f78eaeab500bdd53454a9
9afcac00e4c78a0026edac5cbd9af66e7c75d2dd9a9d2551a85c5f4f39db8423
d7cd81aea9dea2859f030dc602a911297fff2bccfa5ae405c62a0abf9eb0de2d
7f3ab4c40ea36db9cd5d0df1b1489eed47343a6d7e22d1879f53265c8f0ebf81
5f6951ed4010fb9afb81674ccdae9ba06ef26a99767ce5c3a1b6c77f537bfc04
d539ff0bb16f39ce871a25fe750574e10a4f4771ee69204fbf02369860c1f0ea
6a70f9b03b30013dddc972cf63c28ef932842eab51e60b1b47fa0b20911c1f24
3e73a3e83760f29096026d7a65eb2cdb6f2bea0cf25ce9dbf9143d5cb7636bdb
17fd5bf6ca3f5b8bbb6a416a7a37c3cce2b5cf85bf319feba0791fc2fcb516f3
81af1eb22797177e38fddb1addfc588abfc837ae4c3b3daa71ee7c06027c6fa4
1f57517b88818b5136d060bdd8ee88cea6faaac9010c7bee5f78aedfbab6aa59
6ba8e056763bc1a6edcada7f7481a8376c920e18b5370950d7eacb4f05e0e927
e9d289992c2321aad8f96ca395ab27284ced48e353f5e34bde36ab09548d5c97
d2eb74b6611c3f437f73a364aa7dadf0ea3d90122689a18b71ac3c0856773468
05954cf5f15d7f5277dda181f1409d14f72b868aceb345c36eda9b4631a87917
f544148297b57f7faaed7cc2606de08bbf497ff9976e7feb8df3e23d8d887fe2
99e7bb0d930a77c8967dfd11afac18654ee7ce59d1debf5fadae9f89a7ce81cd
f4488b308bee0ac63ef8dffd2c53c8d5049c55f3a5b7f824e86a46795f0fd03b
2049f2e5815a08357abc0068bb3e2d0d0c740f7796fab603abe3a2a6b92f81a3
bcf825e4a0615e4dac8ba8e795779a763acfbb174545b58fe24dbca8b65d9b64
a90719ffe83f951012cbdb4a6f370887a82acfcad7e8d5da0f73ecbd1270cfbe
76005ee97d7f3185cef4d816d812257f7123fd1a7831bf362f3e904681630cc4
f1e5ca9349e570af95bd924074f37700999ff9bad37f51afa432867eb6ad371d
4bdc4e81bc67757159c64aa907500fb3316461e3e2fcdd8b7b7fda8f73c85888
e3c5da5aaecf3b1994dfba7dbab6e7472e898d7f1597b3f48e3f60811484c0b7
4ff89bb0d4038a1f239e0531fc5c9e24ef49e223ee8a7ad39eb7e2f43ee39713
cc7ef3501c7f96d0dde5ba3a7bb2a65e26fc5fddcbba2c8157d4464a90dfe2ab
fab50712687443819ee9c5d94fc546ebf984b0fa8119bf8de9756d9f79db07d0
3b5dfbb89516a98166256e47f65a453f9d9b03f1535cab1d168481c15bd58673
ef71ead3eed10360d44f4230a929cf0769eed5bf3e73398cd5c68116675ea5ed
025e6fd887b99830c57ba6d8f6e602bbdfa632dbe63a05b565bbf74b8e75275c
1efc16811396ed7adb888437a7b5073ee2ee7d05f75585b3b8e67516e4e78d65
9cd6bb28d5e9dc422d5d7c3a2171abc7e58d9eea772b9e6c44989ed460175220
54a7337fa60a6b81a7d331c966c399f45cac38a72438a6d6fc4b56944177817d
6ed9eb0db9ac607f05d92f326bea3f1cf4d564bc06b90b7a81458b727e2bf60a
4ce2c17eb73681840c8d817f6a25d79eb1dcd5426e7c391e3e8d87c856d4e346
832195fe0e29e0ccfb64813ca97ffc154f58f2f99f55492cdb0f44cbdefa4d63
a5dbd4a3bd44e1c6d3990cba5fa93d73a6fac5f80c2979335ed93012d3b584a5
dae122fadde200fe4754c3bd6b48bf5fd7bd618b79b94ef5a2cacf12823f18ba
c248f5f767c2e89d67baba4ea4eecd71befcd096507f7fb36b6ee840d95aab35
bab574edb1b7851617ee6509ecb5b081f4b64fd7624bf98be0df8f7fbb3c7e2a
f4a39a7af1f8636af81d0d7fa087b1fb8193cd103ba7fc9ed00b679b8359a375
5285e26d3875f53fbf0eb6d8ed257f5ad1d013e85cdf5ab3ec9d106fad878184
e8bd6f5ca9a90edb7b2c1d51967b2491796e634c65dd4d44a436d69949fd99c4
2c43eb93adc7399a246d6564f1b8a956317f0ba7f07d99fbe3b9a9593d15c7dc
b332ca4cadf1e7cedd8b7f3155c082b33c055f0f94a357523aeba5d0af1ff639
73dc518d928a9e81cc18eea85bad3514fd83137a798619ff31212dd1ce76413a
a21596d07f2af9ecff6e07a274bc816726e797caf659e11d3d05d36c8911945c
459d981dbca57fd17ef0620ee0315eae7f3e340382b9dd589f74232020d01957
cfc3d02cb40f62f6435b5ebf5f74bfd3f553b18176c9ff169c5d522a75ba9cd9
4ae87bc86eb354587f77fa6ec97f7f70df115a8cadb92ee3231383a57da57b14
653575413df33c97dfa87fa667c2f381abe46693929bb56c747e7fdd5d4cc65d
ddaab5a547c5ea52845dcec06ef4c430a3cf1585ddda575d197bc6b3f39a0a8f
2447030abbe8821feb4e84814c6ca591d5f7d4a595bbea2a9fb5bf1d420e6247
28e06bbd24ecae79a7e9dc00bb88a345810f5b817f26e6a445fd6781dffeb675
27befa209430a0378d31977fb66e7bf7b673971c9907797f07d40428dd1db8c8
526f6a5417d7b853263634e9bf9e527fcdc682b6b7d82b53dfd1df3b04fb295f
aadd501e752897c7f23781a7e0549c3a3b67960a244f124db47bd6c48ffa7f5b
db65e62cdae39b0dd48c811b6e6b675eead65230dd098cff7fabff658fa7004b
6449127dafc59c815c9fe1c6f4c0d7d16c9d7e7527de70681281ef3c86dc5bea
2ff957287b293565ee5c498f423d8cb476eac2fdee4e67a5d49fce26263a35f0
f5b23ddc3c72c4e23c0bf151f68b2823e6d381cf345d7c6f2fbbde0d75970012
a4b21c957d7234b1981f0dab574ec347f37f4781bd8deb1a94233cfe40df74d0
0e93b51607d9eeb8ec6d0bf3ac8fa5a88547dd7f0604427f75b5e25d865122d2
6be99e7479ec53bda55be937d7c3fe003f47726377e6881f057b12442f757d09
6d959e23b5f11f056c6acf45c5bbb7783c81bf3cc3e7d4c945f9cebdc6a06024
cf1bf9137328e86862df0f2f251f16fbb1de6153d17265e4b7d2b6711ea8bd62
787ec4889da690aa417a9055d56b908b1f3d9c31820fb01b31b658d2f94d9392
e4a54715b8ee0ff44a5fc2ebe40f717fd30e81c862fea4ff8db05634df8122ff
16a870782525e9cef4d3e92d10b98a5a2954c13c81e14f81e6bc78ff27e289e7
eeb42067b739b6c134c2dcbcff84f25dd3daa0ede81e87891e38a4d38d9fc475
5c4b7f9737d9c1cddfca3d577cf2497f1d3d81b7f35602623e5288bcb881d266
bc6532727dd3b5f1797311c41ac97f8dc35f7cfef9a0d85827f36e7aa5fecbae
2eb7ab6911055deb58c9ebd9ff064caab6e3ea81b63b087f4d783777979b1701
f1817e97dd9c2c75dd81c4d0248db56f0789388becce7f17371ee2292a191c08
54f49d458d9b659bd2f64a4db96bf68111fb2c0cb3d889094fbac351e8e84428
29ef7b7f95ce8a3fa1069a3d56ddfb729f636f76e424280d9ed736bcd36e0cd6
1704507ae72da416ff24c30b4db910ae819fdb2317f99f1c0066da815e584e66
0b787f6bdf13dd97e7d8deda7f518ff681d117424f60284f72f3bda79ed1ea64
ea5b3a4e6aa6d4694c6c555285fe910035ee0bcb36e5eb97e6ea303ffab83bad
04157ecd727b8181aab9f843d7be898e3d75f51bd0dfc1185b984e853f60c9b3
84ca2f655b9498add9aecaaf461e4d2cbce250267f207fed653f2bb3d0401bab
da674af8db86ef2169454615d99d81d8e3d6c978479e7ee67e0b437fd0df006a
67377f23775cddd3845631cc952a47f8c9371e7ffab2470f027f8ef2ff461b4c
fcf21ebf812da0f05d3decfe317fc46ae381a12af4d95f7c6fd4b05b647781e1
d89f8137967f6e59b1dca08a75cdaf7f7ccd9ea181648dcc7f5ca081e8f6930c
43b5f4e6df62c75126381c77f72e5e5d4c33b6b07da300e85209c41b73f90503
95fd31245c15230e4bf6d96a088701cb0a17e8150db0e3bb7cd6225ff9e1af2a
66bd97810733dd1d07ee93b1ff24e61236decd944c8652d8a65e0a6e3aeefc0d
2301436b85df93c97eb43da6207827adcc42043696bb267ef54b928d9d4baa65
0e948c601630df58cdae39e3884e77b68119c3c365d67cd935dece9d7750a76d
3e6dc75f3c6614b83596153c27f6ec65af9957116e4cdb3f1e9f822a46fd277d
7ab4c0489f5cbdac3ec0c9967737fc3fb72e7f107da634f3482c0720641c7a7f
409ae971a756ff01b759fe4f761a06b03047cc17a25a7f81f3698a16a0690dad
3d5e21c040bf8c83b925fda3cb3b66dcfa8d005de34e878aeb7b7f73af3641e9
b94d05d12b7d0344320be5c5d46af0ec2f389667bd3a287f56c2ce0438c5cba8
d281cac16237bb0dca9fd781a9565f25b4864dbe8c152a9d39f5fa24c05b7f4f
fc74837fbf15c09f7b359b98ee3cbdc69e9daa816d14951f18819e37ff4254ee
c7e44909c7cb40f34c259df181b2fe2594e62985df64722aa81eeb2996dcca65
253431b7b6f753fc0ff921340e12817c4f187f95edc45636773c4d7f7f478f1d
cd76cde03abdaab9b46e872c795d7482a35f633c593f8e1f0974adb9e35ec2d4
639d8747f4c709dc6266eec337761ee507fc9952f1e3541c8681557fb9c2171f
8aff9a42787b7f958fae0cea129381d69ecce80f04e2b4899df8f5369113ee61
4f9dd9bcbf96f3f1422bb9022b7b5a964fb546637c1fbfa462f5ed3fccd70c84
0c6b2587573d151957ccc42aad1b0c4b15f40a9fed633cffb783be0c0f811c01
d9e2688fa862ad7fa7bc8f529b81c63002b7a70f8c52b11ddf32a7486410effb
f8733b1c2b845d3271535831d92f7a5c3bd90ed0e69feef8b614c34fc3bb0995
a8ac09ba99e72026a891027fafe51c11d5eedf7fcfb2f77508e08122a0487f6f
4bb3721d6581d9dddbb84edc9ec386aab2fda5a81e9d977fbbd27e2f657aa969
3af600ca3a3eb9da2083fb08f8bc7a978dbb6d9aec9e7f5fe46a5ebaf9d8aee7
e5d8cce36c7b60c56f96a6268d640d85f87f512d7c7ab8f29ce2be7fbab51d0d
af7179fd818f04a7cbb98114320bc7fb7f45287fa235be33abd583b04e0efa44
b54f9bab81d24b90eef51b3e2afbd839cdba24d0a1844a380b34ff20787d3a5d
0397a227dc73931edd89eb689a48af321d69bd39759b01fc1b7e7f5cd7bdd1d8
e93e17d5625af4d937ba12d2737ff44cef257fc84dbce63abb9324865bd17789
f52e9d159e66b4c840552a726f475b33c73b81488a392668490c81b151fd3b46
dd19ce5955bb3a103c4d7da930f818e227581d993f4bab5ad451ff1fe6819568
ceb132a0d70c46eab3f11917a7840bb0300237151e14d2bf07f791299fb14e95
ab3de25a7fdb06206206796aef58907eb9c7d8976c4596d46d79d03bb3e3fa8a
81c5777b3f3a07b4c3c91a190153475c72c607d6fc936781465d383c34df7341
0058c328f04ba0463cf3fbff1739db0aed2bd1571de37ed9dc75edf145d2719a
7e6394101b7fc12310ae88d159fab2075afc4090ec8cd737cb70c3517c5bcf4f
7ed210b66d3e3a687f5b5642be631de2dfc65f2cb6679c7f927e4e4f111ffca1
baec9d896b9f0b553ff091d6767f3b7c2cf65d7d2281c620fb13edf366a9cf76
776abd3a4abe72d8446720f02fea9900b9f8b6df304f087f67259a90ec5da707
7b6eb7c2b3375f6a173f2f3d5dd36877145efe4f635fb32629c3fc8198d9e9f2
81cf5e39486c72e2bba53ea3f010a19681f2c7c1320917f7be1bfeefdaaa8646
7de13cc8fee9777f02b76840bd8b712f73adc5fefc3d90de4285f5d553f6666c
ba170bbed2bb927f7e23fc9cb16bdfe9ca4d5871ba976c0af9c7a7f70c37253f
b207db84b5392818fec853ce380168a47f1269a507492157ec2fec1881567f04
8fcd151ac2164773e990fb2285df00ec877d0f37505ed87eca26d4c7f35c7728
7b254bd57aabfa7fb059fce9df7e687f2905b9e5367e7a97278a767e71011d14
a175891379190aceb79ca27f0675ac391881dc834a11d717aadbb8667ab80e86
a767b6b36654e27393ef8f0cfd854bcce63e1b0ac5bad97b487fec9df2e9f2aa
b9359e507f0d810bd462077f97c873392cd9f0a0bdc9cbc7d7a00b11befb9a0c
c1dba8811439f6aea3f960c24a4545eb6c3e4834f6f6785e26fe3bdde221008b
95bebb100c568e8bd13048f297c79fc3077f5eb37fdd3c6a624472836e8fb155
1b7de8b5db63241b138e5d2dec9b4c8126ff56cfa7e6dceb70c4d6ece35c3e75
ecb5f5e00b7f2c95bcad51f5379c5016f552b60b424081089dcdee24b2810251
c3f5f77b9a15cef82cfa5114da8ffce5ab5ea01b4d86afbcbeddaf816f6c0333
7276ecb3975e3f81c3fa69a6d9f3f796b5895e785e3b89160795b3c057322968
0326187fecb8ea92f566e567fa23783023e9bdd6f0d28ef3f3aa30f001497f16
96e740aa810482cd38c0725dce6eb02e1bcf27aa367702da7a6c3b5eaad7b203
8167415ba9cf7f30fe633b076e52c86ad5b1b82d3fe825861a7f6f20b988d147
724e33762e437cc57e56a8da508dede54a34ccbb4664c452c9f62f13a1d7ed2a
cbb6ba6c7ffc054d8bc10488eb3abf1bfe1c9bcb0852aefdbda81eca1f6b811f
997b3a0379d3bbc0e3bb48fcd58e3b8810971571e95ef2769ee083c727d45920
7f366e816c81e0615f2e195b8157f52842b034f8d3b4eabe733b339499fd7502
5f1e797799157f7a2327ae9e5dea31e9be66eb2a94b8347310990c40ecce4081
75818e1e7a7325460567bad28161c74ac04d41b01db734643f4d591707209364
54a6bd45fe419e5ef4a7cd229482d6fc7ec58191ff49735e6a9fe4037bfcad11
ff88f91538e650b60f785c381fb699feb5b5230b391c146a7f8bfa32a73b0613
fc12f162497f83dcd8dfd4f35ea81e817f0cc62adeaa81e46a40a4b8486cc2a4
1a8f7f5114a8a35d9d97d062ee08c8281f40922ed43d3a65d7ca326181eed24d
37eae2420cd93f1d14b1e93774d781a6fb290a8281810a267fff9c2bfe928757
48648973f9e19d78cc0d08bffd49c5bf743e0edea2df81cbd0391b34adba2951
145081e8a44db991d2f5227d94e07c5e81d24ea975ca83c4b98f39f1d11541d6
e763e12ec1335a9c321c20d5f745c34aba6ee87dd56c04817224e389e75a480d
278afbcb7f689c0f9e8da1ad405673218a3bb51fb6ad744db18b97602e83df0d
03d7642c7ab853c43eae628769ad5151bb57c77791aa1eaff19d5d6d7fad6598
5b732a47272971ef6466c76494df4d13e557a0614840056aa8c38150f3b226ae
1cc816c8c67d9beb9185e43948d33a845bbcebaddb99be9042a69ce9f3e3e812
255d8108ef6476d595e7f6f9a26894e97157a706ca7dd459a3bbbec07fe381f8
f9636516de7f25bb742d37f4e6f4a781ef62cc5816a227fbe8fc0fc0d9f84532
e030f535cdad165381973f4545627b818dd76894e5bcd4308c81a0c144366868
a9ec4bb38ac5e8963ab7cd7f8599665df523ab40ac7ffbf773b6fee223fd33f7
4df39037a5e8c6276068e47a39eb5d075f2d050984d125d7819b449cfa1dde8d
bc35e9ee6bec9bda236c16d2bad0758e04737fd8bc3bfdcaebfc2cac39e11a68
daf2c157a1237c7984ff254484b6d1c976a2b9560f5525bfd9e9ceffad129e57
e25fd9282b5e6b0e0ac61d532fcbdf9e67c7f610a34d4323810e412eba7ca682
7f7f42a7c773ed4df5f1bcd99639d3628641f77ff60f3c97c5a47f185f54620f
d9ce4aff7a9355678bbecbef1876194aabceeba295a77d0fb19f2c21774e56ef
fcd481630be71f02daee918d6d4fad8fd3d990e49751833643ace3abec5e816a
de259d33bae3f20d1f2aa73d7e74f76e557886ac367ddd21f67fd7ecb0624868
b5176c931448e7314c7fc862d8fa8182eb32f7e77668014fc97775547a36d564
b6bcbb2091298a430b6ceea5cb3d8448fcf0a02779ff6b10c023a90ddb368752
8335d0b37c1f05e712609821c28e5ed4a03bd8e5963f0b81ea023dba81da9027
8da74126617f0dd6b8f68b727edeb3b17ffdbc0b93dc3c9d667bfc81193cc1b1
f569657d09619a0244218d0673cb95963de3b38a59a650df54cbcb3ebf6158fd
