009d1618
006756d9
0082f02a
00618142
ffbf1ee2
0025a016
0050def7
000cd92f
ff8e5dd6
ffd1ce3d
ff87872d
ffabbdd6
00018e3f
0088693d
fffbe3fe
0082fc3a
00843341
ff8b3298
ffaacc98
004bf3fd
ff4a2172
0060adb6
ffa10b51
ff6bd9f0
0049c1cf
ff7a3030
005ff838
00cb3c8d
ff4d7d51
009b830c
009453a1
fffa5ea8
00c8e013
ff3a1e0d
007d219f
000e752b
00049178
00b7ecf7
00a0ff66
ffe6f939
00ce940a
ff7b10ce
0095caba
00b29c61
00765b1d
ff44282d
ffe9fdbf
0074141f
001cce99
ffc7ce17
00325118
ff4c50d0
00680b0c
007bd84d
ff2c04a3
ff4090d3
000e7d2d
00024381
ffc092cd
009dd7d3
005458d6
00359b3d
00c74862
ffd3c744
