467d
4364
44fb
430e
39b4
3f9b
4219
3e2e
36e5
3ac7
3680
3896
3d88
454c
3d34
44fc
450e
36b6
3888
41d1
32f7
4302
37f8
34e8
41b0
35bc
42f8
4925
3328
4666
45fc
3d1e
4903
320b
44a6
3e46
3db4
4809
46b7
3c00
4957
35c8
4611
47ba
4442
329f
3c2c
4420
3f19
3a34
4057
3317
436f
4493
313b
326a
3e46
3d92
39c9
4688
424c
4087
48eb
3ae5
