F2010113
0C112E23
0C812C23
0E010413
00000513
FEA42A23
02500593
FEB42823
FEB42623
0000005B
3F000112
00000073
F14025F3
FEB42423
00100593
FEB42223
FEB42023
FCB42E23
01000593
FCB42C23
FCB42A23
FCB42823
FCA42623
02000593
FCB42423
00200593
FCB42223
00400613
FCC42023
FAA42E23
FAB42C23
FC442583
00D59593
FBC42603
00C585B3
FAB42A23
FC042583
00D59593
FB842603
00C585B3
FAB42823
FCC42583
FB442603
FC842683
FB042703
00B0105B
00C0105B
00D0105B
00E0105B
0000005B
40012022
00006210
40000090
02000112
03000012
04000012
86000012
0B000112
0F001F12
10000012
11001F12
13004012
14000312
15000112
8083FD91
08000017
86000012
0F003F12
11003F12
8083F591
08000017
00044040
020020CD
0240214D
028021CD
02C0224D
030022CD
0340234D
038023CD
03C0244D
040024CD
0440254D
048025CD
04C0264D
050026CD
0540274D
058027CD
05C0284D
00001044
30000019
30000023
00000020
48000021
40000019
00000073
FAA42223
0040006F
FA442503
FDC42583
44B55463
0040006F
FA442503
00251593
FD440513
00B50533
00052503
FAA42023
FA042503
00551513
FFF50513
F8A42E23
FA042503
F8A42C23
00000513
F8A42A23
F9442583
00F59593
01C5D593
FAB42623
F9442583
01359593
0135D593
FAB42423
F9842583
00D59593
F8B42823
FAC42583
FA842603
F9C42683
F9042703
00B0105B
00C0105B
00D0105B
00D0105B
00E0105B
0000005B
02000012
85000012
86000012
8F000012
91000012
13000012
14000012
15000012
81000491
00000073
FA442583
00259613
FD040593
00C585B3
0005A583
F8B42623
01000593
F8B42423
F8A42223
0040006F
F8442503
F8C42583
F8842603
02C5C5B3
34B55063
0040006F
00000513
F8A42023
0040006F
F8042503
F8842583
20B55463
0040006F
00000513
F6A42E23
0040006F
F7C42583
00000513
1CB54C63
0040006F
F8442503
F8842583
02B50533
F8042583
00B50533
F6A42C23
F7C42503
00551513
F6A42A23
00100513
F6A42823
02000513
F6A42623
00000513
F6A42423
F6A42223
F6A42023
0040006F
F6042583
00100513
12B54663
0040006F
00100513
F4A42E23
F6C42503
F4A42C23
F6042503
F4A42A23
F5C42503
00D51513
F5442583
00B50533
F4A42823
F6042503
01F55593
00B505B3
FFE5F593
40B50533
F4A42623
FF042503
01851513
F7042583
01759593
00B50533
F4C42583
01659593
00B50533
F6842583
01059593
00B50533
F6442583
00C59593
00B50533
F6C42583
00159593
00B50533
F4A42423
00000513
F6A42823
F5042503
F4842583
00A0105B
40B0105B
0000005B
80080515
00000073
F4C42503
04051663
0040006F
F7842503
00551513
F7442583
00B50533
F4A42223
F5842503
00D51513
F4442583
00B50533
F4A42023
F4042503
00A0105B
0000005B
A0080415
A0000FA1
00000073
0140006F
0000005B
80000FA1
00000073
0040006F
0040006F
F6042503
00150513
F6A42023
ED1FF06F
F8042503
00551513
F2A42E23
F3C42503
40A0105B
0000005B
00030020
000000A0
00220120
001001A0
002403A0
00002420
000947A0
08000521
86825FA1
00000073
0040006F
F7C42503
00150513
F6A42E23
E25FF06F
0040006F
F8042503
00150513
F8A42023
DF5FF06F
00000513
F2A42C23
00100593
F2B42A23
FE842503
00B51A63
0040006F
00100513
F2A42C23
0040006F
F3442503
00451513
F3842583
00F5F593
00B56533
F2A42823
FE842503
FD842583
02B50533
00551513
F2A42623
00000513
F2A42423
F2C42583
01359593
0135D593
F2B42223
F2A42023
F3042503
F2842583
F2442603
F2042683
00A0105B
00B0105B
00C0105B
40D0105B
0000005B
00020020
02040520
000025A0
00002620
20000012
A1000012
22000112
23000012
A4000012
A5000012
2A000112
2E01FF12
2F000012
3001FF12
00000013
881D06A3
08000017
00000019
00000019
00000019
00000019
00000019
00000019
00000019
00000019
00000019
00000019
00000019
00000073
0040006F
F8442503
00150513
F8A42223
CB5FF06F
0040006F
FA442503
00150513
FAA42223
BB5FF06F
10500073
F0010113
0E112E23
0E812C23
10010413
00000513
FEA42A23
02500593
FEB42823
FEB42623
0000005B
3F000112
00000073
F14025F3
FEB42423
00300593
FEB42223
FEB42023
00100593
FCB42E23
01000593
FCB42C23
01100613
FCC42A23
FCB42823
FCA42623
12000593
FCB42423
01200593
FCB42223
00400613
FCC42023
FAA42E23
FAB42C23
FC442583
00D59593
FBC42603
00C585B3
FAB42A23
FC042583
00D59593
FB842603
00C585B3
FAB42823
FCC42583
FB442603
FC842683
FB042703
00B0105B
00C0105B
00D0105B
00E0105B
0000005B
40012022
00016210
40000090
02000112
03000012
04000012
86000012
0B000112
0F011F12
10000012
11011F12
13004012
14000312
15000112
8083FD91
08000017
86000012
0F003F12
11003F12
8083F591
08000017
00044040
120020CD
1240214D
128021CD
12C0224D
130022CD
1340234D
138023CD
13C0244D
140024CD
1440254D
148025CD
14C0264D
150026CD
1540274D
158027CD
15C0284D
00001044
30000019
30000023
00000020
48000021
40000019
00000073
FAA42223
FAA42023
0040006F
FA042503
FDC42583
66B55863
0040006F
FA042503
00251593
FD440513
00B50533
00052503
F8A42E23
F9C42503
00551513
FFF50513
F8A42C23
F9C42503
F8A42A23
00000513
F8A42823
FE842503
00100593
00B51A63
0040006F
1E000513
F8A42823
0040006F
00000513
FAA42623
F9042583
01359593
0135D593
FAB42423
F9442583
00D59593
F8B42623
F8A42423
00100593
F8B42223
FE842503
00B51A63
0040006F
00100513
F8A42423
0040006F
F8442503
00451513
F8842583
00F5F593
00B56533
F8A42023
F8042503
FAC42583
FA842603
F9842683
F8C42703
00A0105B
00B0105B
00C0105B
00D0105B
00D0105B
00E0105B
0000005B
00000112
81000012
02000012
03000112
85000012
86000012
8F000012
91000012
15000012
81000491
00000073
FA042503
00251593
FD040513
00B50533
00052503
F6A42E23
01000513
F6A42C23
00000513
F6A42A23
0040006F
F7442503
F7C42583
F7842603
02C5C5B3
50B55463
0040006F
00000513
F6A42823
0040006F
F7042503
F7842583
40B55263
0040006F
00000513
F6A42623
FE042503
F6A42423
FE842503
02051C63
0040006F
FA042503
02051663
0040006F
F7442503
02051063
0040006F
F7042503
00051A63
0040006F
00100513
F6A42623
0040006F
FE842503
04051E63
0040006F
FA042503
FDC42583
FFF58593
04B51463
0040006F
F7442503
F7C42583
F7842603
02C5C5B3
FFF58593
02B51663
0040006F
F7042503
F7842583
FFF58593
00B51C63
0040006F
FE042503
FFF50513
F6A42423
0040006F
00000513
F6A42223
0040006F
F6442583
00000513
32B54463
0040006F
F7442503
F7842583
02B50533
F7042583
00B50533
00150513
F6A42023
F6442503
00551513
F4A42E23
FA042503
02051263
0040006F
F7442503
F7842583
02B50533
F7042583
00B50533
F6A42023
0040006F
00100513
F4A42C23
F6C42503
F4A42A23
0040006F
F5442503
F6842583
26B55063
0040006F
00000513
F4A42823
0040006F
F5042503
FE442583
22B55863
0040006F
02000513
F4A42623
00000513
F4A42423
F4A42223
F6042583
F5442503
00B50533
FFF50513
F4A42023
F5C42583
F5042503
00B50533
FFF50513
F2A42E23
F6442503
02051C63
0040006F
F5042503
02051663
0040006F
01F00513
F4A42623
00100513
F4A42223
F4A42423
F3C42503
00150513
F2A42E23
0040006F
F6442503
02051C63
0040006F
F5042503
FE442583
FFF58593
02B51263
0040006F
01F00513
F4A42623
00100513
F4A42223
00000513
F4A42423
0040006F
00000513
F2A42C23
0040006F
F3842583
00100513
14B54663
0040006F
00100513
F2A42A23
F4C42503
F2A42823
F5442503
FE442583
02B50533
F5042583
00B50533
00551513
40455513
F3842583
00B50533
F2A42623
F3442503
00D51513
F2C42583
00B50533
F2A42423
F3842503
01F55593
00B505B3
FFE5F593
40B50533
F2A42223
FF042503
01851513
F5842583
01759593
00B50533
F2442583
01659593
00B50533
F4842583
01059593
00B50533
F4442583
00C59593
00B50533
F4C42583
00159593
00B50533
F2A42023
00000513
F4A42C23
F2842503
F2042583
00A0105B
40B0105B
0000005B
80080515
00000073
F2442503
04051663
0040006F
F4042503
00551513
F3C42583
00B50533
F0A42E23
F3042503
00D51513
F1C42583
00B50533
F0A42C23
F1842503
00A0105B
0000005B
A0080415
A0000FA1
00000073
0140006F
0000005B
80000FA1
00000073
0040006F
0040006F
F3842503
00150513
F2A42C23
EB1FF06F
0040006F
F5042503
00150513
F4A42823
DCDFF06F
0040006F
F5442503
00150513
F4A42A23
D9DFF06F
F7042503
00551513
F0A42A23
F1442503
40A0105B
0000005B
00030020
000000A0
00220120
001001A0
002403A0
00002420
000947A0
08000521
86825FA1
00000073
0040006F
F6442503
00150513
F6A42223
CD5FF06F
0040006F
F7042503
00150513
F6A42823
BF9FF06F
FA442503
00551513
F0A42823
00000513
F0A42623
F1042503
00F51513
01C55513
F0A42423
F1042503
01351513
01355513
F0A42223
F0842503
F0442583
F0C42603
00A0105B
00B0105B
40C0105B
0000005B
00020020
02040520
000025A0
00002620
20000012
21000012
22000012
23000012
A4000012
A5000012
2A000112
2E01FF12
2F000012
3001FF12
00000013
881D06A3
08000017
00000019
00000019
00000019
00000019
00000019
00000019
00000019
00000019
00000019
00000019
00000019
00000073
F7842583
FA442503
00B50533
FAA42223
0040006F
F7442503
00150513
F6A42A23
AEDFF06F
0040006F
FA042503
00150513
FAA42023
98DFF06F
10500073
